F7C
F9F
2F4
678
330
3EC
08B
34A
F0E
116
09F
43D
CC5
ED3
180
204
654
6A5
0AB
E19
178
17A
FC5
C54
0B4
1C3
397
622
D53
FC4
46D
7C4
FFE
23E
F56
C7F
D98
F24
F86
35F
ED8
FFB
271
101
45A
F37
FE7
F96
BE3
E63
255
662
B25
E66
017
7EE
AC9
D73
4FE
4BA
018
23D
622
6A2
36C
AF6
B3E
A26
3F4
634
46B
112
1BA
243
5C8
611
C9E
EF5
DA5
FA3
1B6
3DD
47D
696
F5D
2D5
208
4EF
D2C
BC3
D61
D1C
E4D
AB7
C92
9D6
263
485
286
11B
C59
2C2
324
4B4
BA9
D0B
082
FA5
E6C
AEC
F05
118
EF2
FBA
D1B
041
CEA
0C6
0D3
F8C
DE1
208
185
11A
C20
EE1
370
EB5

