019
D75
DCB
EE9
E1A
1D8
012
CAF
E6C
252
2DA
E0D
085
56C
40C
CA9
D46
E40
02A
382
E4B
D88
EB9
2E2
0A2
192
0FD
FA5
1C7
0A5
D0C
2B0
35E
22C
DB6
2C6
CD5
EE4
EB8
313
44D
E11
D8C
680
EE7
C48
EE9
405
FB9
DCE
229
280
243
B04
0AC
091
F83
EDC
0BB
45F
974
AEE
259
291
3A4
623
C70
36F
185
D1A
373
D29
D7C
1D9
28E
C34
2DD
1E2
D78
CB6
F5B
56E
F79
442
D3A
EBD
D8B
112
C17
0BB
25A
DB3
4AF
15F
DEA
2EA
F42
CB8
263
F76
ADD
D1F
E12
D71
FAB
2AE
CA9
2D7
F2C
2E6
F33
CC7
285
000
08C
235
C5E
BB5
131
F27
38E
E51
E5A
67C
F71
10C
CC1
429
EAE
3D9
37D
FE6
1BB
F1B
F43
16C
AF1
B99
EB5
D02
0E8
F7F
FA9
392
BF0
064
052
2F8
E35
35C
3EB
F3A
EE7
23B
EC0
456
041
004
24E
06D
ED5
668
051
DE4
717
49D
230
FA8
421
4DE
27E
E76
74D
40A
21F
F34
E6D
F78
450
A11
37C
41A
021
2BC
627
321
F43
AA0
2E2
2FA
2FD
EF9
CA1
CBC
C95
E8F
0B8
DA0
341
CE6
36F
0C2
150
1DE
30B
C8B
EE7
EB0
BED
067
13D
CC2
181
F29
16C
F38
C7F
CB8
27E
FA3
E04
293
F4B
023
C29
059
F71
DD0
13A
D10
406
319
E76
19E
3DB
CCC
563
CF4
ED6
11C
0C4
DDE
D7F
0CE
D7E
477
FCA
DA3
F70
235
2C2
FF6
4DF
494
47B
D17
E58
FCD
F84
3EE
210
D0E
C98
F45
C92
461
08F
00F
153
E5E
1F6
E8A
CEC
229
367
4C5
366
23A
B34
027
BCF
380
FA3
315
CD4
1CF
BE1
D23
E6A
133
268
D3D
160
376
4E4
3A7
321
F33
DA4
B56
295
5B9
091
E14
F1D
D9C
2C7
006
D5D
C50
E3F
299
E23
478
275
439
059
E1E
DCC
DCD
08B
21C
00A
FC4
F83
DF6
35D
FD8
3A8
C41
E31
CF2
D9E
E4F
115
11E
2AD
C79
F0D
D5B
264
C90
317
F3B
CA8
CBC
E32
D9E
0DD
FE6
1A1
3E5
456
2A0
347
F95
C1E
F52
450
CAC
356
4AB
F04
258
20F
CCE
48D
291
DC5
FAF
319
EF6
C6C
1C1
F27
120
2FD
557
38C
35F
1E8
B33
3A4
FB7
389
22A
D34
C14
0A0
D3E
C21
D6C
FB7
EA2
216
CA0
1C3
C73
09A
318
04F
F46
DBB
DBE
D39
1E0
FA7
EB0
EF1
C59
EBB
0D7
F09
E0E
FA2
0B9
101
0E0
417
5D8
12C
B2D
EC5
C88
0F0
417
04D
6C8
E7F
BE4
265
0F4
403
241
DE3
1C9
D9C
10D
D6F
CB0
4DF
157
C33
EA8
F6B
147
AD7
FF7
187
F35
0FC
0BD
CD4
E8F
C7B
C6D
EA8
CE7
15A
222
26F
E91
EA5
2F5
249
2BA
C66
C20
551
2EE
36D
1D5
DB3
E5C
EEF
0B5
D5A
12E
13C
23B
C0C
50D
DE3
ED5
EF6
C74
CFE
E71
29B
00C
CE1
CCA
E3E
DC0
E56
C40
DBA
5F3
399
F16
644
FCD
FBF
0AD
E01
593
F75
1A9
11E
F1F
358
DB9

