BD03D68E
BCC1C2CB
3E3D05B1
3ECF027D
3E4C3644
3E7B17D7
3D0B3625
3E52B8FF
BD712C82
3D8B28E5
3D1F722F
3E87B01A
BE4EBD49
BD9606D0
3DC033C6
3E01208B
3ECA9C19
3ED4B5B7
3D2B9D28
BDF34910
3DBC2D19
3DBD4C4F
BC69EFE4
BE6AC690
3D34AC2F
3DE1D8F6
3E65C59D
3EC45131
BE2B28F1
BC6E1AAD
3E8DA229
3EF897E2
B9E40621
3E0FAAA3
BD294E6B
BE603B3A
BE19E243
BD5B8EBE
BCF351F2
3E57C07F
BD9397B5
BA807AC1
3E1C6B9A
3D80D37C
3E8B581E
BD480ED5
BBC5337D
BCD303D8
BE838960
BDCE7C28
3E157984
3ECC45DD
BE9B57A1
BDCC987D
3BBD7441
3EFDCA98
BEA6C2A0
BE232A9F
3E9FC146
3E975105
3BC7ABBD
3E0F5D77
3EC444B0
3ED4424D
3E5B1783
BEA1214C
BE982922
BEBB2DF1
3E7D23A3
3EC68CA8
3E8D6B7A
3D8959BA
3DDD1FC8
3E10CEDA
3EB91089
3EC224E7
BE585C27
BD8560A9
BE16B670
BCB98419
3DDB6934
3E7742B4
3E8FB38E
3ED2DC28
BD221C01
3E3578A7
3E02194C
3E9DF53F
BE34EC8A
BE878F27
BE2797D2
BE38E0E8
BDD951DF
BEA91901
BE5B7FEB
BEC52EEC
3E18CBC1
3E90B3AC
3E218FF7
3D8DC2AB
BE69B1B9
3E30A355
3E4912EC
3E969872
BE8AC73C
BE3D2202
3D0206D3
BCB42EA4
BDC9E694
BEA27E98
BD7ADC1B
3D8C0683
BD86C61A
BC8B33C6
BE393D6E
3C83444D
BE455FDC
3D46860B
3D5387E1
BCE796BD
BE07A87A
3E02011C
3DC2832F
3D8D14CC
BE77E887
BD8F7DD3
3E5C3D54
BDA5151E

