FD
23
04
FE
01
E9
F4
16
03
1F
FE
00
00
C1
E4
F1
06
12
20
2B
1C
FF
0D
F8
E5
01
F7
22
F6
1F
34
FC
E7
08
FD
E6
0C
FC
FF
F6
EA
35
26
FA
F5
EA
03
1A
10
FA
EB
E6
09
04
07
02
F9
0E
C3
27
00
F2
EE
03
EF
38
FA
E7
1A
0D
22
FB
FF
C4
EA
F3
03
F3
40
1E
E1
20
00
F1
05
13
05
19
FD
00
FE
E0
FA
26
54
20
4D
22
00
22
EA
0B
0E
03
F4
F6
26
EA
11
26
03
ED
D0
15
F0
CD
07
F4
09
E9

