045
75F
01C
098
7B5
179
6C4
6D6
062
11A
7E2
749
7ED
0A6
782
790
71B
6A4
685
073
07D
15F
15E
76E
086
097
779
705
152
7AE
0DE
144
68C
723
0DD
7F1
6EA
745
0CD
062
790
0EB
712
05F
0C6
78D
05E
687
0EE
0DF
6A8
0BB
002
76E
097
01A
015
713
155
0C3
117
687
75C
052
0A9
02E
004
0E3
172
6B0
116
005
6ED
7F4
7D8
7F0
7D3
15B
6B8
6C7
72E
179
06B
170
001
07D
172
6A8
7F8
104
769
02F
0CA
15E
70C
047
78C
766
7C3
6C8
0B6
7E9
7A1
765
6D9
08B
7BD
74D
6EE
10C
750
7EC
00B
70C
08D
780
7BD
019
082
7D2
780
728
0DB
7A8
006
092
701
131
774
0B9
14F
72C
0C9
0AF
6F6
09D
17A
089
6D7
6E5
15B
12A
75A
151
6EB
088
022
06F
709
169
014
70B
042
133
776
73E
70F
6F5
0C4
0F2
0CE
067
081
065
083
6A4
7C7
6BE
758
029
795
0CC
165
749
7F3
0E1
6AE
79B
0FD
00C
098
7EE
730
7E2
7A2
04B
6C8
0A5
113
00B
6D3
166
761
155
78E
16E
06B
10D
6B3
6FF
147
0AC
71F
6C6
6BA
6D6
042
7CC
7EB
6AE
05B
695
08C
0BE
0E8
0EA
049
043
15B
72F
095
7B6
725
7B6
72E
6B2
0DF
04C
123
701
718
16D
764
120
755
0A3
77B
7D6
69C
75A
780
799
0E8
032
730
099
69B
155
745
005
17A
73E
057
762
7AB
066
082
7A4
14C
120
0C9
0CA
7E2
7F9
795
6EC
13F
724
092
011
6D0
09A
765
7A7
721
04B
00C
7AA
0C7
7EC
051
7C3
052
732
759
08E
07F
0A6
038
0BC
6AF
149
076
117
6D3
7D0
046
003
03E
6ED
790
768
001
0F1
0B3
000
06F
139
043
0D8
7E9
16F
13F
0E9
024
09E
117
70D
755
69F
779
689
0D8
05C
6CE
739
7FA
09F
06F
687
161
041
05B
147
699
163
70B
011
759
6AC
745
12E
11E
7EF
12A
14E
0FF
067
734
758
08C
006
11C
794
09A
7EA
75E
725
781
7D2
0C8
076
0C1
0A1
747
070
6DA
7FF
01A
73B
08C
722
6FD
03A
017
738
78D
112
743
084
0B6
6FB
0E0
050
0D1
0DF
024
76A
063
0A0
771
03E
7A1
6AB
73D
085
022
6C4
158
7E4
0D6
71E
15A
7FC
10F
708
74F
049
024
721
78B
6B7
6EF
796
145
7AE
6F0
6AD
17B
6CD
7DE
6AC
118
76F
70A
722
6DC
6DD
6B6
01E
0ED
0AC
0E2
6D2
72D
6EE
691
752
741
72C
72E
102
006
0C0
06B
7CB
13B
7D3
6D0
0C3
6EE
153
084
729
0DC
15B
134
014
0CD
134
06A
0DD
7A8
757
0E1
0CD
7B5
137
7A3
033
017
742
0C9
071
053
73C
74C
109
7F0
134
0BF
6E4
7E4
7EA
0E5
161
76D
17A
149
0FC
070
0B6
000
6CE
0A3
035
728
740
68D
7EC
75D
012
684
115
081
020
0A7
064
082
6B3
157
0FF
0DA
0D5
7B3
064
146
7C6
139
7FB
0B4
6F6
75B
7F9
01B
6AF
0EC
6C1
0D4
16B
7FA
104
0A4
7E8
023
6E6
169
140
7C1
7EA
077
0F7
13F
72E
748
046
0D3
009
0E3
0A9
7B3
163
7FE
75D
75C
041
090
7EA
00A
01B
7DB
0BE
0CE
79A
726
6E2
09B
04A
7B6
13A
767
6D0
046
68D
026
7D4
6BB
75E
111
100
0CC
6C4
6E1
04D
071
140
6D6
75B
16B
15D
78D
116
135
6D7
031
093
09B
0D3
061
168
047
6C0
00C
6C7
0C9
6B1
73A
6A5
137
714
732
0A7
7DD
764
773
021
0F1
7C3
10E
7F3
12B
0AF
740
7D2
759
766
6FE
04C
6BC
00D
0F3
06B
7A3
759
7E9
00B
003
695
77E
01A
76F
72F
717
6E3
79D
02C
045
6E4
044
137
78A
6A0
6DE
033
74E
7CC
125
6BD
750
0E9
09D
136
103
6C7
6B5
0DA
08B
723
094
0B6
08D
081
0DA
6A0
681
06F
7C7
7D0
6C9
697
7EA
7E8
7EA
048
715
00E
6B2
121
118
060
027
7EB
17D
018
0D2
6D4
7D8
691
032
73F
7E6
065
693
707
6DF
166
798
043
756
78B
770
7AA
743
000
044
7EE
6FB
717
14D
69B
72D
78C
0B4
0FE
0CC
70B
0EC
06F
794
769
005
048
77A
7E2
16D
76B
09D
055
6D1
7AC
75E
7BD
0D3
7DD
7DD
6AD
7F3
0A0
700
693
018
001
064
052
7DA
144
771
105
782
13E
7E9
0AD
709
0DB
0A7
688
034
75C
0BC
130
7D4
073
02D
0C7
6F0
0B7
165
074
7E2
719
697
006
008
70B
172
152
039
7D2
090
178
778
779
12C
079
756
11D
6F6
69E
794
70B
6A0
00A
01E
03D
0C7
0A6
6A3
71B
759
76D
6A8
0F0
6F2
148
72A
066
170
7D1
769
0B0
089
040
12F
056
793
717
6F2
15F
04E
15D
125
082
70B
0B3
6C3
7F8
7FC
7C8
735
7AF
719
149
7CC
08A
0E7
0C8
0FD
7AE
00A
7A2
051
6E0
780
730
6C7
0B1
6A8
005
6D9
11B
039
770
6AA
7A7
050
6E4
136
69E
753
736
00A
7F2
154
15E
6F2
69B
113
009
756
748
6FE
755
6D8
712
04F
774
0E5
018
763
067
09A
71A
11A
090
0F9
6CB
0D2
6EC
6FD
7BB
7C4
6EC
00E
6AD
6DA
778
104
120
161
062
06F
12A
687
7C4
028
7CC
6F3
147
04E
752
734
6DC
022
775
0D0
121
756
7B7
7CD
040
6AC
6FE
122
69E
6E8
122
0DC
0EB
732
6D7
11E
791
6E5
7AC
037
0A1
060
775
78B
6EC
0A5
161
6AD
0F7
057
062
08C
6EC
6EC
11C
783
078
71C
7E1
74B
0B9
6DA
0D8
6F5
75D
747
014
7EF
6E3
78A
161
799
67E
054
150
6A4
799
7CF
173
730
0B6
75B
09E
7DD
04A
0C4
001
6F6
171
055
090
773
14B
046
6EF
0E0
6E6
155
01F
703
6AE
06A
14E
75D
10F
06B
0C2
6F0
718
080
034
091
174
6CD
7EB
006
6E7
0BB
6D6
039
6C5
695
12A
75D
72B
002
71B
783
127
7AF
798
6DA
6F1
7DF
0B8
067
759
0C9
062
178
6A1
053
700
700
03D
6D7
6F8
726
78A
0B1
03B
71C
13A
7C3
074
11F
10C
0F9
77D
05C
152
694
6D0
783
6BA
0C7
0F6
00A
149
7DC
167
6FE
06C
7F9
00A
102
7F7
684
79A
6A3
04A
767
130
7F5
751
6AC
69A
782
758
6A2
707
6B3
027
6BD
6D0
11B
7BC
103
6E8
7E4
69F
6F4
729
6FF
7BB
064
767
7F3
778
73F
74F
00F
17A
6EA
6A4
7AD
71E
0C0
11F
0A1
6A0
7AE
01D
17A
07D
004
09E
169
735
7F1
744
0C3
096
7D3
02D
066
70E
78D
0B7
75D
174
71D
6B9
7C9
711
142
0D9
697
01C
7C4
7F6
16F
701
78B
724
118
0BA
7A6
7DD
0A4
7D5
74E
0F8
790
161
05D
13B
053
688
01D
73F
10A
7AF
060
71E
0AE
6FC
6C1
14F
000
69C
6B9
13D
059
110
0A7
00A
71B
083
790
0F1
0B6
132
7AE
717
0BD
756
720
760
06A
13B
045
043
0BD
156
008
0BF
0D2
05F
09D
745
71F
141
04E
6D2
6A2
12C
70F
03F
000
701
14B
065
0C3
01D
79B
74D
6C0
6EB
143
099
0FE
045
108
7D4
70E
731
0FF
107
75B
0FF
058
006
778
77C
7F7
7C1
7F3
7BE
7C8
7FD
6FE
72A
69E
095
7CC
111
0B0
74A
0F5
0F9
0D2
154
738
06C
115
0BB
77A
6C9
08F
099
7A4
6E8
737
15E
0A4
079
6AC
7F3
6B6
758
707
155
758
075
765
144
732
0DF
085
764
105
74E
00C
019
6C1
0FF
146
718
76F
6CE
730
7A5
704
69E
6F6
792
6FD
143
16D
002
145
072
0EA
16F
734
6B4
02C
009
096
6E6
092
06F
7AC
7B7
7CF
6D2
14B
0E3
083
707
6FF
6F5
036
6CB
145
781
104
7F5
6BA
7F3
7C3
6D0
14F
103
700
0A8
142
760
710
001
0FE
6B1
12C
6A6
13A
78B
76A
6A8
6F6
049
14F
696
7F9
079
68C
01F
01D
087
0FF
0BE
089
075
0FC
01D
746
69C
16D
707
74F
7EE
6F5
0DE
698
0BF
6B5
11A
73E
6C0
0B7
696
713
70B
789
70C
74C
7BE
179
128
104
0DF
695
0D5
064
05A
6A3
137
752
0E8
734
0B7
132
0EE
103
71A
05D
114
0B8
110
01E
0D4
0E8
0D7
67F
016
76A
76D
6A4
790
0DB
154
783
03A
061
0CF
058
0CE
6E0
686
088
165
77E
6F7
0D7
757
06D
73A
0ED
13D
05D
049
736
7E9
0BA
7BE
738
036
76B
0FD
7AE
0E3
69D
7FC
0D2
104
099
757
694
0FE
0ED
149
79D
079
028
07B
7B4
6FD
6EF
751
10E
7A1
096
6FB
73C
0B2
14E
05A
0F7
15B
731
697
01A
7DF
6F0
7B4
76C
6DC
6DB
0FF
7D8
688
73D
0B1
779
077
0BB
6EB
739
77E
6E0
6CE
7D9
0FA
105
77E
0AE
6AF
73C
175
05A
71C
140
6FC
16C
7CE
16F
77D
0E5
6B5
6EA
6DF
07B
0E5
7FE
158
73C
120
075
7C0
044
159
6E2
147
7CE
7E8
77E
6DF
03D
6C5
7F9
0D7
0F6
6E7
6DC
0C7
00D
6CC
6FA
769
159
0EB
6F4
764
795
7B9
7A0
692
045
7CE
7D4
7AF
745
6CF
688
7F6
178
714
022
6C0
706
729
109
04F
0BE
05E
6B8
688
789
713
03E
0F9
742
08B
6C0
04B
11C
773
059
72C
6EE
0BB
798
7EF
6E2
023
776
071
0F5
0E4
0C7
017
6F2
6D7
0D2
12C
69D
0BD
7C1
7AB
0F8
795
050
117
0C6
06C
04D
68E
785
0DD
0DA
08E
12D
771
6A7
6C1
0D0
734
6E2
082
6D1
75D
16A
741
7A6
706
7E4
694
10F
052
0FB
69E
6EB
0D2
0B1
6F8
0C3
6F9
68C
744
7F0
028
0B7
719
6E6
726
69A
68A
6AE
163
09B
74B
765
7ED
0EC
70B
16B
6D9
6DB
7B5
0DC
7B6
170
76D
087
7C8
7A5
777
16D
6F3
699
01B
778
0E4
6EB
025
0A6
066
0CF
79C
11B
68E
720
71C
748
063
0A2
106
7D8
0C1
0E4
7C2
6EC
15B
03D
6B3
11D
110
7C5
151
089
15D
15C
797
0FF
06D
15C
6DC
6FD
75A
7B5
7CF
080
76F
791
12D
07F
705
6B7
7D2
6A5
053
77E
0FD
745
02D
752
010
795
68B
68F
7F0
717
723
693
09C
179
05C
0B6
045
122
724
76D
0AB
6FF
094
10D
689
683
687
706
7C9
07F
04B
152
7CC
7F7
171
79F
16D
12B
758
13E
744
6F7
6CF
6FB
143
161
733
780
14C
7D5
698
7AD
6FA
6BF
024
67E
147
170
10A
00A
74E
172
6DD
6C5
059
151
0C6
144
142
002
6DC
7A3
751
07B
00A
155
790
00B
016
00D
729
70B
005
0F5
6F0
0D8
792
0A2
790
023
006
122
016
108
0AB
706
737
0E4
7F2
154
754
0B3
7B1
05B
153
0E1
7FE
0D7
6CD
763
77E
15B
6EC
007
7A0
6E9
10C
04D
0EB
122
695
6C5
695
6CE
733
75A
6E9
7C8
12E
763
0A5
74E
030
74B
6A3
7DE
16A
14C
6F8
129
6F8
6E6
0D1
6F6
789
021
0F5
7B8
066
0CC
76E
75B
162
02E
0A6
129
019
02A
09E
0EA
117
07C
00F
733
03F
729
7AC
047
03C
6EA
790
7D4
10E
7ED
08C
694
7BF
7B8
7AC
081
740
03D
16D
084
104
720
167
0E8
70A
732
72A
0ED
791
0B4
147
0E4
128
131
0F7
138
705
150
16A
0B4
0B5
7AE
010
7C7
0B5
7BB
00B
108
6C9
0F3
6A4
135
762
740
6F1
6E7
0FA
043
0B3
11B
044
700
6FB
7E5
7E0
724
773
171
7F1
151
7C1
145
73B
001
753
08B
7DB
75D
75D
04E
6FD
11E
745
0BA
693
0D3
0CB
747
121
789
68B
01B
752
0B7
05D
0D8
7A0
73D
7BB
130
0DE
7F3
685
059
0AE
0A4
742
7A8
733
787
7C9
124
11E
7DB
135
69F
75D
700
7CD
7E5
166
751
088
7B7
68F
12D
708
145
7A4
7AB
094
6D3
6A1
710
7B2
72E
6AA
12A
00E
738
04E
0C8
6B1
740
7B5
042
6D7
76F
7D3
70F
7BF
10D
7CB
7CF
74B
77C
07B
786
7ED
6CF
6E7
698
072
140
0BE
085
13D
711
137
73F
7F3
7DE
01E
0C2
143
038
758
022
711
7FA
068
107
16A
056
02A
714
16E
7B7
768
792
6B3
6B2
139
009
732
77A
7B3
0C5
0F5
680
06F
0D8
71F
716
013
0D0
712
091
753
109
0D7
06F
702
025
7FF
080
7A3
076
7B5
12D
7D4
126
719
696
700
709
78A
68B
0A3
0AB
7D6
162
6E1
138
6F2
79A
697
6A0
135
7A1
752
71C
7E4
04B
15E
7E7
0D4
69F
7AD
71E
0D4
04F
738
121
77E
163
6CE
773
72A
708
00D
7F9
7FE
0BD
6D0
71E
11C
0CD
07C
017
011
048
7AF
039
6FF
14E
7DE
782
098
007
6A8
6B8
0B8
00A
0BC
160
788
7FA
01B
093
0C3
793
6F2
05C
77E
73A
755
15D
05E
09A
753
70A
6F1
00A
039
065
01E
6B3
154
139
6F3
6D6
0A2
0C8
71D
0AD
7DE
7B6
057
0D3
03D
0B6
11E
75D
6FE
166
06E
0B2
736
14A
058
7B1
7F8
066
03D
006
052
708
712
6D1
0B7
792
7BC
728
77A
07B
7F7
745
13C
7B1
7A2
764
7B8
13E
078
114
062
003
01E
14A
109
7E8
7EE
150
691
106
0B9
6F1
09B
06A
698
0EE
795
0EB
6BF
11F
7C7
02B
7F9
7FA
6CD
029
6B6
142
078
6A4
074
00E
694
147
03B
11C
00E
7BF
7F4
01B
6CD
144
155
6C7
6E2
717
730
728
0AC
761
15D
6B6
793
745
765
163
163
7E8
6AA
034
77C
044
77B
7EC
780
033
0B0
10F
715
0C9
049
0E5
759
07B
148
0EA
107
001
78F
0B0
693
6F2
6BC
0CF
000
7E5
70E
02E
795
025
79F
0A3
04F
0D2
779
0F1
043
7CF
139
6E9
7B0
049
69C
6C0
767
139
737
7F7
796
084
082
6EF
168
09D
177
788
723
68E
6FA
73C
175
733
03F
12B
00B
071
7AF
759
745
6D7
764
6D8
0AF
69E
6B5
101
7B2
097
0E7
744
6EB
14F
79F
69D
15D
6C7
143
165
14C
789
7E3
6B1
7B1
75A
034
149
6B3
69C
76D
73A
176
155
7B8
6BD
7F0
00E
71F
758
082
12A
0B4
012
07D
0E4
69F
0B7
7B9
149
69C
15E
00A
754
026
704
796
7A1
7A1
7D4
720
761
12D
07D
10E
7BF
704
693
6CE
049
12E
6C2
10F
67C
7D5
7F0
7A6
11B
0FA
12A
7A9
0A8
7C6
0B3
6C2
733
06F
0BC
7B8
058
046
0D3
044
6D4
184
107
098
6BA
689
698
6DD
687
0E1
7F4
69A
14E
7EE
777
0EA
73A
6B7
6CB
04B
0BA
14A
15A
02F
0F5
156
725
179
08E
6AB
742
79B
0B7
069
6E4
6EC
0BF
697
0BC
769
12F
00C
138
73D
152
750
009
6B5
0A5
06C
6C4
06E
6E3
738
743
757
6F7
6D0
6C7
757
6E5
6BC
779
014
032
025
6CC
163
705
7BE
094
085
14A
0B5
115
003
69D
061
769
6C8
02C
794
6ED
0AC
6E3
06C
6C7
16C
026
75F
15E
713
0A6
6AC
687
7BC
007
137
7BC
02B
7A6
018
130
703
76F
069
070
0F8
72E
0C4
057
175
689
725
0BB
14F
112
75C
007
007
744
7A3
70F
17C
045
056
6BA
72A
71E
06B
74F
05B
096
7DB
04E
7C2
07A
0FD
7F7
146
0AD
137
09A
6D0
7B5
001
0C8
0E0
127
049
6A5
6E7
001
6BC
76F
105
7E7
0F9
029
7EA
045
0E6
0C2
693
683
710
027
09B
71F
733
77A
0EB
165
0CE
029
033
7E9
73B
0AF
6AF
728
6AA
0CF
7F9
108
051
77E
774
731
7FF
72D
7AD
7E2
042
6F1
01B
12D
778
164
7C3
6F4
71C
060
7C8
72E
70D
7C8
689
118
7D7
112
075
061
6D9
02F
0A7
738
691
117
07E
098
062
171
0FD
03D
701
776
108
77F
69E
079
039
15B
6F0
763
16F
7DB
179
02B
71D
0F7
6F7
6BA
101
071
00C
76B
7CE
0E7
74C
0BC
068
0D3
762
13F
00D
6D7
6BF
0A6
0AA
6A5
131
01D
02C
799
071
7BF
064
175
133
71D
0A4
74C
6CD
14C
0FB
7CB
73C
0DC
6B0
6B8
037
6FF
6C3
114
022
7C3
692
7FC
753
73F
173
6E9
6D2
095
70A
699
6B4
12D
72C
7B6
7DF
6A1
0C1
6C6
7ED
777
731
071
101
731
72B
741
16B
70A
7F7
05D
14D
097
76A
036
078
0FA
6C5
172
14C
17C
029
76B
109
08F
7DA
7B6
73C
06E
101
0DF
035
7E1
6DE
7A4
092
6F8
6DF
7E6
797
6FC
14B
6BE
6D8
15C
6FD
6B1
72D
710
13F
7F5
734
070
703
7FD
76E
02E
069
786
74E
0F3
132
0F7
0E6
7FA
6BE
11F
717
717
6BE
070
7E7
035
6F4
08A
694
6BF
090
026
0C1
0A9
0A4
7AC
7EF
07A
02C
71D
7EB
7E4
134
7CD
10E
05C
121
728
76B
689
167
057
11F
027
158
159
71C
6DB
119
6E3
775
186
6AC
024
169
0E8
050
78A
025
6DA
7B3
155
72F
021
00A
7DA
125
6F8
791
71E
02D
6BB
7DF
698
75E
7B9
14B
704
11D
754
0D5
78C
6FA
7BF
059
6DE
040
03B
6D8
050
696
0CC
6C7
6FA
159
07D
6BE
684
6A2
6D0
002
72B
04D
140
69D
0F8
0EE
033
7A1
7A7
6EF
714
7C9
03A
7FA
0AE
109
07A
7DE
718
76C
7E6
026
151
7AE
145
0E0
0AC
0DB
03E
78F
7E2
79B
69E
107
16E
716
0B7
687
053
09A
6CE
715
0CA
001
746
7E6
025
79D
787
6CE
0E1
091
7A1
158
73D
0B8
685
0D0
72B
6A5
7CE
73C
709
78C
02F
0C9
0EA
691
758
161
749
7A5
02E
761
7E9
785
690
04B
715
772
130
717
0C6
721
043
6D0
6D3
7F5
0FD
095
686
6C6
7B8
7DE
694
7F0
068
793
7C3
046
11A
6BC
09E
6A9
11A
7C2
0AD
70C
781
7DC
6A4
0A6
0F3
781
73E
6EF
000
033
080
7A8
128
71B
733
046
79B
6F4
127
7EB
0B2
0EF
784
73E
16C
77E
711
03D
156
712
164
76C
17A
7AE
6CF
147
0CB
142
73C
06D
094
6B8
735
701
070
0BF
7FC
112
6C3
7CB
7C7
754
719
7EF
063
6E1
05C
6B7
03A
023
105
6C1
6B4
178
069
0B7
6D0
6A7
7F9
05D
147
7EB
796
000
11D
6A7
083
106
0BC
779
779
05B
7BA
01C
0D2
152
759
6F0
066
700
0F5
6BF
7B3
778
6D0
6D8
010
175
749
14A
127
68A
6B7
794
75C
75D
0A8
7F3
74B
7A9
0BA
116
7F7
75B
722
6CA
13D
0D2
746
16A
158
08D
12B
79C
0DD
12C
7A8
0C7
133
717
076
140
72E
6A6
78B
6D8
7F7
0C7
165
15C
783
7FD
7B8
03F
6FC
0D9
02F
10E
152
7CB
0AC
796
767
143
064
082
7F6
14B
7D6
7D0
0CC
6B9
107
68B
010
0D6
726
7F8
6EE
6A8
7D9
7AB
76E
6FD
0AA
052
791
7CE
6B4
089
151
770
0F4
0CD
69A
053
6FE
12B
7AC
6E5
711
754
115
712
6EC
774
7AB
76B
673
109
7D3
6DE
0FF
76C
128
7C1
66B
6D6
0D5
12B
0EF
0F7
7DF
037
032
0D7
71D
7B4
04A
6F3
793
75E
699
6E1
7EE
76C
173
09A
699
116
7C1
0FD
0B5
7EA
05C
005
711
74F
7FE
6FB
058
0BC
7B9
7B8
723
05C
6DB
15A
63B
7A5
6BE
709
01F
763
03B
044
712
6E5
024
062
6D7
01A
0B6
6C6
6DA
74F
699
6F7
0C4
6BF
0EE
000
6F8
0C5
03A
6BC
66F
7BF
16E
6FD
683
7AB
7F5
026
12A
710
0D1
0C8
67C
142
70E
7F0
71C
6AC
185
015
040
768
7D2
6F1
785
163
014
6B3
16F
6EA
7F9
735
7D5
13C
13B
091
012
7A6
780
0F4
77C
110
077
6D5
745
0CF
09A
6CD
0EE
754
138
082
767
742
693
09C
089
6AB
02F
75B
02D
79F
71A
016
7A7
715
7F4
7E9
6CB
774
01D
155
003
13C
019
08B
7FE
172
028
7A9
10A
765
7BA
0ED
03D
061
0B7
723
725
6E5
759
695
130
15D
6AA
00C
6D8
0F6
0A5
6DB
779
704
7AB
0F8
704
69C
047
79C
6EC
6B9
00F
71E
782
6D0
6E1
746
00C
0D6
147
107
0FB
7AE
0BD
080
770
143
7A9
7BB
100
0A9
725
7F8
006
07E
708
059
06F
7B4
105
07D
6DF
753
028
141
68C
09F
0AB
793
095
106
728
067
73B
045
072
76D
12D
7A7
6B9
158
0B9
66D
110
060
093
745
7FE
68D
729
067
699
0C0
6CC
6C6
701
6EB
04A
7DA
69C
792
178
737
6BF
0F1
096
747
6F0
0EC
045
179
78B
6CB
155
7AF
7B9
719
0E5
71E
097
14E
6CA
04F
024
69F
6B4
6AA
077
754
0B6
72C
05E
712
7BB
6B4
0C6
76D
6A2
0A9
08D
04C
74C
065
69A
12B
09F
150
0EA
0F4
01E
03B
126
6C4
688
77B
119
171
0B0
7FF
774
003
07A
036
6DA
798
0A0
72A
73B
164
789
146
11D
7C9
0FF
689
788
12F
7E6
102
6C5
0CE
796
0CC
6A2
019
6AE
6FE
6F0
6B6
047
12A
076
6D9
0F4
0C9
718
7C2
107
6D0
0F5
794
7D7
0B3
7BC
00F
0EE
067
6FC
04F
151
704
02F
137
696
6B2
71A
143
762
02F
066
710
0F6
707
6C7
0CB
0AF
6A8
100
113
0EB
089
11A
0DA
147
735
15B
14B
7F1
71B
7E5
00B
10C
16C
0E9
7DE
0AD
6D1
086
76D
7BD
049
73A
0E4
0B8
15B
79E
748
0F4
137
03E
069
6FC
7FB
09B
03A
72C
106
6CC
118
175
14C
009
7B1
057
7E7
03A
102
756
116
123
103
7CB
001
6EA
6D2
022
0FA
04B
72F
7D5
74A
0D0
7FE
6E9
71F
6FE
112
060
754
6B6
0CB
73A
13F
010
7F0
0BC
090
085
6A0
0ED
7D0
07B
00F
103
15A
019
6DD
6EE
6F2
0D9
15B
7AF
69A
00E
024
0A4
0E6
0A0
0A3
701
0CF
6A8
10D
098
0D4
6FD
6F6
0B2
6DE
039
694
6A5
6BC
0BB
789
7C0
12E
099
727
059
6B0
020
06A
095
0B8
6FF
728
0DF
0C7
172
0A5
72C
74E
002
0F3
747
0A8
734
680
172
74E
718
774
6B9
013
7F7
175
052
07C
6F2
0DD
118
72E
02F
730
0BC
0FA
6DC
092
7C2
156
007
14A
044
723
070
03D
142
757
0F3
114
7D9
0BD
6AC
6CC
019
067
731
74C
03B
0D7
726
119
175
696
0FB
7A1
6C3
7DC
152
120
159
7EA
004
104
0D9
766
15E
737
6A8
7B7
7CA
799
13F
07D
15E
723
061
01A
076
7EF
6E6
0D7
0B6
009
76F
6CE
6F5
79E
73C
059
694
6D5
0C2
71E
777
023
79F
174
7DD
79B
793
01D
065
712
05E
724
007
6BD
748
768
696
6F7
03B
12E
147
7FB
713
0A7
7F3
023
71E
6EB
6BF
7DC
6E4
0C5
177
04C
146
042
027
02D
0C7
754
161
16D
73B
7AE
144
097
163
70C
758
6F0
0CB
759
72C
100
76C
7AE
010
6A2
046
707
0E4
799
7D5
078
13B
034
01C
0E5
77E
104
68E
741
0D8
0AC
7A9
769
148
7C5
697
731
0EA
11F
00D
7A7
772
6A0
6F8
75C
0E0
091
0BA
797
0B2
70D
72E
6B9
737
14A
7E0
6B0
09B
083
785
066
0E3
781
06A
772
7A7
738
0F3
053
71B
6B5
028
130
0B0
08B
72D
6AD
076
74B
119
6A8
7B5
027
6BA
11F
0F1
780
08E
766
6C1
145
01C
079
6DC
6D8
035
01F
683
0FC
0D1
76B
759
13A
0ED
15A
08F
167
6D9
0F9
6B0
0C1
73A
676
075
0A1
7D8
75D
7CA
7FA
169
083
7B7
75C
6FD
6D5
79C
71B
7FC
062
092
0B0
6BB
6AE
7E3
799
0A4
7E9
111
0EE
762
6B9
758
695
110
6C8
6D5
1A3
75E
08B
18C
0D7
0AC
10D
711
148
691
16E
7A1
07C
106
6A8
7A8
0A6
6E0
133
044
0EA
773
0C9
0C0
081
155
714
049
063
0D2
08C
073
715
685
19A
113
071
6D6
7E1
7EB
693
093
75B
02B
78D
7C5
009
037
107
036
6AF
798
15B
7C6
0BD
702
6C3
6A4
685
0AE
75D
190
0EE
7A2
06C
729
690
113
66F
041
032
798
72C
168
109
79B
72C
054
06D
70D
6D3
702
7A0
6B0
78C
6B9
0FE
0B6
74A
62D
114
79D
73C
79B
735
74C
0B0
165
6C3
000
6BE
7F4
791
001
15E
755
0A2
0EC
79F
134
0AC
000
764
121
0FF
6E1
68B
13A
727
0B9
7D0
0E3
098
69B
051
7AF
02E
707
683
7E5
6D7
6D2
7E4
6AD
737
045
780
101
06B
76B
02A
6D1
69D
0EB
6A4
04B
6AA
6F7
752
787
05F
0D7
096
6BC
7DD
7C1
687
7CE
138
6CE
126
757
6C5
0DF
6F8
030
13C
055
7D2
763
126
739
05A
014
6C1
038
012
0BD
16A
167
117
715
755
713
713
6EC
0BE
7AC
0C2
112
02D
06B
722
021
168
003
151
7A8
69C
74A
6CE
723
0FE
04A
055
7C1
0A0
0A2
13B
65F
092
75D
74E
0F8
6F3
06A
048
054
04D
6FE
7D5
69A
798
0C3
7CA
776
008
71F
02B
686
72A
007
050
6DD
116
0CD
0B8
76D
10B
6AE
7D0
0F8
11C
038
691
74F
06F
7C8
70E
0D8
718
763
77E
797
7A9
139
00F
75F
763
146
696
02E
7E9
028
143
0FE
01C
030
0C6
145
7F5
14B
6FF
737
077
69D
7D0
0DF
6BE
0F6
7AD
6C2
6CD
70A
6F8
77A
085
7F4
11F
785
05A
081
172
6F2
162
776
149
6BA
74B
78D
020
74F
068
6A3
726
798
169
730
136
6F6
067
126
69E
12B
740
6C2
113
7E0
16B
00D
74A
130
6B2
783
0FB
7AC
153
0B7
7BA
7B4
7F9
117
6C8
097
068
699
797
0A8
14C
0FF
7F4
6E3
6F9
142
17A
14E
029
76C
11C
077
782
72F
71B
7EA
119
775
6B3
7B6
0E1
0CE
153
6C2
0FF
0C3
136
7E4
0AD
081
7E4
7BB
093
74D
7E2
172
6C7
7B4
125
7D4
699
73A
771
6A0
05F
114
039
743
167
672
714
102
6EA
058
6FE
68A
12E
088
050
099
6B9
128
00F
106
097
732
066
052
79D
638
16D
6F9
7F8
7CB
717
12F
0AE
702
02D
6C2
0C9
180
020
007
778
04D
154
14F
0CB
78F
7B5
02E
007
6FC
690
06E
11A
041
7E1
69E
70D
73D
0C1
111
033
03A
082
7C4
0F5
04A
0EA
04D
6C3
08C
6F7
012
09F
7B5
7FB
78A
6F2
750
708
054
062
768
6E7
773
73F
070
0B1
074
0E8
097
79E
046
71B
02C
011
71E
694
6AA
0DC
131
037
055
69F
760
0E6
0BA
112
140
7B4
6DB
159
051
735
6B9
085
761
7F3
6A3
71F
150
6E7
040
0AC
16E
0A2
0C5
78C
13A
6C6
782
00F
6D6
778
7B6
081
082
6B4
013
711
09C
785
15B
171
03A
132
754
797
74F
0C0
745
6B3
11A
746
105
74C
725
0C1
171
13A
6AF
683
6DD
757
6F9
142
787
7D7
113
03E
6B0
6CC
17A
0D6
771
6A3
758
13B
013
6F5
172
7E5
700
01A
08A
774
726
74F
0EB
6E9
78B
76A
754
163
10A
008
7BD
080
0A9
034
724
727
7D6
117
763
099
7E5
0ED
126
74D
7C2
142
77D
704
739
0D8
6ED
77A
74D
0FB
770
6A7
771
00B
0B9
0E9
738
6EB
132
031
78A
079
76A
6BE
79F
69B
158
6BC
04D
040
7CB
6AD
0FD
6F8
757
050
6E3
6E1
6D5
71D
743
176
7AF
073
7A0
0E5
6A8
144
7B1
77F
16E
72E
6C8
6C3
13D
11D
0C2
77B
017
702
077
0B4
0FA
142
001
682
706
11E
7F5
0C7
17E
6BF
691
016
167
01F
108
6C8
7C5
004
7A9
04B
0E3
758
058
761
702
6AA
77C
0BE
131
017
0DC
154
7C5
73C
67D
7B2
107
7FF
705
000
68B
676
707
0EC
683
6CB
0F0
7F8
119
78A
78A
6DD
728
0BA
6B1
759
16F
055
68A
76D
7FE
0C5
0C9
02B
15B
713
699
783
6EF
724
142
6E8
69A
000
161
776
0D9
106
703
16B
7E5
058
761
0DA
731
6FC
79E
68C
016
012
794
749
0B9
063
109
73A
786
7AC
12B
7F6
038
742
77A
716
011
0F3
09A
0EF
79E
0DF
03D
0D9
7A7
787
114
7C4
018
065
07A
0B0
7EB
143
6C3
6F8
75D
07D
741
6FF
026
098
0DC
0C0
0B5
061
020
7E1
77B
6BE
7E1
000
6C0
088
0DD
6C7
094
151
7F9
67B
779
004
706
7BB
11D
0CF
04D
0A4
704
6DD
715
73E
79F
03F
6F1
778
013
016
741
6DD
746
115
6E7
001
737
7A4
094
057
0C7
732
794
064
117
6BE
098
11E
0D1
0A1
7ED
6D1
10A
78C
6E2
13D
119
001
6AC
041
6EB
01D
735
716
6AE
6D3
770
099
7D8
03F
0C1
0A7
74C
000
17B
010
0DF
772
6C9
05D
146
119
153
026
76E
721
747
003
176
7A5
7AE
0B2
69C
78C
721
146
715
0A1
790
7C4
75C
68A
114
6AA
680
015
6E6
0A6
72A
687
0AB
14F
798
7CF
752
75A
06B
144
002
10F
7F7
7A2
6B0
03F
7DB
7E9
7DA
045
0BB
790
0C0
748
7DD
787
7FC
11B
088
0D4
06D
78F
004
7D4
101
6B0
147
16E
775
129
006
6AE
74E
0D3
6D0
007
11E
016
015
149
729
7E1
008
011
77B
0AC
7AF
0D6
794
7C7
7A7
140
0A9
0BE
152
004
7EE
14C
698
7AB
0A7
0D4
7E0
6D5
0CB
02E
7CB
7C9
0EC
021
0D1
6CC
740
71F
6ED
68C
68A
736
6CC
0BD
79E
09B
083
0D3
163
700
7A1
0D1
12F
029
00B
071
096
178
11F
6E3
7DE
7F2
078
7FF
163
0DE
0D3
7AB
6B7
72D
7AE
724
031
0CF
77B
055
74C
68C
05F
7F2
7CE
02F
7A2
08E
028
753
7D0
6EB
6C7
731
112
6E0
728
6C4
6A0
0BF
0C1
0C7
7F9
051
064
75C
030
7D8
170
0C8
088
6E2
7F8
147
733
7EB
6CD
00A
747
77F
118
0F2
769
7A9
7D2
0E8
78D
7DD
02C
75E
0C1
6C5
74C
6D8
68D
13B
7F4
030
688
782
00F
151
7B3
151
7BA
03F
0C1
007
0B6
0DC
6F0
06D
0C0
125
7EE
123
6A8
010
79B
0BB
075
6CB
051
79D
76F
054
673
6C7
6F0
7D2
044
066
7EF
7E1
0C3
067
6A5
6F7
124
072
0AC
0F1
6FF
05D
153
00C
6EF
7D1
7D4
158
6C9
6F2
753
6EF
724
0BB
70B
727
139
75D
159
6C7
752
084
7F5
0BA
78A
768
6D8
76B
113
00D
755
760
19B
73A
13D
7F1
0E7
0EE
11E
11C
10B
023
072
7AE
7F0
71B
0C3
6AD
6D2
735
778
7C2
023
0C4
780
6CE
664
111
7DE
0BE
7D9
7A6
6D4
760
7BA
0CF
094
7DA
7F4
062
028
7DD
77E
775
11C
108
694
01E
152
0E6
069
0EF
731
6BA
6BA
691
6EF
76E
0E7
71B
77D
7E1
082
028
14B
7CD
7CD
707
164
744
6F4
087
7B5
6BC
701
71B
04C
01E
02D
760
00D
6B5
7E8
17B
7E8
6F0
054
699
0A1
0EB
6F5
08B
178
0B9
6C4
0E8
0FE
171
097
04A
797
6D4
721
7DF
09E
157
74C
7AE
783
0F0
7C0
76B
138
7CC
166
0A7
7ED
76B
11C
126
15B
13B
10C
008
738
6FD
102
035
126
083
7F1
0FF
141
177
6B0
0F1
6CF
7C3
6D5
6E2
139
7A6
6A6
06C
6F6
725
041
71C
05E
6F5
6E6
6B5
6A5
7A5
77D
74E
7C2
713
7EB
077
779
6E0
69E
6A1
0F2
158
025
74F
0DE
12A
7CB
693
07E
6AF
051
6B3
7EB
742
767
005
6AA
7B3
70E
13F
78B
757
00A
10E
04E
118
6E8
134
716
128
75E
6B3
796
140
69F
05F
0B0
6B4
103
09B
778
0B4
1A2
0AF
6A2
0A3
013
722
738
162
00F
07C
7A5
764
74E
7DE
6F4
10E
72E
7C2
053
7F1
160
6E2
77E
72E
045
73E
000
723
755
77B
0C6
04D
785
0E1
102
7D6
191
793
034
0EB
7F4
083
72B
69B
00D
080
023
105
746
7AB
052
7A4
0A8
73A
717
060
118
0C1
171
0B8
0A4
7BF
7B1
729
69D
07A
080
0D8
7C0
025
6DF
03B
056
037
0ED
706
754
041
09E
127
754
732
762
7A3
0FB
159
71B
078
73B
096
6ED
7B2
752
033
11F
6F5
05E
776
0E9
6CE
724
68F
73E
706
090
045
729
6BB
001
727
76D
6E3
745
13C
117
78C
6F5
0BF
066
054
6C2
7B5
150
07F
15C
0CF
693
743
0B3
07C
00F
127
134
6C4
157
05F
6AA
066
7E0
745
123
7D7
7B2
108
777
112
056
0B3
6B0
121
0EE
6CE
112
6A7
041
12D
6CD
03D
151
169
76A
714
142
0F0
764
116
07C
686
7AC
069
176
0E3
04E
03D
16D
0C5
02F
0FB
69B
10D
111
7F5
117
14F
136
74A
74C
096
734
16A
0B3
721
703
794
010
0DC
75D
699
165
7FD
7E2
0C1
12F
6AF
128
781
6F5
110
6EF
13E
75A
032
148
7AD
6CB
7CF
031
7F7
785
795
7D8
09F
152
129
149
0D1
16B
6C5
7B9
7B4
75A
170
792
0B7
73B
76B
058
052
0DE
7D6
73E
007
68D
16B
6F9
693
7E8
7C2
015
75B
12E
7B9
08D
6BA
0D0
7A2
77B
792
7B3
0CA
0A9
768
0A2
043
12C
0E4
0A6
0D9
7CC
6DC
6EE
78F
024
6E5
0D9
7F5
749
056
7E3
134
71F
029
6BC
096
724
7F5
749
6FE
112
05F
04D
02C
689
068
078
0CB
752
67C
7D3
0F3
0C4
6BB
02A
7E6
0D0
7F1
115
72E
748
132
778
0B7
04D
7DB
0D3
0A0
7B2
6A0
15B
6C6
0EB
0A9
0A1
073
03B
14F
14E
04A
6FE
0ED
011
0EE
0E0
05E
0DD
003
099
117
6CA
74D
7D5
06D
0D3
70F
0FF
12B
05D
760
0DD
6F7
6D1
7FE
0CC
021
133
12A
0FF
7B2
713
693
017
0B8
0F4
003
108
163
7C1
7EC
017
0B9
786
731
15B
030
006
6A3
6B6
08F
049
0AB
001
034
736
06A
7D6
0BC
6B2
770
15B
722
0B1
159
07A
0CC
01C
0FF
0C6
0EC
16D
069
051
76A
715
0D6
726
7D2
7DE
7C5
13F
13B
771
7D4
66E
724
16A
058
69C
7D4
00F
005
70C
0AE
05E
6EA
741
03C
13B
6A9
6F2
75B
762
6C5
090
04D
68F
05C
7F9
024
7FE
685
092
6A6
77F
0E7
7CC
03D
750
065
6E8
705
04E
040
0B8
085
7DC
002
7DE
6AC
68D
737
715
11D
72E
04B
0B3
0EB
756
052
118
673
6E2
7D0
118
7CC
0BF
044
036
6F0
7FB
086
072
6B8
7A3
11A
7F8
054
0F2
695
759
04F
76A
7FE
11B
0F5
0EF
121
7E7
79B
169
0E2
0E0
005
6C7
10A
7F2
050
7D7
6E6
67C
6C6
765
695
788
0D3
779
781
7AE
7E0
102
765
752
7E2
77E
072
0F6
041
01D
726
167
69C
016
0C6
0FF
675
06E
010
000
11E
127
7CF
6DA
736
0F7
7F3
053
036
142
129
695
12E
7F6
6D3
0A9
7E0
693
0F8
0BA
043
747
752
015
6EF
6D6
6C9
097
7DB
03E
72F
17D
177
0E9
0B9
0D9
024
148
6B4
732
15C
772
6C0
7BD
69D
153
70D
703
7DA
18C
0CB
01E
09B
125
79F
6E9
74C
0CB
065
6EC
132
69C
7FD
77D
742
703
772
09A
7C4
74C
761
111
7DC
7D1
7CC
744
7BA
1BF
048
085
78D
73F
0CF
02D
153
18B
083
79A
6B2
061
7BC
6D5
0F0
7AB
020
7B8
126
094
011
729
7C8
126
093
7CD
175
751
07D
7CB
034
7BD
75B
7F9
0ED
676
775
684
708
06D
088
6E4
73E
716
115
7DE
7F3
15C
78C
135
133
151
68E
79D
7CE
6DD
72D
739
798
13B
797
797
12D
15C
729
0F9
129
110
140
783
7E8
6D3
081
157
729
0DD
6D8
6BB
047
12C
001
12A
01C
160
6D0
0D8
767
6C0
075
0FF
73C
0EB
6BD
7C3
00C
0F8
04B
0A3
0C3
6BB
11A
6FB
675
023
688
0E5
091
6D4
6F1
7C1
6E7
18A
735
0D9
029
08F
742
6DC
145
049
017
031
0CF
733
7FB
159
04A
077
6D7
7CB
6B9
12A
09A
77A
65F
79C
6D7
143
0A5
14E
158
006
104
7F2
12A
7FD
6B8
163
736
0CF
0A0
6D9
0E8
7F7
126
140
6ED
6B5
0A4
6FE
08C
7BE
13B
160
0AF
067
7D5
080
6F1
0F0
70E
71C
695
6D9
02F
76F
785
754
096
108
08B
153
06C
7A4
0E4
777
09A
06D
794
135
697
107
691
0A0
0C3
0D2
665
70E
7A9
0D0
035
77C
6B1
725
0F6
117
74C
72C
118
737
737
760
0DB
079
13C
07C
7B8
7D3
6E9
719
0B4
729
79A
0E8
0B3
184
070
70B
7DE
73B
161
139
772
7E4
091
147
165
6FB
144
6B1
7C5
7D6
6C2
7FB
162
700
78C
113
05E
7B3
6B2
748
133
169
6AE
089
010
73E
158
68C
0BE
6B3
6F4
7D7
698
0E8
0F3
71F
114
035
6DB
6BE
7A7
0C4
714
035
6DD
0B8
6CD
126
0E5
089
766
0CD
6E7
7A2
70E
6DA
6C4
6CB
0DC
7C8
054
0AE
75D
00F
11A
7AD
6EB
0F7
70D
73A
01F
6D1
6A9
7C6
7E8
0C7
06B
0AE
0CB
6FD
03E
737
7E5
74F
71A
0B2
073
00D
6AD
092
158
6A5
14F
774
088
051
770
6EC
7BD
6E6
7D1
051
713
0A3
17A
715
74D
78A
0E3
757
6E8
702
073
7BA
6B0
043
7FA
0BD
6F3
6D3
034
685
01C
75B
110
765
005
6BC
0D1
6C6
07A
6BC
033
75C
12A
6C1
108
046
7B1
75C
75C
06B
7CA
042
6E3
7D6
068
062
6FC
082
798
708
7CE
103
7A7
6FD
148
7FE
78A
106
056
76F
0B7
008
75B
0BE
0DF
715
002
68B
657
01D
0F1
094
674
0B8
73F
6F1
67E
0F8
139
105
07C
15C
0E4
7D0
10F
6C1
022
036
039
0BC
03E
6B5
7A1
7F6
0A6
0ED
731
033
6E1
77A
742
036
692
023
04A
732
785
11F
0B8
14F
0F4
7DE
0A1
10D
081
049
0C2
0E6
101
002
175
002
05E
141
742
776
781
738
6A8
7CC
6B6
6C9
69A
085
0C0
74F
6B5
143
05F
050
171
0C3
142
69B
77B
6D1
03B
043
014
083
766
7B8
77C
15A
773
109
6D0
0E3
063
03F
093
133
710
774
6C8
0CD
09A
68F
0E3
128
17C
684
167
0A2
7BF
6CE
7E6
0BB
0C3
7C7
68F
13E
0F0
0D0
77A
03F
721
79C
7DD
7A9
785
7D4
108
161
6EC
7D6
175
04D
7DC
733
768
71F
79C
017
7FB
082
6C5
748
6B6
77E
0A5
0A5
12F
6D6
147
159
6D9
132
7DA
0D4
058
69E
040
6C0
69D
0B2
68D
7C3
0AF
6B2
0F4
6E0
6E7
09F
0F3
6EE
7F4
69C
6FD
75A
75C
7F1
6E5
16A
0B3
159
095
6B8
127
747
7B0
6B5
105
7B7
70F
092
6CD
075
014
0F5
76A
097
128
787
77B
796
13D
0BD
7D6
6E6
724
6C3
769
116
6F0
71E
76A
69E
09E
0B6
078
0CF
6B5
68C
720
0D4
105
018
77B
145
10D
781
747
066
09A
748
0B1
75A
110
6A7
7B6
00D
05E
789
6D4
14F
7C7
014
7FC
0A7
79A
69B
7EA
058
078
14C
097
6F9
134
11D
6E0
6E8
158
686
0BE
7FE
0E8
7B7
037
0B4
688
0E4
6AD
118
70C
74A
147
7A0
0C8
6EE
793
178
161
03C
0AB
0BB
087
09B
6A2
6F3
6A1
70A
007
685
692
7C9
6D9
79B
14B
13C
06E
7D9
175
027
0DD
7BE
0C2
768
774
7FF
080
137
7EE
0A9
7B9
78D
135
7E9
063
7C0
7A7
0B5
0B7
0B1
6E6
067
025
770
09D
68B
021
06F
156
089
74E
16C
13F
0C1
794
15A
0F7
046
083
7FE
07A
7F8
7E0
158
030
09D
6B8
0D8
02E
7F4
005
14E
0FF
6C3
035
08E
6B6
712
117
063
7BC
6D7
115
00E
6E1
704
189
14A
79D
706
778
10B
123
78F
74E
709
125
7D5
737
717
003
088
09F
066
7E6
6E8
6C5
6C3
107
096
785
7A1
751
6C2
773
75C
10A
798
722
139
0B6
703
7CF
6AF
0FA
6AB
117
6F9
722
149
710
7CE
112
119
08E
78D
0B1
0F9
0CD
6B9
02F
73C
70E
733
0A6
0A8
127
0D6
678
0C5
6C9
6DD
7DB
73E
766
76A
763
096
159
7C3
6A5
10C
790
710
794
7A3
0BF
016
0BA
0E2
6BE
140
718
732
16E
75F
011
77F
136
6ED
698
79C
7A5
6B9
6FD
04F
0FF
030
7A8
15E
69B
05E
159
0D3
76E
770
6C3
7B1
132
65B
08C
77A
128
008
0D5
6DB
6C5
78B
774
06D
0DC
0B1
0A0
05C
6A1
7CA
0C2
69D
15D
78F
75A
143
754
109
700
152
0DE
6BA
18A
180
12F
0AA
7D2
773
168
00B
02A
79F
037
0D3
715
0D7
687
7BF
003
04D
7A7
150
7A7
6D0
774
75D
153
0DB
6C4
0A0
16F
13E
0A7
7DD
101
0AC
15A
6CE
01A
752
6F4
124
09C
067
73B
10C
792
106
725
04D
702
13F
15D
127
0F8
0B7
68A
70B
06B
100
0C5
76D
719
776
6E5
13F
6FD
100
7EB
060
703
76E
06C
0DE
03F
0F3
0B1
6D8
0A7
7FC
0E0
0C6
72A
7D9
107
0CD
175
0B4
172
77D
09C
698
7B7
0E6
6B4
0F8
16C
08E
75F
036
6A6
6AF
0C9
0E1
0F6
6FE
6A4
6E3
0AE
7EF
06B
78E
097
689
7E7
72A
73B
165
00E
6CC
734
167
7E1
091
79B
7AE
16B
73D
6A6
753
0C8
136
7E3
770
7B3
002
73D
0F0
0CA
6EF
6DB
6BA
75D
7D0
706
105
08D
05D
7EA
713
7E5
157
7EE
07A
76B
781
7CA
777
7AE
73E
6D1
766
70F
0A6
08B
68E
147
7C3
6E1
679
149
18F
191
702
6BB
154
6CA
0F9
7F8
740
012
772
6FA
72D
70E
002
70D
72B
700
7B6
030
7AD
699
6FD
6B9
75E
08A
0B8
6FE
0F7
704
089
6AA
753
744
0BD
055
6C9
031
0F5
7F9
0C3
75F
071
126
751
731
01F
696
182
0A0
087
70C
0FB
725
0C3
794
74F
756
702
772
729
187
77F
73F
694
776
0FD
07D
15F
0F4
14B
08F
103
7CC
030
134
113
71D
119
773
043
00F
7EF
0CE
0D2
7F1
760
7F4
01C
03B
7DC
6A3
08C
019
77A
0CB
703
152
69B
772
7A2
70E
018
7DA
74C
723
178
694
76B
02D
0E9
022
172
74D
6BF
745
0D7
7E8
0CF
121
79E
68E
688
033
7EB
6BE
0CF
0AB
0FE
694
72C
7EA
178
121
6D5
7F3
0EB
110
7C7
044
07D
028
075
7D4
137
0BD
6FF
0F0
01A
6F1
0FB
093
001
73A
0ED
093
101
145
6C5
76F
174
6ED
7AE
69F
076
781
7A1
77C
0EA
09C
79E
798
749
7DB
7ED
7DE
6CA
028
7E4
765
0C6
7A9
0FD
6BD
160
154
06E
72A
737
6B6
14C
0C0
00C
71E
6A5
6F4
125
045
105
168
142
0EF
7BE
17B
09C
0E0
686
05B
77F
710
6A1
006
023
6B9
004
7CA
7DB
06B
011
723
7DF
1CB
009
6AD
00C
0D3
0FF
018
07A
7EC
12E
725
01E
0AA
64D
18B
718
149
701
140
689
734
02F
6EF
79C
0CB
16F
140
756
6B8
6ED
08F
761
6E7
7CD
042
797
05D
0C3
70B
041
698
6AF
04F
7A0
053
0F7
7F3
7E1
0F1
7C0
6E9
06E
79A
6AD
10A
735
6E0
757
0E1
045
6F8
0C0
729
7CB
0D3
75E
117
6A8
13C
05D
146
6EC
79F
005
07C
6AD
017
74A
161
0A4
760
6A4
137
739
04D
133
75B
0CB
6D0
777
727
6D3
137
10C
06D
151
6F2
6EE
69B
0D6
04D
7F4
7FD
00E
6FB
0E0
08C
695
119
697
058
0EB
734
051
7C2
07C
734
11F
77F
15F
0D8
0DF
109
78B
6BF
16E
175
0A1
6AC
128
017
794
01F
6C8
08F
7DE
03C
088
033
016
7E6
0BF
029
0AE
6C0
6A0
0C4
136
758
031
0CD
0E3
6E5
17E
0E7
005
03F
7C5
0DE
019
6AB
7CF
723
0AE
6BD
7D2
153
7CE
139
6BF
144
08E
71B
7F2
713
10E
0B3
10D
0C3
78B
033
769
7F5
7EA
715
007
033
10F
7E3
055
04E
794
706
761
04B
7C4
07D
175
03C
06B
76B
12A
06E
0BA
77E
13C
159
024
00D
0F5
06A
77F
16F
06B
174
7C1
7BA
68D
013
7D7
09E
163
14D
142
0CF
6EE
6C4
6D9
702
7C2
72A
706
0EA
77A
741
793
7F3
169
0F4
0CA
022
132
11E
15F
07C
73F
725
070
014
687
110
073
049
65C
0C8
71F
75D
6FC
744
134
69A
0D0
77E
131
10A
6AF
194
0D0
775
6E6
009
04C
083
08C
74D
6DC
167
6F1
730
7E0
7D9
736
762
6F5
7A6
7A7
04E
708
08A
083
058
112
798
06B
148
0DF
7B4
013
6A4
701
0BB
7A8
09D
171
7EA
022
04A
0C7
742
163
08A
064
69A
0C7
6C1
0F8
771
033
072
183
149
15F
754
0D4
72C
0B4
106
742
122
657
78A
6D9
782
702
090
6B3
094
0BA
76E
10D
798
186
0C2
0B1
0A5
19C
120
077
75B
126
6F1
04A
026
08A
710
04B
72B
6F3
793
113
138
7E0
18E
0F8
039
080
6C3
16B
75F
15F
068
0D2
0B6
77B
71E
11C
0EF
6D4
759
039
069
0D4
7E7
7EB
745
718
6AD
6B7
079
6FA
10F
6E2
00D
087
052
7DF
68C
117
0B5
7CA
0B4
0DC
790
6D7
760
738
72B
16E
6B3
7EA
75A
14C
01A
7FE
14B
7A0
176
04C
0B2
710
0DD
15D
168
067
79B
78D
067
0B4
096
14F
73A
0F2
7F3
152
7EE
77E
131
147
01F
0A1
0CA
0A4
7F2
7FD
793
04E
01D
780
744
7C1
179
15F
67D
7B3
155
0FD
0AC
06D
7A3
000
6C0
75E
7D3
08A
12B
797
12F
04B
778
69A
16D
0A2
0B6
044
00F
092
72F
0AA
785
0F5
031
713
76B
033
7EC
716
6B4
109
776
693
7BC
14D
773
70E
08B
755
6E1
0AE
6DA
703
11D
7C6
7D0
7F6
78D
100
7C5
110
73E
0BF
0DE
07B
727
7E3
01B
0E7
060
063
673
14A
73F
7F1
7B5
069
68A
7D2
171
050
73C
173
6FD
0F8
050
024
044
035
0A9
01C
09F
0A2
76B
146
763
03C
718
081
10D
087
18D
69E
141
04D
07E
688
6E5
02D
683
125
057
0E2
726
0A3
72F
688
6C2
75A
0B0
0A0
781
0BA
050
77E
719
705
0A1
060
7D2
6D8
6EE
78F
0B0
036
6C0
7AE
088
05B
6BD
0D3
0BD
6AC
710
016
790
6BC
76C
71A
09E
130
079
733
00F
7F0
723
06F
0E4
710
720
6A5
08B
0C0
172
72C
18C
7F2
778
1B8
7C2
03F
055
0A1
7DB
7F0
7AB
70D
04B
799
6D7
750
146
6E2
782
784
6E0
039
173
164
133
69F
070
712
0B6
7D5
110
053
725
0A4
08E
738
150
7C6
6C5
00C
7E2
6F1
149
03F
728
6EC
020
14A
749
037
723
6AB
6AE
0B1
15F
6CF
7B4
6EE
6A5
720
048
749
0C8
0E2
02E
798
723
732
104
70A
717
06D
770
750
14E
03C
0A6
72A
7E6
70D
07A
053
035
7CA
08E
7D3
067
086
676
689
058
6BE
055
6CA
136
6C2
0B0
78A
0F3
0D0
111
736
086
7D3
6BB
729
770
7AC
7E6
003
7A2
035
7AC
115
0EA
6E9
6DC
6F7
01C
0AD
704
133
7B9
0FE
6C9
10F
174
750
165
71D
025
16F
7BB
044
0A2
748
738
084
767
120
756
7AA
0DF
7F1
723
6D1
0EB
125
083
7B9
069
035
036
0BA
6B0
0AB
181
04C
053
76A
107
6F0
6FB
7B5
102
78E
758
72A
7EB
737
7ED
7CB
09D
031
0D0
160
7B8
7CB
0A3
046
0EE
0F0
7DB
176
6A8
116
766
701
75F
68C
070
114
0B7
6B0
0BF
7AD
090
6AE
7E0
70E
0BC
790
150
0AE
031
0AD
0A5
014
7FA
0B8
707
695
08C
0C9
0A2
6EF
6C9
161
695
6F9
123
09B
704
099
04F
094
6CA
76D
0C7
6E8
0DD
045
118
13D
025
021
019
6A5
0D4
797
77E
6A2
7EB
188
786
7AE
11A
012
069
6F4
153
0C2
0E4
0C5
070
09F
7B6
0F5
170
769
6DA
73C
7E9
743
155
16F
6B5
799
159
02C
131
7F0
747
7A7
129
01F
6DB
774
7E5
107
0C6
08E
0D9
7B2
78B
77A
151
02B
7A3
0F5
175
167
0F1
0EB
007
6F7
6E6
00D
740
016
741
0E3
759
756
0D9
7D3
166
775
113
0DC
7E4
7ED
77E
6A5
735
14C
7C1
176
035
6C8
106
6ED
6B8
7E4
777
747
722
6D0
67E
112
019
6E5
7D1
0F3
76F
149
134
034
75B
6DE
7C8
6CD
78E
724
6BF
036
0E5
101
7F0
78A
7D1
6A9
758
6AA
05C
174
711
127
009
6AF
77E
79C
7A0
0CF
060
7AC
742
0A4
727
6B3
77A
091
15A
756
7A9
05D
722
746
7D8
188
16A
104
6D7
6D5
134
149
13D
11D
693
6E7
0E3
75E
016
00E
759
109
0A0
787
091
6FD
0E6
691
7CE
070
717
6BC
656
7E2
092
0A7
68E
057
796
734
6AC
058
043
6C7
75E
744
003
023
688
001
744
166
7D1
0D4
715
0F5
146
74B
156
79F
76A
171
11E
6C3
69B
6D5
0CC
009
720
01F
76E
6ED
799
06B
7C4
723
6E6
6F6
71F
050
0A6
0DA
040
158
10D
7D5
6A7
710
064
70A
787
789
030
149
17D
6C6
031
6D3
7CB
0E8
7E8
026
7A5
0D3
0C8
143
784
706
710
779
6F6
14E
132
7D7
0F8
7E1
14A
136
7A0
797
755
6DA
0C1
760
711
127
0B3
7A7
0C0
014
717
102
0DC
7E0
7E1
001
766
7B1
048
06B
718
74A
709
158
03F
04D
074
03A
074
043
04B
08A
0BF
082
08B
0E5
01C
0C9
727
7F5
0F5
77A
6BF
699
6C6
69E
045
776
691
0AC
10B
726
7D2
7DC
0B6
7D8
7E7
7AC
731
6C3
04D
028
6BC
040
76F
7BB
6E8
0B2
724
785
72C
793
101
77A
077
718
108
11D
79D
023
777
065
11E
7ED
0F2
02E
157
78F
05A
0F0
69E
749
7D7
127
7B6
745
78F
0EA
7D3
078
6BC
10E
068
6AC
6B9
008
6DE
002
102
0FE
6B1
7E0
7EF
0CE
09F
04F
0A6
097
776
705
796
7E3
7B0
044
75A
7E8
736
7D1
79A
6A6
107
001
08E
7A4
113
746
099
11A
16C
7EC
6F5
7C4
10C
00D
69D
145
0BB
72F
0C7
697
7C7
0B8
143
064
030
755
0B6
06C
164
09E
0BA
7AB
7C3
056
7A1
726
0E8
113
061
79A
00E
70D
6C8
063
6F2
723
73D
16B
045
0EB
06A
6AD
108
0E8
69B
6E4
6F5
7A0
107
78B
6C3
6B0
720
748
133
091
018
0D5
7FD
7EE
721
051
7B1
12D
0E3
717
775
156
0E9
782
6DE
137
083
04A
124
139
175
79F
744
6C4
021
72C
146
050
0EA
0C4
768
71B
105
07C
778
792
01F
0BF
75F
677
144
753
09B
16D
782
019
71C
0ED
102
093
6BF
0CA
722
705
761
109
783
77D
70B
6F6
7C0
14D
7F5
6C1
6AC
6B4
6B2
103
0EE
011
78A
094
7F3
727
70D
0A9
111
043
130
740
053
6A8
7D3
0C2
7FA
091
0BB
0B1
0CC
0BE
74C
0EA
6FA
047
02B
13B
10F
6C3
044
6FD
02A
111
0B9
757
008
0B4
76E
0ED
0AB
07E
136
75B
6E4
0ED
710
02A
7D5
7A8
0BA
0EC
74D
72C
7FE
054
16C
750
658
032
783
06F
718
020
6CA
11C
08A
6D3
7EE
17A
06D
7B9
0C3
06A
6F6
754
145
078
106
75B
122
0E4
071
7B6
7FB
015
6F3
005
6C2
6FA
158
719
7CC
77E
716
0BF
048
0EA
69D
081
0F8
761
09A
12F
15D
003
004
12E
6FA
6F4
708
169
7F5
77C
7D8
695
10C
6A1
0BE
6A6
05E
6F5
150
687
075
6FE
0AA
7AC
6A1
794
79C
087
7AE
704
0D7
6FC
6EA
068
015
6DD
6DA
7FB
004
799
0A6
6E3
712
0B2
68C
7DD
75B
711
121
799
692
0AB
738
6A2
765
10E
6E4
08D
155
083
7F2
7F5
020
154
0C3
0CC
707
7C3
796
78B
172
779
008
0ED
0C4
798
143
6C5
745
029
050
0D8
04E
7C1
7BC
16F
00C
6E7
025
011
74E
70E
10F
756
10A
738
7BF
14A
168
06C
783
0CD
6B5
7D4
033
164
69E
127
7DC
179
0CF
727
6A7
0FD
701
0AE
0AB
0D8
769
174
0BC
6E8
0CD
6C3
702
7AB
110
179
6CB
178
775
720
131
7B0
7DA
768
129
74E
72C
104
68F
6B0
735
055
7FF
168
0DB
74A
7EE
751
049
12F
6E0
0A7
046
0C4
033
03A
141
11E
699
6D8
6F5
7A3
0B6
11D
7DF
0A0
7F2
6D2
77D
6DB
7CC
7FF
080
170
02E
0E4
7F3
7D0
780
6B4
076
77C
6EF
691
704
7C3
0A6
732
7EE
090
691
169
769
778
7D7
690
107
0C2
11F
6C3
034
77B
059
6D0
7CA
116
6B3
7D8
7A4
16D
68E
13A
7DE
6D9
7C5
0BF
101
0E8
7DA
0B2
14C
0F3
73F
01C
0D1
678
08B
6B6
76B
6DF
0AA
0CD
113
06A
01A
7E0
0C0
7B0
022
05B
140
6E4
738
04A
717
7DA
07B
122
6A3
120
136
02A
09B
01A
120
099
04A
77D
6AC
787
0EA
714
102
19C
695
6E5
65C
0C6
684
08C
170
70B
726
6A4
00D
0F9
08F
12A
0AA
712
0F5
6BE
086
021
127
15D
023
068
797
175
6E6
7DB
789
0BE
0FE
6EB
7D4
0B8
119
7AD
759
007
11B
7F3
0FF
101
6BE
7B8
6F2
11D
6C5
74B
674
7CE
75C
70B
716
71E
102
0BD
771
7CF
054
693
0FD
07D
174
6CE
779
15C
07A
7E3
7E9
6BB
06D
76B
729
04D
74B
122
754
74A
795
701
74D
751
72C
0CE
6F4
798
10A
7AA
746
7AD
0C2
758
6CF
043
135
76C
12B
7DD
149
126
061
691
726
7FB
6F1
722
028
7F3
0D3
796
0C4
0BB
6B1
034
0DA
12B
7E2
7D4
785
02D
0F3
11B
694
6C9
0BD
05D
094
0C2
6B6
167
114
08E
6DB
688
68C
066
7D5
7DC
0E5
7C2
6C1
112
02F
157
064
007
102
776
74F
79E
0B8
12D
776
10C
687
6AD
11E
694
0C7
7B1
78A
178
69B
75B
014
693
7C9
0F2
7E6
14E
79E
088
6CE
09B
026
6EE
6AA
7C9
016
7DB
0B4
012
6AC
7B8
76D
76B
00D
162
75B
787
68E
70C
059
08D
749
11F
099
161
6D7
0CC
1AB
14B
6DF
02E
753
0E1
708
7F6
0D1
056
718
034
105
048
072
7F1
719
780
14D
0A1
6CC
6AE
688
0EB
150
768
786
788
087
0C5
6C7
7FA
6A3
712
117
70A
7BA
78B
128
6FF
0DC
047
631
102
708
742
6C4
09D
02A
68C
021
032
6CF
173
79A
0F5
0D9
0A0
7B5
762
1AF
0CE
789
0FD
75F
157
0AD
6A4
139
6C5
770
7E5
79F
796
764
6FA
722
0C4
092
75A
795
673
0FD
74D
6E0
697
7B9
7F0
765
051
170
093
08F
0D6
121
742
114
0C3
73A
7F5
083
7D7
768
6D1
780
75C
6AE
6EF
126
05C
0A4
0C2
7D6
6C3
033
158
77C
118
76E
0BA
138
07F
748
705
799
02D
180
71B
116
145
766
6F5
687
08E
135
154
799
6B0
0B7
784
108
11C
0E8
79A
6EA
7DF
7D8
171
6C3
119
6B2
12D
6DD
734
142
00E
6D2
0F4
10D
137
084
0C9
793
013
6C8
0CD
7E7
044
7C5
6A1
71A
097
6D7
7F7
052
773
73B
046
6CC
087
12B
151
7F2
7C1
030
789
0E7
740
7C5
052
05F
6CA
6A7
6A1
070
0A7
694
001
7D3
7AF
6A8
16C
7FB
6D5
6E0
1A6
135
172
73A
69B
67F
6B5
6D4
055
69A
758
0E2
090
6B7
7A2
0F9
6D1
729
014
7DA
10F
6B2
0B9
752
067
0A7
6EC
087
700
103
089
70D
72F
6D8
7EF
174
6E2
12D
089
12E
023
787
7EE
6D8
6DC
145
0B3
724
721
039
6DA
034
041
71B
6B9
68B
779
69C
0A6
021
021
7F3
77B
748
776
6CF
7C6
173
04B
732
113
6DA
03E
0E2
028
762
09D
15E
003
7E4
0BB
024
029
1AB
075
088
0C6
037
742
6D6
0CF
756
13B
00E
6F9
6D1
0A9
032
06A
174
7D6
06D
017
109
14C
0C8
73B
0B1
6DF
132
7E1
085
0D6
14F
73C
662
042
754
14A
705
179
0E5
0BA
070
018
769
7F7
7C0
7D4
7D6
79A
021
754
054
171
7DC
760
0F6
041
7AF
117
6E9
789
779
719
6B5
0D6
6B4
798
04B
07F
069
0E7
042
033
6D1
7B3
6FE
72B
13C
760
0FC
150
0F6
763
774
148
0BD
7FE
05D
04C
167
7FA
7A8
0B8
78E
100
057
014
69A
760
005
01D
7E5
748
68D
74B
156
0FC
145
72E
71E
166
15D
069
6D8
7FC
0DB
6C3
133
08D
0DF
08E
06C
7BC
12B
6C6
730
0C2
0C0
760
0F0
073
006
794
7F0
037
719
6D7
029
110
093
017
6EF
728
075
011
162
087
792
714
78B
062
702
775
759
752
7C7
0EE
77B
0E4
0B7
7E1
72D
03B
686
138
79B
6BB
7FC
15F
147
0A0
7DD
089
00A
0F6
0BE
174
0FD
785
7DB
062
7C8
6FB
7F5
112
169
026
714
131
0F2
0A8
05F
795
137
7A5
6D1
118
772
02B
00E
755
0C0
7B5
6F9
006
745
691
042
0E1
0D0
7AF
7C5
731
792
10E
129
151
000
7F8
6D0
031
6F5
770
042
7D7
102
0A6
7CF
79E
709
7A7
132
7C3
7BF
0FF
760
092
00D
150
6A0
721
6B2
75C
0C2
6E9
0A2
7B4
776
148
77C
696
079
06B
727
6A4
030
07E
7C5
75A
7A8
03A
132
0D0
7BB
0B5
158
171
141
79C
72D
105
695
749
69E
690
0EE
114
174
692
12D
687
7A8
161
744
7B6
043
6D0
164
7A5
7C0
140
06A
713
015
08B
090
7DA
6C4
73C
0F2
10F
094
79A
77D
73E
0C1
7A7
7B0
707
170
723
066
11C
05B
0C9
697
03D
16A
0F9
7E4
7A2
7C8
05A
0A4
727
042
001
6A7
0F2
032
791
7BD
6F0
69D
039
074
719
7FE
7D8
705
6F4
094
724
7E1
115
0DF
7B8
764
060
0D4
022
0BD
01B
68E
78D
0F3
7C9
0C5
74B
182
0E7
16B
042
788
04F
67B
128
116
0CA
687
700
74A
09F
77A
6D4
68A
70B
078
729
731
0FC
09D
76B
148
729
123
09D
073
176
096
763
7B3
02D
7CC
793
78D
785
789
088
6A4
716
77C
7A0
053
7CC
006
68F
6C5
6F1
146
6DC
795
03B
76E
689
6E8
0E3
086
137
6EB
13A
11B
00B
74C
163
114
029
0D6
0D3
7EB
77B
7F5
192
700
0F9
039
7B7
6F6
742
7EA
09B
7D1
04F
0B4
13A
6B1
125
6D8
0C8
085
010
7C8
168
6CC
6EE
114
707
7F9
7B8
02D
095
12D
000
019
17B
0D3
037
6A5
0BF
7FE
75B
731
79E
732
7DD
7CE
09B
7DD
7FC
67D
02D
6F3
0F6
06F
049
0AE
176
054
0F3
799
011
710
7D2
089
121
04D
70F
6B8
066
0C2
6A5
031
6B6
7C3
02E
16F
7AC
738
777
023
6E0
17C
0AD
6BB
0FD
6CB
6D8
0F5
0B9
6E6
024
6A1
0F4
73F
6BC
0D7
74B
734
6B1
7DB
162
6B7
132
688
094
7B3
11B
004
77D
108
0F8
6F6
7E5
70A
046
045
683
134
7B3
02B
709
75E
6DA
77C
717
6BE
0F4
08D
7BA
756
752
03C
106
6B5
6EB
7D7
74E
100
6B2
084
046
7D2
6C7
6BF
790
7FB
07B
142
125
11C
6C1
070
04C
11E
6B7
759
0AD
6E4
00C
7E0
7C7
6D6
06C
793
0A3
066
055
047
020
11D
03E
6C8
003
790
0E8
7A8
0EB
096
6C6
78F
6E1
131
7E0
00C
0FC
089
0A0
106
6BF
7CB
761
7D3
16C
06F
14D
794
093
094
046
0BD
6B4
6C8
6B2
098
6B4
74F
161
0B3
0A2
05B
753
025
695
10C
13E
6E5
6D3
160
154
036
763
048
756
744
734
0DF
6D1
00A
6D9
089
079
104
6AC
063
04D
762
6BA
0DE
772
0F5
0FA
13C
758
6D8
6FD
0A1
07C
03A
7E8
01A
00D
032
148
7D4
6D4
6F3
6E3
0DB
151
08C
7E1
6AE
0C6
7BA
7C5
7E7
7C6
7B0
754
7E6
161
001
7F3
7FB
0DF
766
15C
75F
772
07C
6B3
0BF
0DE
013
09E
0A1
7CC
051
041
0B8
035
020
12E
6E2
14C
07F
04D
12E
77E
75A
0B0
06B
6B9
003
16E
154
129
001
02A
6F3
7B9
6FD
0BE
6E8
042
007
047
7B0
162
036
16F
045
69B
7A0
159
760
6A2
097
072
7BA
7FE
6F5
770
092
74B
73F
0E0
0D9
6A7
734
09D
012
74D
13F
03B
03D
078
6BD
7CA
108
0CA
146
6A2
058
6B5
0FE
00F
068
763
6A1
771
6F0
717
78F
6BF
0E2
7C2
05E
7F3
176
06A
0EC
0CB
753
79E
018
735
775
0E0
778
0A5
7E4
07D
79A
13B
71A
759
7F0
02B
05A
107
047
7E0
6BA
08A
0B3
116
6A4
6D8
07E
13B
136
076
0CD
777
708
0BF
69E
0C1
7B3
74E
727
0A4
754
758
71D
080
03D
752
06D
6D6
15F
75B
073
15E
118
68F
6A7
106
172
779
6A8
75A
7AD
06C
032
7FD
157
13A
056
727
120
74F
7DD
707
067
0A0
0CC
6D3
740
0D4
09C
7D4
6E4
01F
769
126
7B6
13F
03F
027
0D3
16B
69D
728
78B
6F1
0C9
072
082
7F6
707
6E8
721
707
75F
6BD
14C
6CF
7EA
107
7D5
05C
693
707
0CE
00D
7DE
6B3
798
78C
7C9
115
00C
754
159
7CA
036
7FA
073
6BC
7D1
13C
72D
0FC
730
7FC
75F
75A
6F0
116
086
725
0E9
694
032
07A
763
055
089
785
08A
6E0
682
77F
6A1
6D8
6EF
099
0BA
790
0C9
7E8
06E
75E
6D5
6EA
139
123
0AC
12D
72D
0D4
68E
0F9
11B
778
769
705
7DF
16A
72C
001
06F
16E
0F6
072
0B4
10C
7A7
07E
0D0
01D
0D2
733
6C3
6AB
10E
0DE
6AC
779
75C
6DB
6C9
0A7
6BE
051
7D9
79A
7F3
77D
0FC
06C
727
154
045
121
761
781
12E
11C
076
104
003
6E2
761
143
71B
166
076
781
7DD
744
076
116
6FB
126
6F5
063
140
0EE
6E5
04D
021
143
6A4
7C3
14C
103
6C1
7C0
145
7F9
0B0
7F8
0DB
04B
107
156
711
762
702
6D0
7DA
0A2
0EC
120
7DD
6F8
15B
74B
787
06E
07D
073
08A
7B5
710
059
731
050
014
08C
110
69E
713
789
0D7
7AF
09A
097
717
6D5
7DA
16D
77A
14F
0A0
13F
704
154
724
6E7
7E3
70D
036
17B
6F3
7B6
777
152
77D
797
6C8
709
16E
70B
698
04D
0C0
69C
715
0A1
0E0
039
73E
7A3
144
006
6A5
69A
00A
11A
753
797
772
735
035
043
14F
053
02B
168
035
03C
09F
0C1
6E4
12D
022
724
0D3
0AE
034
165
6FE
0A4
702
013
71E
09F
7E9
709
6BE
780
097
05A
6E1
7CD
7B4
6A2
69B
7CA
0C6
109
014
0DE
7A0
012
7F1
6F1
6A3
06A
171
799
737
703
7C2
77F
0E0
6C4
0B4
101
6B8
099
79A
7E5
084
7A2
108
772
171
7BD
6A8
021
0F6
09F
733
142
70C
6B4
6D6
781
735
0B2
743
785
6EA
798
7D5
79A
754
6BD
05A
6AF
0B9
6AA
764
76F
0A5
17B
6F1
04A
0E6
066
742
149
7B6
6CB
0F3
710
150
139
6C6
059
0CA
6F2
79E
799
798
084
13E
7F2
6CB
6BE
147
7C2
7CF
112
7FC
6A4
72C
0AC
7EC
155
133
6FF
019
69C
6A4
717
70F
7EA
09A
772
6AB
736
7E3
6CB
0FD
02E
696
7D8
056
739
694
0E4
0A3
7FC
0D3
086
6BA
728
17A
0F0
0E1
7C8
02D
701
11E
04E
09C
0A9
10B
091
10B
02F
050
16D
79F
79A
00B
7B4
7CE
6CB
157
15C
695
720
69E
079
6D2
726
0F3
13E
769
6B3
0DC
058
03A
159
0A7
0AD
155
7C7
034
6CA
0BB
019
02A
6A7
768
042
0B1
703
7FC
0A5
689
034
6A0
6D8
6DC
0B1
7D6
062
733
78E
13B
0D7
68B
01E
6B3
74A
10D
76A
7F3
0FD
0D3
087
721
077
039
03E
7C4
09F
7BE
122
754
6E6
7D9
16D
00C
160
0EB
0E1
7C9
795
074
15B
7CA
7D3
174
150
085
127
6B2
759
026
74D
70A
737
0D9
0AA
750
6FB
6DF
70C
15F
70E
7F1
7F5
7C1
714
087
68A
715
71C
6C8
0F0
112
008
7E5
112
045
05B
7E7
02E
080
790
67A
057
176
755
682
0CC
660
693
055
0AE
7AF
120
012
7E5
168
02B
711
110
01F
693
7F5
71D
128
6EE
0A8
6A5
166
0D5
6F0
0CD
6F8
029
116
151
6D1
78E
163
7EC
0EB
116
697
0BA
6CB
0D2
7DF
032
74E
0DB
0F9
76E
739
7BC
7ED
7E8
7D2
7DE
01E
179
0B9
7F6
0A1
15A
159
102
062
124
74D
6CC
116
066
0C5
127
71A
06F
081
0B7
7D1
05F
0DC
6B1
0CA
0DB
6A6
697
7A2
0E8
160
7DF
0F9
716
0AC
725
0FF
019
774
0A4
00D
68C
0BE
6F8
168
03B
121
099
7B9
112
053
763
691
7E3
08A
063
14F
6A3
14F
147
04C
111
687
781
751
741
07B
139
7B2
779
0CE
707
6DB
6EB
081
08A
713
168
034
0DB
135
792
78C
172
0FD
6A0
0B8
13F
68D
7C4
0E0
74E
78D
059
7D1
6B8
73D
7C5
060
07F
141
7F0
715
061
16B
12E
098
770
7F2
7E8
05F
0A1
7C8
752
0C4
14A
0B7
08A
730
151
057
6DB
691
0A0
0DB
022
6E8
6FF
179
6FB
011
68B
7AD
120
123
14E
14E
758
098
0DA
032
134
101
089
0E4
780
795
693
6B9
0B2
6DF
678
035
02F
78F
72B
7FB
12B
013
0BE
00A
093
086
10B
13D
6EE
0D8
7B9
69D
681
0C4
164
08B
019
0A6
149
7D1
10F
0DD
0BB
0D3
6C8
71F
7B7
6CE
716
7F1
724
77E
79E
740
06F
177
0BD
77A
765
146
0AF
73F
03E
76B
069
69C
7C5
6F2
6C8
7AE
7E6
0E6
7F2
7D9
749
0D4
108
78A
7AD
6B8
70A
0C2
122
7B2
083
162
17F
03A
009
7D5
040
792
7DC
121
783
767
73B
74E
6CE
742
01A
7D6
718
6B5
07A
733
157
710
78D
7D5
7BE
6EA
7DA
736
10C
121
7FA
7B3
069
051
067
05E
7BD
72F
070
69D
766
0B4
118
082
00C
14B
6EF
110
0A9
064
144
7AD
68A
0F1
170
092
7D1
7B0
6B4
13F
6CB
048
739
77E
026
7B8
6FA
6D6
0EB
6B6
75A
089
766
737
764
7FF
73A
781
6F0
69A
697
16D
078
09C
767
783
07B
79C
107
01F
01B
7E3
773
05A
688
77C
07F
690
6B4
6EC
715
0B5
6A7
74A
150
6C3
00F
6FC
6EB
758
68F
6C8
14B
725
73D
7A1
132
7F0
0D9
15C
143
0E3
7F0
118
0DD
086
683
758
6C4
149
012
057
071
725
0BD
7E7
05F
7E4
0A7
782
063
75B
75F
163
10A
765
083
6B0
084
6B1
729
13D
713
187
6D2
6F7
0C1
058
727
798
0B5
6EE
7F2
6DB
795
057
6F8
0B6
08A
7A9
7B1
734
05C
7EB
7C6
729
0DC
798
6C5
10F
773
10A
122
7F2
7FD
082
173
10A
093
6A8
081
09C
0F0
034
7FA
0CD
78C
7BD
0A7
15F
7C4
04B
0B9
6F8
77C
717
6B3
129
0EF
7E6
6D1
0A2
6EB
6EA
109
02B
707
001
131
04A
71B
0E4
740
0B6
113
108
062
05B
16B
782
170
0C9
77E
03C
10C
6A6
78E
7D3
6CE
765
7F6
7AC
7D5
6ED
785
0F8
071
096
6E6
778
0F6
6C8
0F6
7D9
745
03B
0E1
175
0B8
733
697
01D
767
042
0DC
791
78C
780
08C
13D
0E7
7DE
08C
0EB
109
746
6C1
73D
0E6
10C
7B1
6F0
71E
118
795
6AE
74E
0AB
009
01F
6A1
788
0FC
0D0
73B
7CA
12E
07D
00A
7D1
7FA
159
0A3
100
759
03F
6FE
125
05B
77F
15E
770
75E
026
7BD
7C5
0D1
0B8
026
75A
71E
6E3
000
73E
0A3
15F
140
031
082
74D
754
78C
0C3
0EA
149
73F
109
6BE
0D2
0D2
760
6A1
12F
7D1
139
12F
691
066
751
0BF
092
0F7
6C9
122
072
709
131
0B3
771
005
73C
6F1
164
755
79C
0B3
182
007
12F
097
6A3
0C2
11D
031
07F
784
07B
0B3
131
6E2
06E
693
0EC
05F
14A
14D
116
7F0
741
010
0C4
132
0C7
093
78A
6AB
03D
062
001
06B
018
683
0DE
02D
6A1
039
0B3
0A1
7ED
7E9
6A6
17F
792
15E
177
05F
6C7
13F
120
722
6DA
126
023
728
04B
180
6F5
76A
6E3
7BD
013
189
0E1
757
711
6F2
026
09C
79B
014
7F3
718
737
0B5
13E
706
6CB
700
7E1
7AD
158
076
7D1
126
697
0D0
725
6BF
79A
79E
148
0C9
6F3
742
715
6BF
178
176
7A2
114
13D
031
7BD
098
70A
720
160
139
73E
037
02A
089
6A9
6BF
69A
088
115
736
7AE
0B9
739
67C
158
6AB
7A4
15E
068
0AE
166
0FE
6CF
6F1
03F
08E
7E5
69F
77A
04A
0B8
79B
07B
09F
728
715
045
7BC
166
055
6B5
7AF
779
080
063
03A
707
76C
101
12B
76E
7D4
12C
008
7E2
05D
7EC
74E
69E
727
76A
0B4
0E0
723
6E3
13B
722
7A2
043
12F
0BD
7D6
032
050
698
787
78F
14D
7C0
14E
6C3
794
018
086
74B
13F
75D
746
7EB
70F
773
15E
789
73F
688
7AD
72E
12F
792
12F
6CC
06D
0F5
731
09E
001
77C
7D4
157
0E0
779
062
15B
7AD
0F0
6C3
791
08F
726
087
6CF
070
0AB
126
0EB
7CA
7F0
068
728
055
10C
0F2
03C
042
0C2
0EC
6C7
0F9
171
783
043
0A1
70F
145
13B
057
77C
07B
7F0
017
0D7
00C
0EA
131
6EC
69F
7E2
0EE
684
746
107
75F
750
7DC
0AF
0CE
079
7FA
0E4
025
723
6A1
006
02A
706
0F6
765
006
081
706
121
0F1
697
101
010
7DE
045
002
0F9
05D
690
792
13E
720
6E9
13C
05A
799
6BA
0ED
79D
15A
02A
100
794
0C5
79E
052
6EF
099
031
071
0CE
14C
133
6B2
093
6B7
03F
6A3
6CE
054
0DF
69D
72F
101
7D1
11E
045
161
758
06B
796
0A5
067
168
176
6D6
748
014
0DF
0D7
14A
044
69B
7B1
164
7C4
785
0CA
0B2
012
042
7F2
79F
70A
750
757
036
081
75C
79C
6FD
0FC
03F
079
0F0
7ED
0A1
070
0E3
7ED
118
745
13B
7EB
6FC
7F6
165
106
0E6
0B5
6DA
13C
76E
73D
67E
6AF
6D4
03F
72D
72D
011
7D8
6F9
09F
126
167
6F5
714
6B7
10F
133
02F
6F7
6A5
11B
6CE
6E4
175
06E
14E
732
757
105
04F
7D3
6AC
05D
7E5
139
6C0
6F8
12E
6F7
0FD
07C
042
7DF
761
11F
09C
757
718
11E
697
762
078
15F
118
6EC
711
716
054
017
73F
022
015
04F
7D4
69D
135
092
7EC
7AE
6B2
0A1
03B
710
0D8
6CE
775
7DF
173
099
718
0B6
6BB
798
75B
0BF
096
6FF
089
153
0DE
129
6BE
7CA
0B3
128
0C3
118
78E
04E
02C
0F7
123
701
76E
122
03E
76E
7E5
000
6CF
04D
025
075
75D
71B
01A
03F
79D
6C0
04A
79B
73F
7E5
043
79E
70B
6F0
7BD
10E
69C
183
7E5
001
08E
6F6
7CA
6C5
051
6E3
090
755
07E
02F
6F2
721
14D
6EE
0E4
0B1
78D
7BC
7A5
7F7
05C
120
6A8
16B
029
79E
773
73C
0AA
00D
039
046
007
042
110
7EA
0AA
16B
06D
7F8
795
099
713
7AC
078
073
0B9
09D
12F
046
7C8
7BE
068
107
0C6
7A7
0E7
700
7AA
000
089
695
691
027
7C8
0AB
0B9
78F
76C
7DD
0D9
687
747
0CC
78D
7AD
067
109
0F8
7C4
122
09D
12F
037
156
0A0
701
73E
737
7B2
0EC
058
0C4
691
7FC
73E
090
71B
7F6
0A3
7A3
768
14C
0BD
7D1
686
7EA
7DB
793
789
0FB
7E0
76D
6E1
700
173
6F8
747
010
6C8
6EC
707
69D
13E
097
136
067
702
09E
745
150
0E2
78F
7DC
155
743
0F7
120
05E
179
7BB
0D1
162
056
0C8
0DE
763
008
773
734
6CD
099
117
03A
7A7
126
0EB
14F
0E2
7A1
724
061
03D
08C
0DC
096
6E4
758
694
11D
110
007
175
0D1
6D8
6B0
726
690
11D
72E
06A
721
6DB
716
7A8
0B3
6A0
0DA
0F3
74B
6EE
0D0
704
09F
03D
115
7DC
7AD
770
09C
75A
6F4
74B
0A9
176
725
028
69F
6A9
718
6C0
7A3
06E
75A
09C
7ED
11E
164
112
79B
6D5
026
6BE
127
775
0AB
6F4
6E2
778
6B8
0A4
0B4
099
044
012
7ED
074
738
726
052
7D1
04E
6BA
735
102
13C
089
717
6D6
76D
6BF
7EF
70E
11B
16D
7BF
154
0BD
041
7AE
7EB
7B7
6CA
7D2
6B7
7EF
07B
6D5
112
68C
154
0F0
10B
0FD
682
736
0F2
71A
043
6B4
092
02B
79E
791
00D
012
115
690
0CB
095
6EE
6AE
0AD
13A
0B8
08E
055
118
710
70F
174
7D2
052
02F
77A
159
789
6DF
0F2
169
6A0
7E4
68E
718
7CE
6E7
01B
149
6D4
092
6D8
01D
6D2
0B6
782
06E
09D
09A
041
6FB
0D7
053
14B
683
791
7F1
0BA
758
148
053
067
00E
0B2
017
6D8
011
0E3
725
756
007
724
0FB
7E4
131
02B
682
086
697
792
02F
125
138
0DA
7EE
0D7
72A
723
131
708
124
7A1
7AA
187
6F4
053
15F
701
124
700
028
08E
716
05D
7B8
0D6
6AE
155
6D5
772
785
01D
04C
0C7
786
08D
095
03F
721
106
001
741
14A
6A4
7EC
008
026
748
7EA
68A
70F
695
126
7DF
095
157
06B
0BA
11F
74B
688
7EC
08E
7A7
10F
0FA
0B3
751
799
180
77B
0C6
14A
0A5
09C
14D
10C
04F
0D8
10C
16B
011
0CD
72F
6A3
6E1
015
0B8
6D8
691
6B1
157
157
69F
023
7A3
7E2
04B
149
17C
6C8
086
757
094
07B
12B
135
716
6A4
01E
72F
05C
099
7D7
778
7F7
7C8
6A7
72B
7DB
03B
129
6D8
773
02C
076
6ED
7C0
086
0EC
706
0BD
15F
74C
0C0
7D4
01D
717
0A7
710
0DD
6EF
7CD
684
752
731
7BE
03E
060
05B
7D4
752
04C
72F
00B
100
14F
683
732
148
701
7B4
0E2
00A
6EA
781
7BD
0BE
7B5
714
07F
7BE
7BA
776
6C5
0E9
086
79A
6F0
120
7AF
132
7CA
069
0B6
023
068
690
6B0
179
73C
6A5
088
786
6AE
0A6
072
07E
69C
138
0E7
126
68E
067
69A
693
73E
77B
12D
7B9
784
0DC
03C
73A
6AF
0C7
0D8
7CC
7C6
0D4
7DE
6EC
172
730
7E8
771
7F6
7DE
108
79F
783
039
7D3
6A1
145
747
11F
69F
0EB
6E0
019
172
726
786
0C9
078
76C
0FB
706
6CF
792
027
771
6E9
056
6A1
15B
0A6
100
707
107
7A5
0D7
075
0D9
058
779
07A
795
7A1
70D
72D
0BB
7AD
03C
00F
71A
7FD
0F3
035
6D8
6DF
0A5
095
002
7ED
6A8
6AD
6F1
155
7F5
770
6DB
77A
07F
068
6A6
002
063
0EA
744
753
09E
69E
08C
0B6
03B
07A
73B
788
7CC
14A
105
7D0
705
05C
751
03A
00D
12D
0AC
146
75A
72C
068
7B5
013
70D
02C
6EC
04D
752
7F8
6E7
7C1
0D3
057
121
6B8
7A1
666
6DF
019
755
071
6EF
0BF
758
74F
002
721
6C0
7BA
6E2
106
0FA
6FC
725
069
130
0DC
00D
03D
01F
75E
71D
6B4
713
084
6E3
7F0
037
057
6E5
6F6
045
72E
719
0CE
035
6E2
18D
6F5
6ED
137
12D
051
00A
7CA
7CF
050
736
717
750
16F
110
758
7BB
11C
0E4
6FA
046
12A
6D6
6F4
7E0
005
01F
7CB
719
02A
774
04E
6E5
6D0
734
7E1
783
18A
0A8
178
005
09B
155
0E2
684
736
14F
75E
75F
741
70A
6CD
6A7
767
7E2
69F
7F1
7A8
75D
172
0E9
07E
68C
7F6
7C0
6D5
7AE
0CC
0B8
7A2
6B0
777
738
78C
13B
6D7
7BE
0F2
728
7CA
091
6A8
6D3
158
69A
784
116
0AD
0DB
771
00F
07D
053
0FC
7D6
059
0D9
172
17A
70B
02F
6B7
718
0A2
053
0BB
0AF
0EA
788
791
71D
712
73D
102
0F9
174
6E1
04C
013
711
11B
693
0ED
7B8
794
699
017
747
112
09B
7EA
766
71F
70F
043
02C
071
7C7
6B7
6A0
005
73F
00D
7EC
105
094
05B
78C
0FA
75F
709
725
111
16A
7F4
749
7E4
7D1
740
0CE
732
75D
7D1
125
710
708
13C
098
6CB
000
72C
040
015
693
6DA
009
15B
135
717
165
06D
111
7EB
059
045
695
0D1
16B
05A
785
70F
177
090
0C3
6C6
6F5
13A
762
0AA
6E4
74E
758
6A1
03F
083
751
6F0
08B
79F
140
7FE
133
028
000
115
00E
082
17E
703
7FB
16F
00B
714
0E5
095
6A1
09D
6BC
141
6AF
787
797
74E
10B
73A
05F
6F1
07A
102
68C
169
0BD
006
741
042
025
76B
673
770
0A8
79F
080
780
0F6
115
0B0
6DE
781
15A
02D
76C
06D
6EE
6F4
17B
6A9
77F
736
7C6
0AD
0A8
7D8
05B
748
7B3
09D
067
05C
6EA
079
025
05A
712
73C
0BD
7EF
77F
7B6
6EC
090
01C
0C0
0EA
15B
13B
06C
796
73F
6BA
06C
176
68B
000
7B7
0A3
0A6
002
773
6FC
7F2
0D0
16F
7F2
6E4
709
04B
710
0F0
14B
686
0B7
6A1
75A
7A5
704
755
124
7F8
06E
690
7AC
72C
6D6
709
0DC
17B
6A2
0FC
0D3
702
0EB
0AF
6FF
0FC
0F8
0FA
0AC
0C2
6E3
159
101
127
7C9
007
075
79B
163
799
7EB
108
0B1
7F4
0DB
7CA
7E3
11F
15D
00E
6D6
77A
124
011
6FC
12B
7E4
033
0B4
751
762
010
6AD
000
100
7EB
7EC
143
165
106
6FE
75A
725
78D
6D6
702
7C7
6C9
10B
767
7EA
088
6F2
755
00B
6C8
7FD
173
157
6D2
044
09D
6E5
0FE
782
7FD
7B8
79E
10D
7B0
093
710
70F
6BA
040
146
684
160
771
00B
01A
0C2
786
056
6A3
0F3
10D
75B
0F7
783
07F
751
137
740
6BF
790
11F
149
73E
7CE
091
6B6
740
6AC
157
6AE
0B9
0DC
079
6EE
01E
71E
720
703
7A2
077
73F
167
695
06B
7B5
74B
09D
113
04D
750
704
727
6A8
0D8
76F
09F
70F
75E
757
0DE
77C
03D
167
791
072
775
06A
6B4
12A
06F
732
7B8
10D
785
693
763
7BD
7E6
165
783
03F
0A6
001
02D
0F9
78B
733
745
700
722
015
7E5
6E7
077
0DE
798
028
16B
6A7
0C2
6A4
77F
77D
6F4
07F
156
74F
7C7
7EC
7DC
0AB
017
0F4
171
101
176
736
6FB
73F
128
68F
6F8
11E
75E
11E
166
03F
7FE
021
6C8
165
012
7F4
053
063
147
7F4
793
080
74B
6B6
782
166
0B5
0FE
08B
02E
0F4
0C0
105
0B5
704
128
014
0C3
6A7
0E6
185
0FB
701
067
158
0D0
746
131
134
6BB
107
022
69D
6DB
7B8
128
7D5
0A1
033
11F
722
12C
000
153
05D
730
003
009
0F5
073
6BA
0D4
023
76A
7E2
749
057
74B
121
688
777
702
0D6
177
0A7
7C4
742
112
7E8
759
113
79C
105
0F2
786
041
141
7BC
156
07B
7D3
088
7AB
11D
7FC
111
7E0
751
0E7
72A
0BB
698
129
78B
6CB
04F
7CA
06C
751
0AB
69A
080
04B
741
708
09D
049
0CC
0D3
766
09B
7AB
0E3
07E
0AD
79B
0A5
7BF
106
6A6
01D
104
14B
6DA
135
6F9
046
7F8
6F5
0EB
11B
011
122
7E6
701
6C2
0DB
071
00B
7F1
7B2
78F
049
136
78E
762
129
041
0D5
71F
713
6DC
13B
022
74E
7A8
7E2
729
68C
7D5
169
05D
73B
6C3
00A
07F
702
0C8
09B
07E
182
153
059
0AA
6B0
13A
794
11C
70D
186
037
040
096
7DD
7CE
694
090
714
023
122
77F
11B
0E5
79B
68F
7A6
6B6
6AD
72A
08F
024
060
6BC
0F6
746
6A9
0A9
6BE
730
034
111
14F
75A
134
03F
6DF
12E
6A4
18D
6EB
075
76D
71B
7D9
0C8
6A2
6A6
6BB
6A9
14A
01D
712
09B
6D5
0B2
13D
0B9
0A2
73D
100
0D0
7A3
13F
131
0D6
6B0
122
7E2
7A8
70A
794
02B
693
6DE
6FA
79E
0EE
796
04D
7E8
120
7CD
758
7A3
6F6
68F
740
0B0
12A
07C
040
750
005
016
016
6B8
0B6
0DD
0B8
035
6AC
06C
028
0C0
140
6FB
0E0
128
053
028
732
6D5
700
7DC
7C9
70F
796
6F4
70C
795
0E9
016
049
15A
6A3
06E
7CD
0BE
7F1
031
150
7D7
6D2
083
68E
78A
025
098
0D0
140
0F6
6C9
7BE
109
166
018
779
19B
7B1
6F2
001
788
164
751
104
6DB
02F
771
6BA
790
0E3
684
0D7
7FC
0FF
732
12A
0EA
7CC
15D
0A2
0D2
083
7E5
6EB
07F
141
710
057
6BA
11C
7CD
17D
114
06B
6F0
074
760
76D
06A
10D
6FC
6A9
047
07D
129
14E
7B8
6DD
7FC
139
69D
755
160
788
042
175
0F5
758
162
6E1
15E
6D3
71B
7E4
041
01E
7F6
722
726
76B
7F8
6AF
78B
7EF
69B
799
0C1
108
0C9
713
765
6E2
7BC
0A7
682
159
78C
6C4
6E2
70A
139
118
6A4
6C4
0CC
077
059
70F
191
038
139
722
680
65F
06A
7F6
07C
68E
060
09C
799
079
769
68C
777
707
1B5
019
0D1
755
73A
197
062
078
777
78F
0EC
063
100
0CE
77B
163
6E3
779
028
00D
0BA
7E8
0BC
10F
70C
006
767
044
0CC
15D
08F
6AD
7F6
0F1
6EC
15B
6EA
7F1
16C
0A8
7FA
0B9
173
015
7F9
168
721
07C
0E4
748
0A9
7A1
178
111
72F
08D
7AE
77B
6E3
78C
797
7A7
042
717
177
7ED
028
772
0C0
7FD
6CB
6ED
764
163
759
169
157
04D
15F
0E6
016
11F
742
0A2
008
7B0
745
7CA
004
17A
11C
73B
71B
049
725
059
72C
125
112
7B0
72F
0C7
16B
095
11F
12D
0A3
156
7F8
688
0CB
7CB
6F1
05B
0ED
74E
12E
79D
131
7AA
0C8
0EB
085
028
720
03F
0B4
75A
71B
179
6B7
7EC
161
032
09D
6D0
698
705
0CB
0A5
01B
0DD
7A4
02C
124
0CB
0A7
69E
6A8
6F3
637
6CB
086
70A
0C1
736
07A
057
726
090
66A
05F
1A8
71F
696
7F4
120
6A7
0AA
085
7AF
6E3
0C5
0E8
0DB
70D
78F
008
67C
063
0FC
0C2
6FB
156
74E
6DF
7B1
172
7A4
0C7
6B2
0AC
10B
0E8
72A
7BF
0D3
736
013
06A
04D
119
6BE
067
0D2
695
607
04F
06C
7D6
7F5
025
752
079
0D6
7A5
0CA
7A1
7CC
647
047
7FF
041
78D
7E3
048
1B8
6AE
7ED
0DE
6E5
743
7BA
76F
6AF
066
041
7AE
76C
034
110
7D7
691
112
7DA
0AA
796
05B
764
0CC
0DA
7E0
037
084
75C
06D
731
06A
73A
0FC
068
6CB
0E8
015
778
064
14C
03A
7E3
7D1
798
019
770
7B6
0C6
022
7AC
6E0
78B
6D4
6C3
74F
186
7E1
7A8
0EF
6C2
047
768
046
76C
005
742
0CB
743
0CB
76B
7F2
14F
6E8
7F0
7DE
12D
014
08F
09D
05B
72F
758
0A1
700
79B
0E7
0C3
0CD
790
0FC
73B
11E
766
68D
772
0F2
7A0
141
69E
078
031
04B
117
76A
76D
054
764
6B1
75F
78B
0E4
7F5
04B
0C9
7CF
06C
7CC
0DD
776
717
77C
7C7
0A0
046
11C
713
033
08F
10F
770
128
130
0EB
74A
0A2
7D3
731
08A
0D8
130
757
76F
7D8
05C
071
6DF
7B5
7C7
77A
719
036
72B
785
060
681
081
098
08B
064
040
01F
15B
799
7BB
06E
08E
0D4
004
106
0B2
10C
0CB
0B1
7A7
174
7C3
0EC
160
76E
035
72D
6DC
0CC
6FE
114
04E
023
770
024
74D
080
04E
6B9
781
699
172
0CB
028
0FC
043
6F1
7FE
746
7BD
0F4
0A1
063
0B7
72F
7AC
0EF
71E
075
6D2
728
0B0
6A8
7D1
7DA
714
72C
150
71B
6AB
057
7BC
6F9
6F6
025
71A
7E5
052
759
141
71E
168
164
756
0E6
74F
6D3
687
09E
6BC
6BB
108
6E9
016
063
788
0D6
6E6
177
063
7E2
00C
66C
7FF
16A
771
7D7
04A
182
129
761
17D
7D8
6B3
0B8
0D7
7C0
77F
6F7
11E
04F
6ED
002
05B
007
791
6C2
7EB
127
140
745
6D8
128
742
76E
6D6
7B6
120
774
6E1
0EE
003
0D4
04B
7FC
078
049
003
124
730
70D
084
05E
081
780
021
714
10F
724
0A3
0A8
0E9
7CB
091
73E
0A9
735
7C0
758
757
09A
7E5
007
7DD
124
782
669
683
74A
006
704
765
06B
15B
14A
0E2
0A2
6E8
176
68A
79D
038
014
025
7FC
6C9
093
732
131
105
732
6BC
11E
0E2
7CD
728
7DE
074
132
04B
69D
7A7
0E1
739
685
163
671
7CD
7CF
752
05F
796
0FF
025
6A7
0D0
691
0E1
75B
6F4
0C3
6E4
797
736
789
15C
777
7B0
0EB
149
018
14E
6E6
79C
6E7
71D
6EB
053
0CB
69E
739
7A1
69A
74D
14B
732
7FF
6E5
0E0
0C1
116
009
6C1
757
793
07B
786
740
682
75C
13B
747
11B
79F
0FC
0A5
148
705
0EC
126
054
6E6
7F6
0CB
017
697
00E
7EF
067
000
76E
040
114
6F0
7EC
692
01A
00F
022
695
184
78F
6A7
6E4
6EF
14C
733
713
7D9
04E
6CB
0BA
053
72B
108
68A
0DC
77E
068
7E8
68A
07F
0AA
049
714
12D
741
01A
11A
706
0A2
78E
6CB
715
11D
095
114
02C
08D
717
133
70B
147
6EF
710
6C6
797
7DE
100
7E1
7E5
0E7
6E9
08A
07A
13F
003
6DA
7A0
6F3
006
02F
799
6EF
6E5
784
127
76A
020
051
024
711
736
767
0C4
712
7C0
771
695
796
01A
09F
082
095
714
7F6
712
73F
7DD
003
7C4
7B2
0D3
7B0
026
153
71A
7E0
758
101
7D0
7AF
10F
78C
786
016
6D3
0F3
73E
06A
685
7B3
0A1
76D
15C
077
721
779
00F
00C
107
7DF
031
72F
001
11E
0E9
7EE
019
06D
15B
162
05A
072
16A
099
689
07F
043
767
7A7
0DA
059
112
15E
78D
0B8
7DB
07C
78F
105
170
0CC
034
004
700
7CB
14E
6D6
703
16E
6A4
763
085
7D7
06D
0DA
78E
0EB
7C9
7CD
0C8
07B
0F9
06B
12B
7FE
781
0E7
72C
73C
06C
0BC
079
706
6DC
009
154
154
775
7AD
728
71D
697
16A
788
731
7CE
0CA
0D0
6F6
73B
6BC
72B
745
030
109
74B
125
0BB
6AD
076
051
0B4
665
7EA
734
795
6DE
69F
109
6A3
108
787
715
1A8
7C8
0D0
67D
768
785
755
791
07F
100
684
103
7C0
6B8
0D4
6D0
06C
773
76C
721
6AF
7C6
681
67A
79A
76D
6FB
7AF
18B
7CE
763
0E9
70A
029
7EC
6C7
056
16E
6B3
122
157
001
075
0D7
6D8
6AF
6A7
0F1
797
072
039
748
685
012
718
7BF
06C
714
7F4
068
069
740
7A4
14B
67D
010
6D8
171
7C8
125
035
0A0
0A4
09C
0A2
774
75B
159
121
058
06C
683
7BA
73B
0D3
125
6D8
727
01B
04C
0D9
692
78E
6A6
004
00C
156
781
744
6A7
7B1
150
0B0
73A
77F
6E6
0E5
145
740
0D0
171
167
7F0
689
006
012
0C2
6DA
7AB
75B
02F
7A0
0BB
7FA
793
6A7
167
705
72C
12A
6C3
0DF
138
0F4
79F
138
061
6B8
16E
725
7A4
7C8
01B
6EB
7FF
704
09B
6F0
7BA
724
6D7
789
73F
038
039
101
0F3
7BB
71F
0D7
05F
786
127
0A0
156
01C
6DC
172
168
158
0C2
0EE
043
098
0A7
77E
041
6AF
71D
0D0
787
757
756
168
083
6BD
7FE
052
179
143
6B7
151
7DA
0DE
73A
7C5
048
154
014
6CB
113
7CF
72C
023
09B
02E
129
6AF
679
757
6B7
7BF
12C
798
0C6
155
014
0D8
7B5
14B
769
050
7D3
7C8
138
0AF
7BA
165
7D9
6A2
7E0
739
74E
6B6
6DD
740
753
01F
042
006
7B1
746
6C6
051
167
040
716
12D
784
05B
03F
091
0BC
681
0FC
741
01B
688
7A0
0AD
0CD
08A
0B6
69D
0A1
121
13C
091
7EF
0EE
69D
112
0CA
0CB
7BF
6D8
093
741
6E3
191
6DF
060
6B9
65C
09C
75F
7B3
048
15B
6E4
75D
6EF
6BE
77F
7F7
092
101
105
192
07B
7AC
670
6F0
09B
68A
157
6DC
013
78F
70A
688
124
0F0
74E
109
035
02E
7EC
15A
78C
6FC
77D
139
0F3
116
0F9
75E
12D
727
11C
098
129
08B
05F
11B
05A
78A
177
7A8
106
77A
7B0
7FC
774
6D4
6E0
73D
107
79F
0B6
0D8
78D
777
006
7E2
0A5
7F5
741
066
6A8
6AC
0A5
0F3
6E9
75D
7FC
151
729
781
016
16E
741
7A6
787
73B
7B3
7C1
729
6D5
6CA
0F0
002
68B
007
0B2
728
719
7F7
0CE
782
005
07F
6F2
70B
71A
0F2
0AE
749
009
7A8
013
09B
052
008
142
7E0
116
03D
0D9
013
7A8
730
683
17E
130
107
7A8
7BC
05F
0F7
7E1
108
75B
6A6
099
103
683
005
113
72F
0AA
72F
07E
0C7
725
110
0D3
167
00C
79A
752
68B
06F
6F1
757
6E2
6C0
04D
13F
6C9
0B7
062
0F2
667
0AE
08E
7A9
765
6CB
0CB
775
111
0E1
7CC
6C0
025
69A
71A
069
119
6CF
15E
097
022
7FF
6C8
76F
12D
103
000
75E
6E7
752
027
74D
7CF
7A7
02F
06C
15B
0A3
064
7BD
71D
0A8
0B6
096
100
081
02B
729
798
09A
6A3
09F
789
120
0B1
16D
73F
6E7
77D
6AA
79C
082
7F2
7E6
6B7
7C4
69E
0C5
064
021
0DF
7DB
0B6
76F
767
76A
708
057
708
743
732
7E6
11C
7C5
6BE
0D3
736
6DF
0E2
12C
0AB
0B3
0C8
160
78A
698
6E3
13A
761
035
023
0B6
15F
6FE
04C
74C
7F0
7BA
131
13E
01E
6D0
7DE
67F
03E
749
068
0D5
158
0B9
719
6A7
7C8
6D7
719
69F
6C4
7C7
77D
7E7
11E
017
7A1
74D
12D
793
77C
116
0A4
0A3
7DC
764
04E
693
70C
779
6D4
7C4
08B
0C8
04D
073
095
00E
115
09B
712
6F5
6CA
008
6D8
147
027
741
7A1
0AF
11B
752
162
750
778
73C
7D6
018
00C
6FB
77D
7D0
057
702
72E
780
780
047
088
142
69C
6A2
129
150
176
7E1
7E2
14F
167
139
69B
0E2
16B
6F6
0F3
69F
15C
7B8
09E
064
127
09A
74B
726
0DF
000
14B
0BB
12D
03A
1BC
79E
1E2
09A
138
002
03D
79B
082
6E0
76F
066
7BB
7E4
7F5
745
764
115
7EB
6D4
02B
041
700
679
256
0A4
701
6FB
0AB
153
6BE
64D
6BA
7AD
160
029
177
072
041
00A
13D
676
73D
073
15D
0DB
794
0CE
162
129
06C
18E
6F2
170
01B
189
129
657
00F
6BE
70A
173
039
74A
714
697
791
76A
15D
73B
09D
01A
7FB
15D
0B7
0A0
714
131
74A
12A
041
003
6DF
104
6C8
73C
061
773
087
6E5
728
7C1
6C8
6EF
66E
013
70A
114
78B
720
6CE
771
78D
7C7
7F6
719
026
19A
01E
114
611
6B6
7CF
74F
7F2
70C
171
000
741
061
168
742
0C2
764
073
07B
041
043
740
694
736
07A
729
6EC
6E9
6DA
103
7F9
7D0
7A3
01A
7C1
7C8
020
100
086
0AE
1D8
694
12F
00E
050
140
0D4
0F8
70A
729
6D8
113
68E
03A
6A3
0CB
7E8
067
048
136
792
768
784
09F
13C
066
6FF
0DE
0D5
724
154
131
0E6
10E
6DD
732
10F
10C
009
00B
04D
022
6D8
69C
058
087
75A
01C
7A3
07E
13A
6C7
033
7D2
007
061
6D6
71B
0B3
73A
79A
7C1
737
177
71F
732
6E9
098
0E9
13D
7C6
7D0
777
0C1
73D
063
09E
6A7
0BA
708
04D
69B
000
054
75C
041
6D7
136
77B
0FA
6DE
0DC
70A
0E6
6EA
7E7
7EE
7AB
718
7EC
767
707
7D7
0CC
6E2
17D
120
6C2
017
7F3
704
739
0A8
727
7FD
119
055
16E
045
747
194
737
6DD
6E3
79F
0BA
759
740
0BE
7D0
71D
0E9
060
08D
7B3
6F5
0A2
7CE
0F0
7B8
792
7E9
1B1
7AB
100
767
05F
04F
084
104
6D4
110
6A6
0E8
13E
0EE
6F7
142
738
71E
0ED
6D8
062
7F6
792
700
7D7
78C
773
6C6
6ED
10C
7C5
756
0FF
0AB
0A2
798
0BE
0A3
06A
6DB
7F0
0D3
0B4
06D
09F
14C
6C4
142
119
7A5
6FE
7DC
163
03E
0AA
655
007
719
154
199
732
0CF
6D0
748
79A
6B0
04A
02C
04D
7DB
09A
7EA
6B6
69B
79C
0E2
74E
08D
745
0FD
0C5
70A
78F
024
00B
013
0C2
728
682
04F
169
0CF
6AF
70A
74E
080
023
009
076
0A8
120
6E6
6AB
7B5
02F
768
6A4
0B5
0AC
00D
6B8
747
713
0E8
73A
7F7
11C
6A6
170
0D3
11E
0D0
6A8
159
0AE
6E2
0D3
13E
7EB
7AC
737
7A6
115
0C5
7CA
160
771
75B
793
6A7
79E
0C6
6F4
711
046
6FE
7CD
6E3
765
06E
6B6
0EF
091
6C2
710
7E0
065
152
6FB
065
6C4
7F8
72F
09E
17E
08B
6C7
7C4
6A5
725
0F9
693
78F
0D0
7CE
08C
04D
133
02F
09B
7A9
735
7C8
700
79E
73C
0FE
137
6AD
6AB
7A3
7DD
7F3
6AE
031
0A6
121
781
797
74D
164
729
0F5
758
7AA
099
045
04A
0A0
081
0FA
12C
069
053
702
591
615
723
074
780
0AB
6C8
79F
7DB
761
723
0FB
719
7E9
019
7D8
690
710
765
6FB
6E5
731
16F
092
740
7AA
158
6E1
204
0E1
775
10D
7F9
02B
708
0E1
7EB
772
0AB
065
75F
6D8
04B
16F
054
091
72B
750
084
6C2
042
76B
7B7
162
105
052
158
6EB
77B
633
7E1
67C
020
001
7A8
055
136
1D3
659
79A
031
1C6
034
196
75D
75C
7AB
714
7B4
72A
797
12C
0BE
70D
093
01F
196
1D9
6B1
716
745
693
7AF
049
0F4
137
702
79D
6C5
0D4
0C4
056
68E
017
0F4
776
7A0
76B
69A
6E8
764
0F6
074
014
0BD
172
77E
0CA
7E1
69F
7FC
799
7FF
16C
6A0
029
179
75F
6AD
78A
738
696
15C
72E
182
128
739
72A
056
043
69C
0E3
7C9
088
774
0E5
78F
10B
716
036
7B1
16E
10C
7BA
699
021
731
6EE
724
00B
777
79B
716
784
78F
0DE
073
072
767
0C0
12E
055
6F5
731
6C8
6F6
151
0F7
77B
15A
0AD
0C4
75E
0B4
156
7CC
70E
102
6ED
7F3
0B0
703
6A4
178
7F8
799
75C
146
082
76B
764
138
00B
7B6
15B
6CF
6A4
017
70E
77C
6C5
6B9
08E
06C
6BD
01F
047
15B
746
7D5
0F6
137
098
0FC
7EE
6B8
0E9
06D
697
74E
178
11F
6B3
72D
18E
787
695
0A8
008
76E
72F
6A0
758
0ED
0E1
7CF
6A1
14B
796
696
12A
076
7BC
71C
779
6E4
74A
096
690
7F5
6C2
72C
6DA
6C3
7AC
7C0
6BC
154
072
6F7
03B
772
699
6F1
768
049
6D3
149
71D
167
057
78F
145
795
084
726
7D8
02E
0C0
71D
7A0
75A
68A
73F
0C9
11E
171
69E
7FF
10D
7CA
7F1
119
789
006
6D5
14B
794
7E0
07E
066
07E
6C6
134
08A
0AC
080
6FB
00D
739
6F4
77A
724
6D0
6D8
7A0
73F
12A
79C
031
7C3
692
0B5
05A
04A
70D
6D5
0EE
087
777
751
7A8
156
6A6
08E
7F9
0F6
14B
07D
707
6AF
0E1
02C
16E
0DF
6B0
726
6EE
0B8
057
620
143
759
70F
108
760
768
095
691
7A8
731
768
7D0
68C
706
7B0
155
050
75B
7FD
72B
04F
165
04D
665
0D9
131
112
6C0
160
7A5
7C7
7D4
69D
0D3
00F
168
6A0
628
714
022
079
785
7A2
015
792
6F1
0A6
735
679
6AC
0C2
77A
044
123
774
70D
7A6
7DD
687
039
7B2
776
71D
7F2
73B
6C3
715
786
717
10A
7C5
07D
734
15E
016
7C9
0B6
7DA
06E
069
1AE
6F0
118
7A9
139
0BD
7EB
6AC
78F
796
0A3
0E1
117
7A7
6F5
7A9
7DB
123
69A
171
0A9
138
067
7F5
069
040
79E
16A
0C6
65D
0D0
798
6FB
143
151
67B
0F4
7F7
0C1
0F8
6CA
7B9
110
068
760
7FB
11A
7FE
695
7EE
0F0
79B
712
120
7D1
0C3
039
7B4
7F6
11B
70A
163
063
068
0D0
018
69B
7E2
7BD
098
77B
73C
026
79B
10E
071
04F
0BB
7D9
07A
7F1
01F
139
75B
0FF
126
7AA
7D6
6C3
081
152
7B7
71A
6F6
118
062
0BE
002
10A
16D
746
158
715
093
712
009
0AD
720
711
6FB
6F3
7D6
68E
117
6ED
6A0
132
0E7
0F3
714
088
774
078
791
7DF
141
096
12F
0C9
6FE
198
179
039
707
154
6E5
094
004
71F
6F5
025
005
7D9
7F7
0DF
7D3
00A
03B
7E9
6A5
08B
029
7C6
0E3
758
174
0B8
782
6CC
79F
79D
722
0DD
714
0F2
73A
68B
7F7
0C5
7C0
00B
036
054
6DC
700
6F7
68F
7EA
0B1
7E8
796
0BA
7C9
12B
6D3
165
7DA
773
13C
00D
0D2
052
0E9
6CC
7AD
0CA
6F2
6A0
10D
0BA
6C3
6C7
786
060
140
0E8
6F0
720
100
0AC
73C
11C
139
685
6C4
14F
77E
794
7DA
02E
0BF
7B8
795
105
145
7A9
74B
77F
705
6A2
75D
68A
798
0ED
0A2
034
68B
077
041
78A
6C3
7D5
131
7E8
047
0C2
159
09C
093
066
6E2
7BE
6B4
026
1C5
066
094
09D
698
0B3
778
134
02C
12D
6E4
769
7CB
0C2
008
72A
16B
09D
6C4
6F3
7A5
778
11E
000
134
75E
6EC
069
74B
022
7DC
0CB
767
140
6C5
67A
70E
098
6C4
096
73B
06D
044
02D
0FB
739
010
6CD
6D8
6CB
0E3
0AC
13B
79D
6A6
032
174
104
066
0DF
0A6
093
6CD
184
711
0DF
6F5
727
06A
080
051
0BF
739
16C
75F
04C
137
682
100
7D6
708
071
765
0ED
71D
7E4
029
722
131
0D3
06F
7BE
090
163
781
065
065
767
008
039
658
0AA
752
6C0
727
760
134
145
11B
6AA
6A1
6D9
143
02E
140
070
639
6D7
156
6C8
15D
158
131
0A9
03A
035
6E2
7EF
065
122
077
7D9
712
166
6E5
691
7B7
0C8
0D0
172
74B
779
01F
6E4
783
736
067
7A7
006
6ED
060
7BE
6F3
128
75A
772
708
0B6
04F
0D0
70A
6FF
019
074
0CD
033
056
68A
174
702
0B9
730
74E
6FE
0BA
0AD
095
0E4
73F
7C2
0A9
0F6
73B
023
12C
72F
687
6CD
069
77B
711
046
084
6BD
734
6EA
7A5
164
6F6
7AA
078
759
77B
029
6E5
03D
743
7B3
716
08C
0F5
099
024
0E5
6F8
751
164
10B
6CB
11C
118
744
757
74E
7C4
687
7C2
7CD
695
712
7CB
71F
7B8
776
02D
12C
78E
037
122
7EB
749
0EF
7B2
70F
02D
104
7FE
045
727
6AD
7ED
148
7C0
699
692
086
74A
09D
018
7B7
7AC
1EB
088
7E6
086
6E9
018
6E0
16B
0F1
056
06E
101
769
74C
03F
684
12D
14B
052
152
0F5
0F0
792
02D
06A
7C9
097
696
723
0B3
011
769
1A1
0E6
02D
03B
6AB
721
74E
657
155
79C
737
0EB
762
7A6
7F7
0BA
7D2
702
756
065
17E
7DD
002
723
79B
6F5
6BA
6BC
6EE
000
0DB
6BC
0C9
77F
05C
71B
708
673
03A
080
08A
09E
7C4
05B
7BE
757
70A
70A
002
72F
06B
6C8
03E
077
6CD
06A
7AD
7C1
6E6
78F
7F4
01D
164
05F
7CF
6A5
05A
735
6C3
163
7F6
04E
0E0
6FF
0D2
0C1
01B
009
791
76B
699
0DA
6BB
7B1
685
69A
719
168
121
054
03C
76F
67E
793
752
07C
181
7E7
071
75E
6B6
162
6A6
130
69C
118
7A7
7EA
148
6B8
6E1
772
6F7
79E
762
73F
6F1
073
7E1
710
6BC
6C5
6B7
08A
70B
775
720
176
796
732
0CD
742
17D
0CE
14A
07F
06B
0F1
053
049
722
132
757
0A8
69D
76C
177
082
7A4
0F6
0D6
07B
67A
081
098
0BD
6F9
67B
7ED
088
725
7E2
14E
0A5
03A
126
7BD
00F
0BD
796
757
747
0F3
74C
052
783
73F
16A
6CC
03E
13E
699
6DA
083
6DE
6AA
11D
7E4
7D5
694
723
04C
74E
6B1
7D4
77E
6DB
687
6EC
00B
0F6
6F3
14D
071
101
12A
0DC
153
10F
07D
643
7E4
64F
098
7E1
09D
6CC
785
067
05F
0A8
053
6AA
69D
6DF
681
7BB
76D
12B
11E
137
18A
0DF
785
68E
166
03A
7E9
779
764
169
134
7C3
77B
0C0
0AE
06B
7C8
04F
0F5
6CB
0C0
0B5
13F
0B5
132
7B2
6DF
0D6
6FC
161
7A8
040
16A
012
7B4
6E2
714
0ED
0B7
0C5
0B5
122
122
74E
173
69F
14B
746
0CD
722
0B3
0AE
102
157
775
091
0CD
011
70B
07A
729
176
7BA
77F
115
702
100
03B
6F3
01F
6B7
09E
740
088
141
734
130
0A3
15E
754
045
0A6
7DD
05A
071
733
160
132
755
025
781
052
765
6DB
03E
6FF
6CE
07D
03E
0F9
77D
7DF
002
0E2
008
00A
04C
019
7FF
04E
0F5
72F
6AA
718
704
08C
0E3
0D5
695
747
0AD
016
692
7F5
6A1
7F1
0C1
6FB
110
033
12B
151
0C0
69A
732
0CB
6BC
127
75F
142
022
05E
69C
16B
1AE
7E6
0A8
708
0B3
7AA
7FD
7B9
754
7FD
100
15F
716
10C
73F
126
100
78B
68B
055
033
10F
053
005
7B0
74E
0E5
147
6F6
0E9
15E
13F
06A
7E7
76F
114
67B
6C3
7A8
01D
7A7
6D4
102
0F2
091
70E
15B
126
0E1
74B
79C
6AC
139
14E
08A
7CE
7D9
061
6C1
77C
191
157
758
0F6
130
0D4
058
71A
7C1
65E
716
755
6A4
7A7
6DC
7DA
790
00D
037
041
714
08F
692
0EE
16D
78E
760
15F
770
1FB
791
117
085
0DA
783
728
671
7EE
791
6AE
759
133
67C
139
71D
02E
774
0E2
128
14B
209
0C4
7E8
7FA
7CA
047
03A
0A6
756
71B
6B8
05E
7EB
7D4
0D7
03B
74E
09A
7EB
179
026
7D7
7D6
705
7EF
015
0FC
710
092
104
6DF
71B
05A
044
0EC
7D1
010
752
0E1
0BB
6D0
123
7EC
76D
119
78B
021
159
0D1
70E
04A
068
6AD
074
078
0B7
711
7D1
794
78E
14D
7C1
063
06B
7CE
0CD
024
099
6E3
7F6
7CC
14A
7ED
115
17D
10D
7EA
069
63C
0CC
051
100
121
720
6E8
6ED
6C9
098
7C6
093
17B
01F
730
048
155
109
687
6B5
7CD
70F
7EE
7BC
7FB
073
6AB
0C8
06E
164
772
6CC
06C
089
009
74B
7E7
789
72A
0CE
114
76C
1DB
7C1
6B6
014
787
76C
122
6CD
641
6B3
04C
0B5
756
762
069
19A
6A8
7B3
6AE
703
734
08B
7CC
024
07E
73D
0D6
0D5
0BB
069
08B
6D2
0D3
113
09D
6CE
7B9
6D4
0B0
6A4
7A8
106
0A0
09E
6D8
014
0B3
0FE
006
205
17A
05F
7BF
108
7BE
6EF
7CE
05F
0F2
6DA
0D2
745
01D
7C9
025
16F
76F
708
76A
7A8
01B
726
697
7C4
7AA
774
076
688
025
69B
766
076
145
0D3
789
171
036
060
14E
7D0
024
091
7A8
0CC
16A
771
6ED
71A
7C8
7C2
138
020
091
7A2
750
05E
049
710
73A
7A8
6CB
0F0
10E
79C
0A3
724
144
738
106
7AA
105
008
07B
707
076
035
188
67A
100
792
6B0
7FE
0B6
7FD
0E7
7E0
039
0B0
02E
01E
15E
0AB
71D
744
0A6
178
04C
058
174
058
6F2
076
7D0
101
0C5
738
0D1
178
01C
795
116
161
137
178
031
7E4
073
6D8
07F
02A
7BE
131
7BC
77D
6B0
012
7FD
799
7BC
6B3
682
706
0AA
794
063
7C0
7F4
6CC
08D
023
03F
071
711
09E
04A
75B
14C
785
7A2
0CA
122
151
748
7B6
05C
13A
7A7
0F2
125
6DB
7F4
75D
0D4
6B3
15C
713
0DE
6CC
01C
796
7F9
100
021
6C4
111
7AE
6BC
6AD
0A8
720
78B
7F5
753
033
117
095
0BB
79B
732
13D
187
7E6
10E
6D0
167
0D7
040
7E0
01E
797
16A
0E5
6EF
69A
77E
01E
792
6ED
78B
0A0
673
78B
15B
731
0C0
06D
720
0C2
043
791
0B6
0EC
76B
036
78D
188
741
0DE
119
7DD
0B2
7B7
106
697
6FB
68F
004
0DF
16C
7C2
105
6C9
731
000
75D
6B0
14E
012
155
14A
7D8
6AB
5E7
79C
761
6E9
111
002
74A
0C9
611
789
781
7FC
742
6EA
0B0
7A2
139
7C3
6B5
14B
1E7
1CC
68B
09E
0C1
619
02B
6E4
73C
5D9
69D
707
6D0
12D
679
768
000
779
725
6FE
7C7
10A
7D9
7B5
257
7CC
6E2
127
0F3
7CB
0E8
7CC
719
257
02D
05E
76D
0B3
7AE
70A
718
6F8
196
7DB
66D
05E
22B
186
298
002
0B6
74E
0E6
03D
094
18E
725
7F5
105
667
6C5
054
7E1
685
7F3
19C
6B6
79D
1B7
0B8
019
03E
6E6
6D6
77F
758
7CA
768
7CB
781
6DD
005
0F1
093
02A
191
795
037
678
051
06E
197
7DD
12F
1AD
7E8
154
7CE
038
119
0D4
10B
11D
6E0
0B2
6BA
794
6CC
739
073
6D2
05C
060
084
6DD
0BB
752
0A8
7F4
06F
742
0C8
050
6FE
757
7AA
793
153
008
0D6
784
014
155
6E2
130
00D
0EE
075
719
720
023
05E
71C
07D
153
14E
113
7CB
6CC
06A
0A7
152
07F
140
152
022
775
6A3
70A
68A
720
104
051
0E9
7CD
16D
012
10C
11C
787
735
0B1
731
048
692
6E1
023
7AF
011
091
16C
032
043
6F3
10F
008
007
07F
6FA
175
034
7EA
714
774
125
0D3
6AD
782
0C1
792
772
0F2
78D
6EF
7CA
716
094
6EF
6C9
6D0
001
68E
013
141
740
028
11E
706
0E8
0BF
6A4
6DA
192
17E
0BF
16E
708
7DE
043
6A3
72C
6EF
111
7EA
12B
6FC
079
78E
6CB
074
6B4
0AC
168
0D0
717
788
6D4
6D1
748
0B1
6B4
6A7
163
17F
0FD
6C0
0F8
069
694
768
671
7B3
03A
7EB
166
033
06C
0ED
7C1
0B1
7F4
6C2
0A9
77E
0F7
01D
754
0DA
09B
164
74B
6C9
703
7A3
783
76F
0F8
7D8
0E7
6C6
0CE
098
6A7
728
7D3
0B6
15A
107
758
740
14C
125
11F
0F7
787
135
024
710
75C
7F2
739
16E
115
777
059
71D
091
68D
749
166
0F9
15B
129
7F3
03F
097
79F
7F9
0F5
7B5
6C7
142
0D2
186
00F
0DE
7CD
6DE
71C
739
6B3
76E
0EB
6EB
046
0A0
023
708
652
722
6FD
6CB
7FB
6A4
74C
050
703
06A
7C4
6B2
156
133
159
798
049
07A
106
01A
0B8
132
680
719
0CE
6B7
7E1
093
16D
010
6BD
17D
14D
178
6D2
11C
034
0CC
08A
6DE
771
102
7D6
12F
7DA
09C
127
704
01C
0CB
18B
75E
6E9
031
740
0A5
098
0B2
11D
7CD
724
171
7EF
750
0FD
71F
0A1
7D8
726
0CF
798
6E8
7F2
778
10E
766
716
7F3
68E
779
178
162
169
16A
691
797
08F
0A1
16C
6E0
736
006
6EF
128
051
077
02F
6CB
16A
68D
138
158
751
04D
100
7CE
7A5
14B
770
7DA
13F
05D
6F8
050
023
14C
04B
6BF
0CD
7AA
69B
033
0E7
7A2
031
6F1
7AA
7A9
002
026
742
083
163
6FD
04C
000
0DB
08E
790
11E
14B
133
79A
7CA
059
71C
6A6
783
09C
7CC
0E0
7BF
07F
6FC
14A
17E
78F
6D5
13F
0FE
6EB
05B
182
14B
13C
71D
0E4
7DC
7FA
001
0A0
7D4
0FC
14D
739
76C
0D0
006
761
7D8
7C6
6CC
7E7
698
7F8
67C
7F9
0D0
0C4
713
6A2
737
0A7
6CA
048
00D
6CC
10F
116
6A3
11D
7F0
6CF
0B2
750
782
6B8
14E
0FD
6AA
770
0EC
151
6D1
16D
0F6
763
0F7
133
7F4
7DF
7E4
6B7
757
082
0EA
6E1
704
775
043
0F1
700
153
72F
03E
012
7A2
0AF
6C7
7B5
706
69C
7B9
699
722
69D
038
68F
11E
09B
14F
03A
740
09C
775
712
07D
716
05F
729
09F
6CE
6A2
73B
0FF
747
7F7
720
13F
08F
783
787
6E8
6A6
11F
6FB
0B9
0C7
7A8
6C6
778
07A
799
780
739
15C
0ED
0E8
051
74C
0C1
73C
7B4
0AC
7F3
0D4
085
0EB
7D5
029
07A
154
02A
043
009
149
71A
7E6
0F1
029
714
0E8
0B2
0AE
6CC
733
6F3
78E
11E
024
03F
6DE
127
118
086
7E6
065
07D
6AC
076
699
0CB
71C
77A
12C
029
06D
00A
11B
15C
088
16A
097
723
7E9
018
6FF
7CC
13A
055
6A9
6A3
188
105
6EF
78D
76A
0F0
7BB
092
75E
09B
712
6A7
7EF
040
088
76F
663
069
727
0A6
10E
012
68C
640
0C5
085
068
11C
09F
017
686
0A7
05E
02E
0EC
1D2
066
184
74F
05E
03A
174
089
72C
180
0BA
102
0DB
07B
649
0FC
7FB
72A
0B4
15D
117
798
090
104
738
1FF
772
0C2
026
127
763
6DD
74C
0BD
11F
12F
02B
0BA
18C
0E2
15A
752
105
782
7F5
06A
697
0B1
7CD
668
779
5D5
16E
0C2
6B2
09C
01C
17C
7C3
03A
036
03F
115
02D
71E
6EF
6E5
769
0D3
0F7
181
046
173
697
7D5
735
7D2
06A
106
0FA
023
7D7
7E2
706
03E
0A6
174
119
116
116
156
698
7F5
751
707
690
0EB
0DC
146
043
0D3
68D
723
7C5
012
77A
0B6
0BD
0C9
743
086
7C0
6C0
093
7AE
079
78B
0AB
6A0
0BE
762
0DD
0E0
16B
0F5
72D
108
6A7
694
158
76E
019
6BD
7F2
6B0
7B4
744
70D
033
116
757
173
741
6AA
713
6A1
0A8
7B0
751
0D7
0CB
76D
7A3
021
073
6D8
0E1
057
7C5
135
6CF
79B
0AA
7B9
712
6CD
78B
7F8
0CE
17D
147
6C6
7BF
6CC
70F
037
04B
6DC
725
6C5
137
091
0DC
751
0D0
79C
7AF
76F
75D
0A6
6E9
06E
770
7CA
6F2
119
113
0D2
064
6A8
07E
000
718
7EB
111
00A
6E9
069
73A
695
7AD
7DF
7FE
136
031
7D5
069
013
14F
041
110
09F
11D
02D
0CF
13E
6CC
0C5
121
7EA
7B3
7A6
060
090
709
09A
135
7D5
6D9
76A
038
6BC
788
0DA
00C
184
785
100
0E1
66B
0C5
079
7CD
6D0
017
738
04F
65F
725
074
64E
03B
118
7EF
7CF
7E7
131
7BA
0EB
1A0
0D9
6E3
047
1D6
7B9
05F
7E7
112
79A
7CD
62E
183
109
706
780
7F4
020
052
74D
01C
03D
0CC
742
7C8
6A9
03E
075
055
0B5
18C
6FE
02A
057
792
6F3
119
174
0EF
02B
079
7DC
75D
784
717
121
758
095
077
760
764
7AA
120
796
7F4
7C3
718
6BB
153
78E
16E
063
0CA
077
718
7D5
13B
0F3
0C7
763
770
7EA
746
0E1
146
035
786
70B
794
678
6C1
6A5
066
099
08D
7BC
086
0B0
119
0F4
0D2
0A7
147
132
7A7
67E
75D
168
025
05D
12F
03B
056
01F
736
0A8
011
6D7
6E1
07A
0FB
7DD
6DA
6A7
788
7B1
7B4
057
170
045
6D0
0C2
7EF
7D1
15D
0DB
153
69D
682
110
7EF
066
728
7F5
163
74C
6BB
054
074
6AA
794
742
785
7F1
0E8
71D
694
7C6
6D6
68B
69C
02D
06E
6B4
10D
6E9
760
6FD
6EF
6D3
01A
063
7BB
69D
172
6F8
0A6
01D
6B9
7C3
111
7ED
744
778
025
795
6FB
78F
12B
051
7A0
09C
14C
77B
69A
174
0CA
77A
7C9
0DA
6E1
7A9
6E4
7BD
038
12D
077
7D4
157
08C
7B1
79B
799
762
15E
62D
160
737
7BF
078
6F9
672
6A8
635
0C1
078
674
7F7
770
1AC
179
7D7
12F
752
0B2
0CE
082
771
76F
064
64F
059
1A1
157
064
790
0B2
704
056
011
755
7E5
1EC
0A4
247
6FE
0F0
08D
13E
751
154
005
7F3
0EE
6B2
04B
06A
0D6
0B8
751
719
096
6CA
116
6F0
710
7F1
753
70C
111
00E
6C9
059
01A
01C
0E7
7DC
059
10F
02A
744
1E1
026
6B7
13C
738
08B
0AF
129
188
1D9
75B
6E1
0B3
68A
6BC
709
752
021
7B7
763
052
713
798
79D
161
700
6AD
08D
73D
734
124
7BD
6D1
693
0D3
7EE
7CA
6E9
6EB
150
090
6A0
6EE
774
16C
12E
037
04A
6C4
7C8
73D
6A2
050
05D
122
70B
15D
7A2
752
6D8
165
6B3
133
081
715
027
7CB
784
062
7F8
0CD
02E
689
748
134
720
7D6
7FC
782
12E
0AA
142
0F5
026
121
121
687
6C7
72C
73F
082
71C
771
05C
75A
788
0E4
6A6
6BD
029
785
13D
0ED
0C3
768
719
05B
6F5
6A0
6D7
6B9
778
085
6DD
77D
7EF
775
07C
023
095
09B
76E
6C0
6BD
7FD
107
718
02E
6DE
0C4
042
696
77F
70C
107
116
7DB
793
0C3
017
73B
6E7
76F
1C1
107
0FA
7C9
7D9
6AE
05C
7A2
090
0EB
74D
72E
0D5
081
0D6
034
062
6DF
71B
0D1
786
170
0F1
7B9
7FE
77B
052
0C2
024
15E
069
068
790
127
1AC
7DA
7D9
6A5
095
77F
0A9
769
752
6CB
7AE
7B0
121
6E1
703
717
17F
10D
03A
6C3
001
1F9
7F9
091
797
7AD
7C4
0E0
69B
789
7D0
020
10F
7D9
761
001
6FB
05E
77B
0FD
14B
76A
72C
786
0DB
7D6
7C2
7C7
08B
003
009
7F8
64E
79F
0D6
099
0B7
019
7C3
0D9
083
03C
047
71E
7E2
173
74E
7C5
744
651
11C
047
0B0
080
70D
743
0D3
11E
7CA
09C
16E
157
127
0AF
771
7F2
72D
6D6
782
114
0A8
082
7AA
056
04F
7B0
7E5
6FE
0B1
70E
028
00D
67C
19E
029
081
0F0
03D
771
0A6
128
703
14D
14C
112
089
728
0EB
7CC
69D
7D3
71C
124
016
795
0FF
6C2
75D
16A
15F
684
0CA
0A8
733
73A
6D8
185
0E5
0E4
72F
6F9
779
7DB
045
7AC
139
047
6D4
70D
6E9
72D
6FC
05E
7D1
7DD
6ED
74C
794
0FF
026
7F8
0F4
751
150
022
104
6EE
7ED
092
035
0AC
031
157
08A
030
066
121
0DB
10F
075
0EE
73E
0F7
205
112
726
0A0
793
065
079
12A
7BE
1D1
75F
176
142
0D9
7F6
7FC
677
7DF
1A3
14D
0ED
0E4
758
213
7FA
7D9
121
10B
6E7
70D
676
69E
0A5
70A
65E
044
7DC
12D
13A
775
187
119
7B2
160
7FE
127
0DF
69D
0F3
7A2
79A
71C
7FB
7EB
796
72D
7C6
0EE
061
7B2
045
16C
0D9
0AA
165
08A
042
16A
6D7
117
6B5
6E2
107
7F0
0C5
754
7B1
76E
126
7CC
74D
7FA
71B
7CC
780
012
111
72E
677
781
7F8
7E1
056
10A
7A5
18A
6EE
757
7D6
06B
749
786
7BA
6E1
6FF
79B
0F0
6C9
0D2
12D
068
6E7
189
74F
7C6
6B2
77B
0CC
044
743
09D
0DF
03E
0CF
03C
6CE
0F1
022
763
7E7
7CA
6EB
170
0B1
156
090
074
079
114
710
049
6E0
789
0C2
779
761
155
02E
77A
713
7A5
034
7FA
67D
07E
782
0EB
7CF
04F
033
01F
73A
113
17A
6EA
0BF
791
05E
700
713
7D4
036
011
049
085
0F0
665
16C
05C
046
0D2
7C7
0A9
02B
76D
101
76F
72F
0D5
170
70E
77F
757
7C3
039
009
099
06A
000
165
045
004
738
042
7EB
15F
17B
116
0B5
726
7A9
08D
0D9
6EE
7E2
748
02C
010
69B
7B3
0DD
094
7F6
02E
044
6F2
77C
795
74E
6A0
0B4
6B1
7F0
6E0
70B
769
7CE
0D9
7F8
783
735
6CC
735
731
00D
6F2
77E
076
695
138
177
769
080
164
03A
027
0D8
1C9
7EA
0C5
132
16C
0D3
79E
014
703
741
6A6
164
04F
73B
7EE
187
0DB
110
71A
040
6A5
011
6F1
0E6
18B
666
7BC
76A
05B
0BC
6B9
7F4
788
207
753
5D4
68F
7DC
7BE
6F0
13D
6BA
096
104
6A4
6A8
6AC
7CD
10E
0BB
0B4
7C5
0A7
7EC
6C7
0C1
779
6CF
0E9
0EC
1AD
6CF
6FE
124
045
7C4
221
765
6F5
741
7E8
018
757
195
0D0
754
7C6
6EE
069
0CE
0D2
082
13B
14C
05A
69E
149
6BC
113
7E7
076
69C
0C0
066
78F
782
6F8
794
713
768
158
71C
6DD
171
764
64E
7E2
1DB
767
7A1
091
0AA
68A
035
7FB
177
707
015
13A
063
6E1
7CF
101
76A
6E2
7D4
0C1
117
793
770
0AC
0D6
0F5
788
6A1
06D
13D
033
75D
051
091
0B1
795
7CF
0CD
76C
0F0
115
6D2
793
160
0F2
713
71D
710
123
758
7D0
0C1
0F6
74C
045
742
70E
0EF
6B1
07E
766
0DA
73A
053
705
6E5
005
752
00D
14E
6BE
733
0B2
6EA
0EC
691
6E0
6E5
022
06A
697
72B
6B0
16E
150
0FE
028
138
7BA
00F
6CA
10B
0A6
72C
68B
72B
090
15B
15F
015
6EA
70D
7AF
0EB
796
061
0BF
0FB
0C2
034
7C7
702
72B
6A0
719
15F
010
0A2
7E4
09D
6C1
051
737
133
7E1
0D5
00E
6B6
6AD
0B9
04A
04B
6C5
016
0AB
134
0A5
034
7C6
70E
741
12D
7A2
122
178
76F
143
1C6
0B1
121
177
03B
07E
04E
107
087
78E
044
6E3
6D3
784
03E
748
10B
7F8
7F7
7A7
094
696
04A
7E8
7BD
014
755
7F8
07E
67E
0F5
110
0C5
714
7AA
7F1
68F
0D5
7E2
0CB
6B4
6F7
75E
0F2
751
69E
1A8
7AB
71E
052
1A4
785
172
7D2
006
10F
755
0BB
101
713
7EC
110
0C3
67D
684
75E
7DD
6AA
007
7AE
6BC
728
0F9
0AC
12D
154
6AD
7C1
780
6ED
0C6
107
0A2
72B
78D
7E0
07A
701
7DE
096
7AD
785
7C6
757
7A1
035
7FE
0F6
74D
109
022
6FB
7B2
0E1
133
142
107
030
079
6AD
6FB
13C
192
13C
179
79C
06E
140
784
04B
6E4
795
0E8
7FC
6BB
13B
762
72F
720
0E3
13A
77C
6CF
025
0B8
728
0ED
0FA
15E
051
68C
147
05B
0AA
105
115
053
67F
0A1
7EF
74E
045
079
75C
740
7AF
686
0B2
704
10E
0EB
724
0E3
087
098
156
728
77D
0C8
0BC
6F7
710
6BB
6A2
73C
6CE
6E1
0E2
78D
014
193
10E
033
731
149
0DD
743
69D
162
712
6E2
028
066
03F
7A7
6DA
0DB
16F
017
135
6CE
717
15D
7EA
06F
6DE
78F
0ED
7E5
17B
005
05B
028
163
066
05A
77D
76A
7F7
128
6BE
7A5
73F
77C
102
7CD
044
6E3
022
05F
6C6
794
7E7
691
05F
0FE
6AF
0BB
6CB
0E4
113
053
708
174
09B
6FC
7A9
05F
0FB
742
6CC
012
7CC
0D7
783
116
6B9
10A
0C4
002
0A8
01D
735
6F7
120
6DF
7EF
766
767
6EA
6AC
6CD
0AF
6C7
0A1
025
0AD
03A
0AA
12F
6B2
7F7
6B0
0BD
04F
0F9
6AB
18A
7B1
169
049
7D2
7B8
175
79A
69A
7C0
007
120
79C
0CA
02A
757
7E9
73E
061
07C
6A4
052
076
68D
798
6B7
144
053
066
0FF
78A
091
6DD
134
7B5
77D
7F3
6D7
0E5
00B
684
013
6B5
0E9
0D3
6ED
718
7B4
085
069
74F
11E
782
67E
119
7A2
0BD
0F3
170
701
077
7DB
087
02D
00E
04A
056
703
6D2
723
0AD
7AA
6A4
6F4
6E9
749
72C
73D
7B5
042
10A
058
00B
6EA
13C
6A9
7B6
0AD
090
0D9
0F6
7C6
086
07A
758
13F
7DC
7A0
7C1
751
043
08B
729
075
157
0DF
0EF
007
160
772
6B7
014
73B
078
021
724
7F1
75E
01A
0CE
70A
0FC
721
7EC
705
04D
159
7F6
09C
746
7DF
137
09E
6AC
0DE
697
097
718
0D1
73B
7EF
145
72E
107
715
173
084
141
6F3
7D1
0A4
168
14E
782
727
0D1
0ED
0D7
690
753
6C3
08D
77C
6E4
7A2
016
709
799
03D
153
74F
67A
01A
0BF
079
177
795
125
74B
0BA
004
7CA
159
04B
6E3
0DF
7C4
129
178
0A4
061
048
0F5
10B
68D
786
094
7E1
739
7F2
715
68B
133
7FB
7BD
024
7B1
7A8
6E8
7F1
186
76E
6FA
708
0FB
7A3
700
79B
0D8
756
09B
02B
734
717
02C
73A
11D
087
031
6AE
003
74E
157
75B
7ED
0D0
7BF
0F4
05A
76D
024
0E9
01D
01E
094
1DA
7F0
0E3
033
033
7D4
082
052
10F
7A9
718
03D
10C
0E9
7DD
028
0F9
7A8
6A4
0DD
05D
0BF
7ED
757
071
787
0DE
64D
6FC
02A
7F5
0E0
04D
15D
773
625
791
2A4
6CB
01B
69A
193
043
0CD
003
76F
182
053
6B3
046
71B
7EE
157
7ED
07F
06E
08E
029
035
01F
0BE
74F
048
05F
12C
001
71A
73E
142
6BC
0AF
7AB
111
779
686
6FD
0D8
034
74B
75C
00A
050
777
0AA
174
782
023
15D
74B
056
6BB
0AF
7EE
7BC
136
732
0A0
696
059
7E5
160
10D
6D2
758
6DC
799
758
01D
778
684
6C5
111
7A5
01D
0C0
085
0D7
7DC
75A
791
125
6FE
0CE
7C9
777
10F
099
6D3
08F
02D
7A3
119
0BC
116
031
131
0CE
0D4
6BD
0A2
714
7F4
16F
098
141
76C
12E
0ED
0AF
146
098
783
6F1
7E2
6B0
0F2
089
01A
148
0DE
735
0A5
0EB
10A
7C5
0E9
08A
689
038
6E5
047
7D6
745
69C
7D4
1BF
762
7C2
103
71A
06D
06B
6D1
71F
67E
00F
748
78E
7EF
77A
09F
042
73D
792
056
024
673
020
0E8
070
1C7
050
0DF
6AB
707
03E
6FF
12D
13F
7BB
7F3
721
7F4
067
193
781
057
093
0EA
6F1
710
0CC
6D6
176
7C0
72A
6AB
733
021
730
790
162
730
043
71D
08A
024
7FB
6CC
0F3
0DE
6E8
000
760
148
13E
6C7
694
75B
79E
7B8
12C
766
0D9
0F4
676
7A8
7B3
6EF
101
116
6E3
68B
796
7DF
66A
727
785
7BE
064
075
7BE
142
078
6B7
13D
678
0A3
649
109
7D7
134
101
118
1B6
0B1
6A3
6F7
145
71C
7A9
774
6B3
722
7E5
17A
70C
6C1
0FB
039
70F
177
76E
0B9
00B
6F0
751
6A1
1C7
6D9
12C
6F8
787
0D3
6D5
6B1
08B
105
70E
751
6B1
763
6B7
0EE
6EE
09B
6AC
13E
7B5
0EE
6D4
0AA
05C
7AB
74C
6D0
7D5
0D5
14C
702
714
11D
152
6F9
6E0
019
75B
7E9
7A2
095
7B2
734
119
016
6EB
7EB
744
6B2
0FB
748
0BA
01B
0DF
7EE
118
009
08D
004
6F4
118
767
0A1
107
750
739
160
141
7E3
067
0EA
02E
782
095
131
7D0
798
754
01D
16E
092
699
6F3
728
786
6DD
0EC
73A
784
0E9
025
044
168
063
112
0F4
0F5
00B
7A1
788
690
0D6
7F6
7DB
160
7C0
736
133
6E2
6EA
6A8
6B9
112
096
035
0BB
1D9
0C8
032
061
070
091
019
669
6A1
75A
6E2
6DC
7B0
093
0F9
7D1
7E2
704
7E4
042
0CE
0D4
091
710
0EC
02A
6D4
0FC
6F8
04C
08C
02D
0A0
6E3
6B0
6BF
02E
792
7C5
702
1A6
6B3
7F9
6EB
7E4
6E8
0A3
7C7
009
06D
6E6
6B9
0F6
145
7E0
0C2
70C
687
70C
193
781
7E4
7C4
083
031
74C
0B3
6F4
7F9
757
13E
693
05B
758
0A4
6E1
6A9
0C7
79A
015
63F
0FB
0C8
0C2
14D
031
687
7BE
6C8
6B8
7E7
70C
20A
132
032
047
7D9
04B
068
73B
198
735
72A
179
043
00B
70F
176
06E
065
03C
0F2
783
07F
79C
03C
774
7E7
12D
6CD
733
179
6EA
0B3
6CD
0D5
68A
777
6C6
743
7D8
125
044
750
7FD
0E5
799
7FA
0B9
77D
10C
6AF
07E
0F0
69A
155
0C4
76C
6C1
08C
08D
001
724
08F
123
121
0B7
735
0E6
160
6C7
11D
02C
039
176
7C1
750
739
6E7
073
06B
7F2
7D9
679
724
686
075
746
0AD
705
0E5
110
078
79B
790
0AE
71B
0DA
144
15B
737
02C
05F
06E
6D7
042
6D6
7A5
003
738
6B7
72C
086
7C2
776
0CD
11E
017
0F5
147
0BE
0BD
122
0E5
07C
73F
123
03C
72F
0A4
6AA
71C
17B
016
069
7C8
74A
191
00B
70B
78E
003
0C3
093
106
711
140
6C1
016
7A6
0AF
7E4
728
016
195
04E
6F9
0BC
06E
799
130
0F6
7CD
6D8
0C5
758
123
006
16F
7A7
093
0FA
6C0
6A8
0AB
716
76A
7F0
0CF
0F5
79D
6E5
0A4
039
737
14F
702
09B
773
190
729
0D5
0DA
73B
731
72C
070
00E
7FF
098
76F
729
6FD
6F9
016
70C
7CD
76C
7F4
7D2
10E
069
7D4
081
119
09B
766
088
7D2
77A
0DE
6F0
0AF
120
6C0
17A
6C6
6AE
048
79F
12A
6A0
0B9
6D8
745
78C
7E2
701
7B4
068
050
6D9
79A
00E
7B5
05C
672
6D9
6D9
76C
7BC
13B
112
70E
6CE
14F
709
196
6D1
12D
689
7EA
7CC
139
045
0A5
0DB
060
7E7
790
097
0CE
679
07B
0E1
7B8
04B
002
0E4
794
147
7A2
733
6F4
75D
0F4
0A5
13F
77F
100
793
73F
6E6
0F0
119
6AA
6B2
748
661
0D6
072
115
772
0A0
003
6EB
0EE
70F
18B
100
049
7EB
125
7C5
096
10A
06D
700
08C
043
7C3
700
189
6B7
08E
1CD
666
068
006
072
6D2
04B
78D
1A5
0CC
090
120
115
797
08B
756
036
19A
0EA
7A0
7B5
0F2
7F8
73B
03D
6AF
7D2
715
0CF
08D
079
0C5
0DB
11F
0D2
73C
002
0B2
00B
6E5
69F
0DA
6D4
78B
6BC
6F1
7AD
136
6D6
75E
0FD
6CA
6F7
6CF
6EC
7EC
016
125
7D1
11E
051
7FE
776
760
732
0BD
6D9
133
15F
7E4
103
0B4
785
6E6
6C1
0FA
752
726
73F
0B3
18B
116
096
171
04A
110
0D8
7CE
6D7
038
714
080
016
68C
075
67B
6A1
6D3
0B4
057
149
0E9
7A5
789
050
0B7
697
6F0
7F5
716
05C
784
6F5
7BF
003
0FA
7F0
0B0
65F
713
050
0E6
17B
7F5
645
6FF
6E9
763
08C
08A
150
691
0AD
11C
114
098
695
077
6DD
7A9
71F
080
6CC
181
006
155
087
08E
066
087
729
16C
0CA
0A2
717
0DF
71B
7CB
0CD
7B6
768
70B
719
095
73B
73D
774
748
0E5
0A7
173
0A9
0A6
0A0
14D
79A
0DD
178
0FA
0DD
16C
7B1
73A
6B9
152
6F6
175
155
71C
033
0D4
0C3
7B7
6A2
6DA
7DE
6DF
76D
05D
72A
008
158
754
75C
019
15E
7E6
117
6B1
6DB
76B
68A
6B7
004
75B
67D
012
165
11A
073
696
0FF
054
69C
02E
031
0A6
734
7F9
04D
019
0D3
089
0A2
69F
043
71D
0D1
080
014
7DF
060
717
176
6CB
000
7F5
7CA
0ED
70A
160
002
0A1
164
0CC
6E2
075
71C
786
09E
7F1
132
07A
062
677
09E
0AF
12C
710
75B
7DF
0A7
017
758
733
72B
143
6B9
09F
72C
044
6A2
045
173
7A1
7CD
677
0B9
008
6A1
707
13B
140
0EC
16C
007
772
075
120
6C1
6CC
0CB
133
177
68C
7C2
05C
691
024
7E8
73A
144
117
715
0FF
0C0
7A7
7FD
02A
017
10D
7E7
710
7E0
038
074
0A8
6FB
163
703
73F
7E1
740
72C
6B4
702
721
11E
6E8
03E
117
083
02C
0E6
724
794
7EB
114
763
0B5
0F4
075
07C
75E
009
153
7A1
738
03F
08C
068
75A
7B8
764
0AD
0EE
04C
7AD
727
7D3
78D
6A6
6DF
12F
0A6
73F
18F
7D9
0D4
08F
741
683
77C
017
788
7F0
160
7F3
178
741
0F9
713
101
69E
0B2
761
162
794
6C6
782
168
0AA
708
728
095
02F
65C
7D8
70E
034
7F1
712
7B6
779
036
78E
6C9
0AF
72C
164
6F5
011
793
10D
7A6
7FD
78B
6D1
04A
79A
035
6EF
6D5
0BF
782
711
73A
7D1
03F
148
6F6
089
6F6
121
7C1
68E
7B4
179
076
150
7BF
083
68D
6DB
00A
71E
0A4
0F7
0B7
759
011
158
780
151
7AD
6D0
777
76D
0EC
746
71B
7A3
765
003
7FA
790
009
0B7
0D2
7CA
7EC
6D3
6FA
77A
15A
155
13F
7B6
058
018
04D
6A4
0E5
03D
738
0BA
7B1
0D6
0AD
696
08F
044
703
062
7E8
687
73A
14D
73B
75E
6F5
78E
6DF
724
7A8
794
0C5
7B0
01B
154
71C
734
740
17F
767
6B8
738
754
11A
10D
7A4
7F1
00E
11B
032
099
0C7
713
74D
0FD
6AE
0E3
6F1
03B
039
091
08B
04B
703
0BB
789
710
119
790
794
776
130
114
705
04E
7CD
6EF
00B
765
78B
728
15D
6ED
0D0
6FB
7C1
7EC
06E
751
711
69C
7C1
0A2
02E
6A9
0FA
729
7ED
74E
045
70D
7C6
763
088
085
0C9
7F7
0AE
6AF
026
01A
14F
190
151
766
7BD
16C
710
16F
72F
696
0C3
78A
76F
6E6
69E
742
792
033
7BF
06E
76C
012
6B4
6BB
096
6DB
6AE
6C0
6C2
769
70B
6DF
01F
03A
07E
7AB
042
037
0A6
6A2
006
16F
742
09D
11C
039
0E5
0FC
677
7BE
768
0C5
122
12F
79A
03E
160
727
0B2
7BA
182
7F5
766
7C0
1CE
797
78C
7F0
734
103
04C
14E
0BB
161
78F
701
0E0
149
6DC
6C1
7D3
082
1DD
07D
7D1
0A7
149
7C8
046
7D3
6EB
032
76A
0D5
719
7B6
155
0BC
748
7FE
71A
76F
7D7
7CA
0E4
7C4
6B2
0AC
17E
6AF
6A5
744
13C
156
0E2
164
047
6A7
00C
1BB
138
083
09D
0F6
72A
6B4
130
765
7A4
0D2
7C0
7BB
067
7C8
15E
6AB
09F
0EB
747
7A5
01A
752
1AC
16D
0B2
704
03F
181
1AF
18B
676
003
049
070
092
736
6B1
7C3
0FD
145
0AD
6E1
7A1
08A
747
746
749
060
082
158
7B8
0C6
728
751
7CF
6F4
0CA
0BB
718
70D
11D
04D
15B
064
753
712
0C1
027
0B6
712
01B
7A6
7C0
039
00D
7F5
6B3
70A
6BA
694
05F
1A0
022
7B7
759
056
0F9
7A3
101
09B
75F
7B9
100
05F
703
7DE
762
764
7D1
00D
785
796
7E2
166
097
7DB
6A6
706
6F0
077
0A5
0D9
0FA
137
76F
0BE
145
0DE
041
004
0E0
7EB
6B0
6FE
060
759
775
05E
7C0
014
131
6AF
05D
06A
112
102
788
0AC
69E
08D
75A
046
712
049
032
063
046
6DA
032
006
72E
790
717
036
749
0EE
063
105
68C
078
6C6
12E
118
003
70C
114
002
6BB
100
7A4
11D
0D0
07D
721
0E8
16B
789
033
0E3
0EE
11F
79E
6D8
6BD
7F0
747
7AE
030
747
7B4
01B
14F
084
0FF
7B6
78E
695
07E
0E1
71F
6E2
091
173
04C
020
049
14F
6E4
13C
16D
7FA
779
15F
102
7EE
0BD
73C
0AA
765
16C
152
775
6A7
080
031
073
09D
0B1
0BD
7FC
028
063
7B5
6C2
10A
041
6A4
11E
74F
094
7B5
074
6FB
7C2
0B0
09F
757
11C
090
04B
028
163
048
75F
6CA
173
05D
736
6A3
11E
0A0
718
718
7C7
728
74D
762
010
75F
6F7
182
6E6
0D2
77A
168
130
14D
042
02D
13A
131
040
77B
67C
74E
7BE
7F1
74D
114
682
16C
79F
083
17B
7DF
030
76A
07C
708
12C
75F
75E
0EC
0D7
7C1
7AC
11F
0CF
6DC
679
799
701
0C0
12B
0F8
028
73E
030
032
02B
781
6A8
139
77C
781
061
746
16A
0BA
72D
066
6E0
0C6
05A
724
0BF
6FD
689
068
0A0
7F3
6F6
13A
037
7F6
76B
7F8
6C3
00A
09D
77E
16E
797
6EF
0D5
726
6D4
128
03F
087
7DA
012
084
02B
781
7CF
744
0D9
10D
7E8
03C
0EB
675
15F
7E1
089
117
72E
0D4
6A4
7A3
7FD
094
003
7A2
6AE
7F1
087
6A8
7ED
007
797
019
6B7
02C
031
12C
7F0
6AF
0D9
00E
1C5
023
123
68F
67D
6A5
05A
735
6AA
71C
7BF
136
18E
78F
072
0EA
6ED
6D6
769
769
113
69E
01E
13C
17C
156
7F5
6DB
75E
0B8
0E6
704
7FB
6F6
6D9
7BC
054
7B7
733
77A
7D8
6AF
11E
09F
122
763
765
03C
707
168
6FA
75C
024
73C
6C4
78C
04F
09A
127
6B9
6B0
008
76C
0EF
718
6C9
738
6EC
0F5
0B1
6F6
05B
7E2
71C
738
6B0
0ED
01A
6CD
0B8
6D0
7CD
095
02C
063
6C6
7BE
091
694
7D1
0C6
6A2
108
0F7
003
746
750
7ED
05A
79C
133
12D
055
6BF
73F
74C
795
0B3
717
78D
0E1
0A7
04B
136
06C
015
710
6A6
07A
11C
087
787
0B0
08A
168
6E7
6CE
7D7
758
010
7DA
0D6
048
07F
115
7F1
6A7
14B
17C
6C5
6FF
6E1
141
042
164
79F
10D
65D
7C3
0DE
7EB
114
700
6E3
112
797
68C
163
104
68A
193
787
0D4
15F
13B
0F8
701
7DD
0A6
017
787
6EA
0F8
7E8
05F
114
710
758
73C
6EC
7A5
0E1
142
078
7CF
663
120
04E
03A
154
7BD
69C
0F2
778
752
121
755
0EC
174
78E
7A0
043
08B
75F
0D2
7C1
775
120
0F0
10A
767
0E4
16D
087
022
7A3
6BF
119
065
683
7C2
730
08B
003
6C0
6F3
68E
6F1
132
6DE
771
6DE
7BC
72B
09F
001
705
733
781
0CF
160
778
032
164
0C5
7B9
09F
104
033
028
6A7
138
001
02F
142
124
153
055
761
73C
6F3
6B8
0D2
0BE
0E7
0B3
7B1
0F3
01C
7F8
7C5
77C
7AC
094
780
06D
0C8
77E
6F4
15C
154
79F
78B
6C6
0C3
7B4
6E8
153
6B1
705
0DC
105
6AE
6E7
0C6
73A
69E
09D
6F0
012
135
7ED
782
6A5
7E5
72E
141
081
0BA
7EB
021
7A2
055
0C1
729
692
7DE
18E
7E0
027
002
7B7
03A
7D7
140
108
6F0
08C
0B1
69D
6C0
75A
7BA
0D9
0C0
75F
126
7B6
16D
6D9
6FC
709
115
7DC
7E2
083
6AD
7F8
6CB
79D
7C6
77C
060
7EA
14D
727
699
686
68C
0B5
706
139
6EC
0E6
00B
760
11F
773
6DD
041
067
0AE
6CA
0D8
057
0EB
024
18A
682
0C5
07A
14F
153
09F
12F
687
68C
7C1
738
161
799
744
009
01B
7F7
16A
761
0EA
078
773
7C4
0BA
673
006
702
14B
7AF
7A0
154
722
170
155
755
7A3
035
6FC
041
169
673
129
12A
7A7
09C
127
66D
128
74C
14F
65D
141
743
13E
0C7
14E
01C
667
695
776
68C
153
1A0
156
730
162
705
6B5
0DD
177
137
148
096
178
6F8
071
10E
73C
0EA
704
064
021
14F
0FA
780
798
703
170
0AC
7F9
18B
7A5
189
025
026
082
790
7AD
6D2
078
6F3
6CF
0A0
05D
6A1
0BC
7E0
0FB
138
6A3
12C
6CE
7AF
77B
051
7AB
6E7
6B8
6C9
6E3
0E9
0DE
0C9
6BC
038
100
10F
6BF
0CE
719
799
02D
7DE
6B0
70B
055
68E
154
789
7CF
0DC
04C
763
6C7
17B
0DF
048
6C1
6F6
0DF
77C
6B4
76A
00C
0F2
0F8
057
77F
037
000
7B5
02C
126
6EA
046
149
01A
0AC
0F9
175
0FB
038
6F2
099
775
756
07B
6CB
0A1
6E9
019
767
0BB
0F8
0A2
025
750
6FC
02A
79E
06F
0BA
04C
6D8
0B1
01A
6F1
7CA
6B6
069
05B
70F
171
731
6CE
050
75B
09B
00D
6E0
015
0B0
106
01F
697
7F4
77B
6B4
0E9
08D
6D2
6EA
6D9
0BA
166
0F7
15D
10B
14E
152
135
6D6
7BE
7BA
068
708
123
126
00C
7EC
7A2
09F
0A2
146
6AA
794
12A
0D7
141
769
0CD
07A
0E5
13A
73A
126
018
76B
12D
077
7BB
114
01C
0C6
121
7C8
0B0
755
01E
099
042
102
04A
02B
0DA
189
7E1
73E
6CD
0EF
081
0E0
6C2
7AD
16F
6AF
0A6
78E
74D
71F
12D
145
167
02C
7BF
767
039
75B
0A3
72A
039
0A8
6FD
141
76E
046
77E
7EB
03B
7A8
6FE
0B3
09F
712
090
66C
130
162
78E
693
71C
130
703
0F7
7C2
11D
0A8
6DF
6E4
75F
103
08D
72A
7A1
70E
05F
7C4
0F4
13E
74D
119
018
788
04E
0C8
103
73A
7A7
131
030
6F0
07C
6A1
70E
0FE
119
0FB
726
789
058
034
11B
0F0
137
0E3
79E
72A
049
04F
072
719
760
755
138
6C3
76D
783
04E
026
790
143
752
6F6
68D
6F6
7CF
7BF
728
122
0B0
6D3
113
7B5
134
794
6B4
114
0E4
7DC
017
0BD
166
103
72D
0C9
14E
0AF
07B
011
79E
690
7EF
7A0
6BB
7B5
6DE
7CF
6E0
06C
0F7
6CA
70E
76B
72E
0B7
6F1
76E
710
6D5
695
0A4
047
11B
7F4
0AB
0DA
775
7F3
0B3
721
132
097
7FD
0DF
690
0CB
763
027
6D2
041
0E3
153
710
6F9
6FB
14F
6F9
7A6
0C7
7A8
6CD
022
797
0AF
753
122
15B
092
104
0F8
0BB
740
0F4
0DD
12A
731
775
789
726
6A5
72E
0C9
16C
082
696
74F
74A
164
142
6A7
116
7B1
1A3
7F7
749
788
787
7D7
167
053
018
6A2
771
7CC
0AC
6B1
150
6CB
6E8
7C5
0C0
023
0D8
165
157
795
6C6
7BA
7C2
13D
7CC
008
0E5
7A6
6A7
780
0AE
05D
095
716
66E
7D4
73B
6ED
704
70A
003
046
764
72B
6F8
0DB
03F
7DD
7C9
06E
710
7E3
088
03D
6BB
7A6
755
152
0C2
7A5
6D6
015
105
6A3
6C7
7A6
073
6B8
08C
0F0
0D3
75E
0A9
783
6F6
775
6D1
717
113
141
73F
78C
07B
742
018
7DC
05A
0F4
06C
782
012
174
665
124
133
731
78E
085
723
146
689
03F
142
014
6DB
734
7D7
765
079
00A
01F
6AC
0F6
6E1
73E
77A
709
066
167
768
753
69F
0E1
04A
6F4
739
6ED
74B
0D9
6A9
065
6C6
154
0EA
0F7
0AF
6AA
78D
0C1
6CE
7A2
03E
17E
071
0CD
6BC
746
134
131
026
729
02F
70F
122
7A5
09E
0A1
118
6E1
705
047
144
177
06C
788
6E8
692
05E
7D1
7E4
7E0
6E5
0C8
6B5
027
0BB
794
721
7CF
02B
066
694
76D
6BA
6B1
169
157
03E
7AD
7CB
7FA
6E8
7B1
041
095
071
088
681
0DC
13D
793
7DE
738
7C7
7F1
10C
6BE
0FC
043
750
6B9
0D6
068
0A1
136
77C
714
0E9
697
16C
743
0F4
782
00D
6B1
7AE
043
017
00D
0B2
74C
0A9
69C
066
07A
128
791
71D
6C9
766
086
6A9
049
6F7
092
037
6B8
0DD
75A
15E
197
0CC
732
710
700
798
79C
094
0EE
082
051
13E
0E3
7A6
167
12D
714
032
716
6DC
153
062
7AC
6C9
109
072
162
751
75E
786
14E
044
0E2
7DE
042
073
6A1
0F4
06D
13C
13A
072
7B6
019
78D
6C6
022
70A
753
05F
76A
04F
08A
6B0
133
77C
14D
7E4
6BD
7A0
6BA
073
099
039
033
08E
057
69E
161
014
138
7EB
73F
7BE
0DD
01F
7D2
6DB
107
0A7
749
0F2
6FC
11D
063
1A0
143
790
0BC
0BA
6FF
118
6F8
094
70B
740
086
09A
6DB
6A5
794
0E3
689
132
120
78F
7BD
04F
71F
09D
773
6A0
745
136
058
744
0CD
11F
745
6F0
762
753
060
747
773
0A0
730
15B
076
794
083
074
7F4
6E6
10C
08F
09D
7ED
0CA
759
784
7DC
795
16F
771
6FD
723
0FD
79E
12C
16A
743
099
050
6BD
7A6
7E6
126
045
016
7E5
087
7C8
7F2
15C
772
7F7
778
170
6CE
737
7F5
09E
013
073
077
68E
105
693
7C8
177
0C3
6C5
0C5
7A4
038
7BB
045
6A8
6FB
0F5
7E3
12C
7DD
7AF
6D8
086
76F
7F2
16D
11B
6AF
00C
680
79A
76A
6F5
0AA
7F5
6B3
76B
7DE
0CD
079
7AC
005
0AA
6AD
754
0C1
7E9
740
019
70F
00D
043
7B4
160
77F
70D
74B
013
712
6DF
7D4
6AD
7C8
7A2
12B
0A2
104
184
0B0
085
6BB
0EF
763
0BA
79D
792
7DF
07A
78B
14A
059
00E
714
7CC
7FA
0F8
00F
0BC
15E
104
75F
6D8
693
11F
7C1
78C
091
055
6E0
158
0B7
6A1
046
12B
778
111
140
724
119
6D5
7CB
054
0B4
044
0C6
687
772
093
0C4
0E8
15F
798
6A0
085
6B6
7E1
7E7
176
124
11B
7E6
093
0A7
012
114
077
7F3
16C
05E
01F
70A
11F
0A1
7F8
164
14A
764
702
0D0
7CC
773
715
02D
0A9
710
113
082
01D
712
008
12D
01E
787
7FA
734
12E
0E6
113
70E
722
0AE
68D
734
77A
79F
775
025
6CD
093
692
696
029
0FF
0DE
6FB
787
0AC
705
161
06A
70F
031
058
6AC
117
051
14D
00D
798
0BD
68B
726
6DA
14D
6BA
124
0A8
6DA
6EC
0D4
0F0
7DD
0CC
7E2
0FE
108
0CC
00F
726
139
7C8
6C6
711
6AC
70C
096
71E
704
7F6
06F
74D
79B
0B7
049
0C0
7A1
6C2
754
7E4
6A6
76E
04A
72C
779
13F
6D1
786
7EA
004
0CC
15D
058
7A4
145
11E
74C
01E
0FB
0E7
6FA
013
7C5
72B
695
779
7A9
6DE
14B
045
725
0E9
773
01F
13A
025
0D2
01C
7FA
0D6
097
098
742
75E
6F9
10C
0A6
6E0
7ED
744
6EA
0E1
080
15A
13E
6EC
143
6A0
75D
6A8
6A4
7D5
0BC
0A6
7F4
7C2
721
71E
173
695
02D
7A3
6EB
69E
0CE
130
706
11A
052
0BF
063
09A
0B4
786
034
01C
7A4
6B2
012
711
7F2
095
6EE
178
0BF
14D
172
073
105
166
71D
0C4
690
734
753
153
7F9
7FE
760
0C7
77A
0C2
104
14D
059
068
007
732
732
174
0C8
10F
6C2
145
00C
01C
7DE
763
70C
0DD
712
6F2
71D
09B
756
124
77C
038
166
69C
76E
7DA
6AA
0BB
11C
781
734
6A9
7D9
79A
076
706
163
6ED
117
6AD
004
7FD
758
6D7
7AA
0ED
723
17B
699
165
01F
11C
765
025
10C
793
053
0BA
795
0CE
12E
6AF
167
695
7A0
7F2
770
100
7DF
163
779
68C
6B8
7E6
0A1
118
763
7FD
695
7BF
69B
6EB
6C5
705
029
078
797
085
071
024
6DD
6F1
01D
79B
09C
0E0
02B
03B
0E7
792
79F
74A
162
0D7
6D3
135
684
7A0
06D
05A
12F
7DC
0F6
767
041
7CA
764
107
09B
02D
04E
773
030
024
12F
077
15A
7DC
6AA
702
01A
065
0F3
79C
09D
146
794
762
794
0E4
116
795
6B4
0F4
112
6BD
7A3
7D0
6C1
6AD
155
6EB
773
0BB
134
7AD
69E
0C4
7A1
08D
14E
745
7D2
7DE
072
0A9
783
09E
786
741
74B
758
6B7
6DC
7A5
153
67B
176
0D0
6F8
07F
090
6DD
0DF
09F
679
119
0D4
025
78B
068
0FE
17D
0D6
123
7FB
696
00D
02D
137
169
007
743
710
783
6C4
0E2
6B9
74F
7AC
782
0E2
7AA
776
039
670
0F8
07E
681
7FD
7FE
6B0
105
72B
6C6
6D3
09E
02D
7F9
00C
0AC
0F6
050
100
115
72B
135
117
0A4
1A3
07E
6E8
0D5
078
7B2
136
10B
6CC
09C
6E4
0B2
762
7C3
07E
743
05F
04E
6CB
6A0
7BB
6A3
082
186
6AB
11C
061
716
049
18A
7A1
782
6D7
05C
6FC
02B
0DF
6D6
13C
066
149
02A
144
124
031
6C1
140
0AF
702
0BC
037
09A
744
12B
0DC
6CA
0D8
73F
11C
0AF
0A1
6A4
05A
7FD
6E5
179
0DB
013
05E
11D
7A2
038
09C
09F
0C4
78E
7F6
6E9
6F5
075
74B
79F
6C5
793
150
7DE
12A
10F
0BE
10E
7C2
763
6B9
7B3
70C
7F3
0D9
00D
7DD
00F
7B5
0CA
145
694
146
68D
7D5
038
010
700
757
028
11C
00B
7DD
7AC
7E5
0E2
015
7B8
744
147
6B2
7C4
14E
177
7BD
726
06E
79F
691
7BB
140
164
79E
77E
7CA
7D6
14B
085
776
7FF
06E
76A
7AA
14A
7A8
0F3
751
79F
7C0
7BC
784
142
6E4
6D0
047
11C
104
6A2
73E
165
128
028
0C0
6B4
7C5
781
7BD
7BD
701
117
0BB
7A0
012
0D4
7D5
002
6B6
706
6D0
017
14B
0FA
6EC
11B
6AC
0D7
710
037
0DF
055
7B2
047
69B
7EF
6FD
119
080
7BE
010
10B
6F8
10F
77E
6A9
72D
173
74C
04C
07C
141
7C8
16A
0E4
7C0
761
182
6D6
7E2
75C
0D3
068
739
0F7
6F9
6AE
04D
79C
03A
69C
6C4
0F9
067
6A7
6BC
6D8
7E3
049
0D5
127
0FA
7E3
018
72C
034
016
792
7D2
018
71C
032
79A
040
74C
781
0AE
04C
6F5
083
102
14D
778
7EC
709
0F1
0CC
03B
09F
04E
089
07B
09A
683
66E
7F8
052
156
074
697
7E4
152
6F5
073
7E4
7E7
085
6A6
10C
6A7
15E
798
6B5
162
761
729
174
029
123
05D
05D
7C0
06E
6DE
12C
74F
688
76D
0D1
002
034
69F
6A4
12F
0F0
03F
009
0A2
078
751
737
114
06B
152
12D
085
7D1
752
01F
0BF
048
0CE
149
739
139
123
7A5
031
79B
092
151
6BC
012
13A
688
090
6C4
770
02E
175
70E
102
14F
703
17A
706
6A6
7D9
108
6A5
150
6B9
6B2
00A
75C
012
0DE
108
799
705
7C2
7E3
160
7E1
143
6E6
6DF
6C2
175
6CC
087
698
0CE
6EA
7C3
163
03E
00B
105
0D3
0EF
0A4
7B0
7C5
720
145
0D4
79A
6E5
70D
764
079
0F1
751
088
7F8
117
7B8
0C6
6D9
0B5
6EC
7A8
146
080
06B
6DD
6C3
027
7B8
6B6
7FC
7F7
0C3
024
07C
7CD
782
12F
146
105
73E
7D0
0AB
16B
163
73C
007
741
7C1
723
78F
0B0
037
03B
08F
79F
174
7BB
690
15C
794
004
083
722
7EA
754
6A4
120
0E1
751
036
7CE
791
7D1
15C
6AA
085
100
031
7C5
127
150
0EC
6E3
752
6DC
026
73B
7E4
7F7
773
6A6
7EB
699
021
6D9
6EC
07F
756
01E
684
6A1
7A0
69C
7BF
775
7DD
121
7C8
729
0B2
75B
702
75C
084
6A5
721
12C
111
786
085
0B6
0B5
7A4
6AF
6C7
6AF
0DF
7F9
083
139
021
045
6EA
701
683
167
783
12F
7D9
0A8
13B
7E1
7CE
004
138
0F7
79A
789
673
01B
69E
0E9
013
6BA
6AF
0D3
637
6F2
7EE
6CD
012
7A3
03C
0CD
6D2
6A9
6E5
14C
7DD
021
