BA32E7FB
3C0D9D38
3A84FEF5
B985DD5C
39DA4122
BBB0A83B
BB319454
3BB4A7BB
3A53F8A6
3BF9FC18
B98884F0
34D41CA6
381DAC95
BC797688
BBDDE3BA
BB6E0099
3AC75EE6
3B93428F
3C03AFCE
3C2DF72B
3BE10ECA
B7D14CC5
3B52B389
BAE7EBCE
BBD3BF1E
39B4EA78
BB0BCA76
3C0A0D03
BB189A3D
3BFC0915
3C536DBD
BA45B475
BBC50A8C
3B0E77FF
BA0B03D4
BBCB19ED
3B4B4B5F
BA64F8C1
B926095E
BB1A5054
BBA82F24
3C559C93
3C1BF439
BABA7506
BB2A6358
BBAC14C7
3A51A92C
3BD2E1B3
3B8532FB
BAACFF55
BBA2FADC
BBCD9CEC
3B13CBBB
3A8B8BE2
3AE9622F
3A127D46
BADF9F03
3B6A3C87
BC73B572
3C1D3AED
38338D7F
BB5C7767
BB8E6F9C
3A463C28
BB864D58
3C61B993
BAACAED3
BBC3F1A0
3BD45AB6
3B5F0B4E
3C09EBD0
BA9341DF
B8CF50E8
BC6C705B
BBA91BDA
BB455CAC
3A426E8F
BB411021
3C81B58C
3BF41D08
BBF1FB0D
3C005065
37A95D6C
BB61F222
3AB60564
3B985341
3AB052FF
3BCFF03B
BA1A8C8D
385752E8
B9B06A58
BBFFADE8
BAA5CBFD
3C1A530D
3CA84DBD
3C0346B0
3C9BE7FE
3C08CAA6
3692BA87
3C0911C3
BBABEB86
3B3571A4
3B6EFA37
3A643C88
BB301D3B
BB139333
3C1B72EA
BBAABAC2
3B8B5545
3C1BB7F8
3A767856
BB975F71
BC3F41C1
3BAB1337
BB7DD7BF
BC491C94
3AFAB7D0
BB3A1E50
3B19933E
BBB2954A

