6A4
17F
693
6F1
1CE
24B
6F2
773
19E
60B
10F
046
60F
614
09A
246
78E
217
5E8
21A
0D7
789
7B6
259
268
1EE
216
200
745
21A
1A3
5A9
005
770
25B
645
067
097
0E2
660
0A1
665
141
734
1C6
178
57F
2BA
5F8
75A
7C1
552
6E8
133
29B
6FF
658
79C
7C9
610
6EB
039
087
0A9
7FB
262
1D3
755
2B0
159
5CC
713
14E
231
0CE
0CA
697
7B0
096
1A8
618
66D
6BD
725
5A9
5D4
115
060
279
0F6
5F0
627
633
695
7AC
1C9
7F8
559
7C8
64D
1DF
689
11A
03B
17D
5E7
573
7A6
02A
70E
6A3
68F
108
6B1
11B
584
710
7E0
16E
11A
5B8
002
5B2
068
10E
668
7A0
5D5
7F0
03A
49F
7D7
24A
000
1AD
6F8
7E5
178
001
64C
293
130
0CD
60F
0EA
15D
791
57E
75C
5BC
554
7B6
662
597
289
30B
156
62E
2D1
65F
11E
627
1E2
1B9
0D0
60B
70F
6D7
149
16D
7D4
56F
764
029
5D3
048
55D
0F6
5C7
796
7FE
5BC
52B
238
091
6B1
152
0F1
23E
7F9
5AE
17B
16A
764
5A2
56F
57B
6A4
21A
080
024
16B
1A3
6FB
7F9
234
607
769
213
6DB
66A
14F
611
766
601
275
7EF
013
00D
6F1
793
571
13E
58F
199
7D9
69A
53D
748
239
135
26F
0DC
293
1CF
62A
263
750
7AC
724
131
537
6A4
500
5B8
0C0
0C5
730
509
667
7F2
760
6F3
226
157
65C
6D5
7F5
702
200
174
751
23E
0B6
0E4
796
543
7CD
5EF
60A
233
5C0
722
0CC
242
113
721
756
0F3
6F7
059
62A
772
763
14C
0B7
5BA
634
20B
5FE
30B
7F8
7DA
7F8
739
609
1EC
147
694
7C4
6EC
25E
220
777
631
16C
702
592
0D3
06A
64D
7F0
06A
246
207
2BB
6A6
7D0
100
76B
572
7CD
687
72B
023
1ED
5BB
7D0
735
172
0E8
29D
127
5F0
1ED
598
6EA
6EC
792
71A
6F4
19F
756
5C8
237
09B
5CC
04B
652
012
021
119
4EA
7A3
727
77E
7DC
752
631
797
27A
16A
5C6
5EF
1C4
675
54D
257
6E2
254
5DD
53A
5C0
6F5
113
702
6AA
2E0
753
5CC
6E8
1D8
218
563
206
778
55A
0E0
567
7F2
685
147
147
60D
5B4
18F
0B8
5FF
5E3
763
08F
1B6
02B
151
76A
00A
035
053
0FD
776
07B
036
5B5
7C0
06C
762
0CC
04D
080
678
74F
122
232
100
74C
25D
072
74C
680
6A2
5A9
796
04A
1C9
70A
76B
24E
7D4
044
1EA
6D3
11A
25D
664
71A
671
016
57F
0F4
241
181
61C
086
5A5
0C7
143
2C2
79C
0E1
23E
717
729
63A
79D
7ED
559
57C
197
17B
0F5
1E2
05D
73F
6B8
052
00A
62B
1AC
68F
103
2FB
5BB
770
5F7
118
286
5AE
782
03B
0BC
645
764
2E6
196
6C8
134
0BE
09C
03A
264
7FD
03C
138
717
5CE
796
174
787
0B9
0EE
652
048
6B7
245
204
156
796
654
17D
160
6B1
1A8
07F
694
55E
5FA
1EC
6EF
6E3
7BA
136
578
753
28D
08F
7A0
071
7AC
20F
08C
55C
682
01E
2CD
794
244
64A
7B3
63F
25C
71C
6B1
0B2
5B1
6B2
1EE
13C
55B
738
125
777
12A
1AC
026
5BF
77F
068
1E8
7E5
1D2
6F1
260
182
6E7
220
7B2
560
646
65D
78E
665
1CA
62B
0FD
28A
677
166
61F
1A3
17D
18B
265
071
5F0
169
550
2B6
26A
1AE
07B
001
080
147
640
2E1
5BD
77A
5DC
6CD
776
748
6B6
7CD
557
017
227
1EF
644
5B7
2AB
744
50F
6B3
74B
210
166
040
1E0
0FA
1D5
5D1
311
008
616
06C
1F8
05A
7EA
70F
0FC
2C4
151
6CC
04F
0EC
74E
597
6CA
53E
6EF
582
678
03C
58C
74E
172
013
68D
037
012
525
023
190
5CF
64C
27B
006
054
021
615
20D
052
29D
144
019
6F7
1FC
654
08C
2CF
14A
1D9
5B5
153
046
7E9
08E
217
26D
721
2A6
69C
607
60F
21C
159
0E6
291
5A0
5AA
0F5
152
707
0DC
0CC
167
00A
057
0CA
5A0
03E
6F9
6F9
1CB
5B3
765
7C0
687
01B
262
116
6D6
05B
743
1FA
762
132
033
1B0
1DB
251
072
05C
263
078
5F5
7CC
7D9
1B6
1CD
62C
5F5
1B6
60D
54F
150
6BE
660
633
0F0
041
77C
5F7
150
691
770
0BC
752
153
5E4
0C6
1BA
0D4
0B0
6FF
54F
268
71E
582
5D7
516
0EF
5D6
6CC
579
120
583
244
294
27F
064
6F1
7FD
1E9
538
77E
332
7DC
22C
211
556
035
786
16B
63E
515
054
285
7E3
658
1C5
6CE
657
152
6B2
783
089
65F
77D
565
280
7FE
0F6
0EE
731
5C5
6D1
275
5D8
596
200
01A
7E2
2B2
5B5
736
67E
630
0E7
767
249
7BF
7C0
7F7
5BA
5B4
0E0
594
69D
172
5D0
6DE
007
64F
64F
554
1D0
24A
059
118
559
643
0E8
09A
6B3
077
7FE
090
0BC
78B
7B4
79D
6D9
5DD
0C8
097
018
561
56D
237
7B2
16B
7BD
17F
6B5
6BC
079
22C
0EF
247
172
57C
77B
0B1
64B
76F
090
04D
76A
004
5A2
591
2B5
64F
785
565
595
7E2
21A
6AB
062
560
11A
731
7DD
079
741
5C9
7EC
7A9
601
09B
76D
1D1
59E
7CC
009
6A3
7C8
1CC
73B
288
7FE
15E
7FF
20C
0F7
727
683
54A
622
64D
271
2B5
04D
611
14B
6EB
07E
204
748
711
280
072
75F
596
025
64B
157
6D1
709
6AF
798
6A3
27D
049
02E
0B1
723
01C
707
2BD
0CB
7BD
1AA
6C6
1CC
227
681
275
7CD
2A8
61A
6A1
179
591
6DD
0F8
068
5B9
72C
793
010
5EE
1CC
541
6FC
114
75C
1EF
67D
020
6C3
69A
603
5A8
68F
22D
0C7
24C
230
293
668
236
04C
57F
678
62A
71A
7E3
062
22D
222
074
647
695
54D
016
77B
1D6
617
60D
097
163
14A
1D1
06C
6D3
69D
799
59A
7B5
047
2A0
14C
561
776
54B
68A
745
687
57B
5CE
5D3
067
7D8
2B2
19E
168
594
5D1
5CD
08E
123
69A
250
7EE
5A3
0E6
17D
6C1
75A
27E
24E
6C8
675
164
196
2A4
786
002
032
749
257
55F
198
5AE
5C3
105
578
77E
0F3
216
56C
24C
1A8
075
073
54B
28E
291
6AA
690
5A9
0C1
67D
0E8
258
7C0
66A
257
724
683
0BA
673
5F5
700
015
2A1
798
1C3
762
63A
0D2
7E3
2B8
676
263
7A6
60B
639
7A1
11E
7B4
0DB
56F
19E
04C
69C
10E
265
16F
63B
2BE
771
7EA
338
667
7D1
122
55A
73B
24B
7E6
0AC
0E7
03D
717
016
02A
1C7
09F
670
0DF
5F3
5B1
7ED
124
055
64F
60B
7D2
285
5BD
0BF
508
10F
13D
21A
033
649
0E6
240
14F
070
710
635
296
679
5B2
60D
182
0F8
15E
146
61F
271
797
7D0
6F3
249
775
00A
088
781
025
0F1
67D
043
524
693
783
13B
0D8
098
701
761
710
554
6AF
170
6A7
76F
5A0
0F4
7C8
012
294
744
7EA
511
601
24B
081
145
0F0
79E
58E
660
574
678
20E
107
6A5
6FB
5FF
12D
0D8
0F7
0AA
288
10C
549
564
242
7F6
28B
5B3
109
62F
01F
540
1F3
124
1C2
714
276
045
79E
237
152
044
120
27D
019
5F1
679
760
71A
70B
55E
161
6A7
2EE
14B
5EA
7D5
750
654
0CF
699
72C
5A3
05C
578
59B
0EB
77D
6C1
1F1
58A
1B4
2A4
6BF
753
568
015
2EE
5D8
648
70F
2F3
031
6B3
012
0E1
7B0
106
26D
714
733
0A3
694
5B6
6DD
6CB
571
5AC
517
5BF
716
587
619
77E
11F
08F
021
5B4
0FF
731
73C
100
5C6
7B9
083
15E
185
7EA
794
63E
734
59F
343
761
178
2AC
270
619
627
174
740
265
104
157
5A1
1E3
6DB
0BF
1DA
038
6DF
76B
1E7
582
031
739
1FD
085
5B8
26A
655
548
60B
75B
735
672
203
72F
7E9
242
64A
63A
53D
5E6
690
183
597
770
62B
109
586
6F2
07C
695
63C
00C
556
5D3
72A
723
7B6
7DD
62C
1A7
74B
23A
64E
621
131
1F6
619
5BC
638
219
556
6DC
575
220
5ED
576
676
765
106
6C1
5B5
7FE
7DF
5BF
606
793
2A6
296
140
7B2
68C
5B3
14D
741
127
304
034
007
70B
30A
6F1
77C
012
5A9
1C2
27A
083
1C8
61E
689
2F9
05A
25D
7E2
041
134
63A
6CF
207
583
2BA
688
21E
602
17F
5EC
735
1F8
587
787
16D
05A
277
694
68A
5BC
22D
0E1
1E5
1BA
77F
56A
769
062
067
653
1DD
1A2
7C7
1CD
6B6
03E
5F6
10C
5DC
78C
164
60F
660
1F9
6AB
162
597
106
7C1
795
162
685
08E
550
627
296
0BC
1A7
203
58A
7B4
758
560
7FD
12F
6AE
14D
0E5
50E
797
566
5F7
199
266
11F
747
6E3
226
280
5EF
0D5
573
133
0E8
1E8
2DA
7D6
755
664
71D
5D8
4F8
19C
6B2
00B
0E5
255
5A3
26C
1D8
0E4
10A
770
643
5C3
60E
5C8
7E2
5CB
4D3
0BB
23D
194
218
778
7DD
72A
641
7B9
08F
70E
615
230
194
5C5
1DE
102
680
12D
121
67C
0AC
239
5BA
15D
29C
178
133
2CA
1D9
186
141
5BB
0F6
710
2B0
5B8
0C1
199
67D
754
105
2BB
074
7D0
66D
792
17B
716
034
670
102
075
5DF
6BF
21F
20E
110
586
777
756
740
5DB
153
6FB
7C9
0EF
4F7
042
1C7
709
7A0
6D7
181
1B7
581
00E
594
187
7BE
13B
165
168
72A
78E
5C6
705
03E
218
12B
0CE
1E4
1F0
11F
0ED
55B
1DD
2EF
6BF
624
71E
0D9
5B0
64A
7E7
07E
0AB
5DC
62D
294
227
121
007
076
1B6
6CD
10F
502
72C
7AD
5F2
2E7
601
63E
5B8
61C
6E0
03B
575
612
169
23A
768
69B
689
700
142
0C7
031
018
29F
634
1EC
216
769
306
2B6
620
08E
6B4
6D1
5EF
01A
6D4
0CC
080
792
156
0D7
5C8
077
014
724
0FE
756
097
0DE
6EC
0BD
1CC
197
08F
7FB
2B6
75F
6D6
04E
029
0D5
0A5
693
57E
013
0C9
7A9
4D3
7BA
172
6A8
688
734
5AA
632
625
202
6BC
28C
2B9
076
122
109
066
209
2BE
7DB
08C
1C6
6C3
217
210
01D
0DB
7E1
25B
578
7A3
07B
6F3
1DA
1F7
324
576
7AE
077
585
6BA
693
2B5
777
649
2B1
627
1D6
06D
552
247
655
145
175
1E9
16D
0FC
040
155
230
57F
2B3
62D
1D2
131
53D
128
644
5CF
646
0DF
7E5
252
1FE
794
12E
341
12C
579
6AB
674
601
1B8
29E
24C
333
57B
026
16B
241
54C
111
31D
0DF
600
2C9
692
18E
5BE
789
2B7
622
113
6F7
67B
72D
636
6D6
7FA
0F4
6BE
6EC
16B
0CC
0C7
0EE
595
6CF
594
10D
7E5
748
6C9
607
6C5
6B6
21C
697
32E
5AA
6C1
7EF
71B
1B1
6B3
177
243
188
73C
28E
726
6A2
170
6D8
00D
01B
5A4
1E4
23B
291
746
213
1F7
5C8
208
162
26D
69D
103
08D
033
60F
773
626
6DB
126
780
6D9
044
5C3
073
535
1F1
556
1BC
0BC
229
560
228
291
69F
6F7
74B
542
797
79C
68F
5E3
6E6
62E
63D
028
7D4
6A2
295
79D
6E1
7B5
141
742
19A
5A4
1F8
0EE
6F7
053
74B
5D0
6B6
126
5E4
727
169
106
5BF
60B
1B0
028
7A4
731
5CC
04F
1BE
5F3
623
5AA
25D
136
64B
148
5F1
03F
11A
0F3
56D
07A
1A4
13F
013
792
199
260
1A7
060
00C
197
02A
1C0
092
023
0A8
74F
55F
016
077
63B
5E1
247
1EF
166
2B0
7D8
00A
744
19C
1D3
057
6EC
72E
59F
070
0F7
714
2E1
5E2
79A
07A
6F4
0EF
623
77E
66E
104
5EA
591
6DB
250
67A
75B
124
7DE
1D8
127
144
170
5F0
0F3
079
178
15E
583
1DA
6FB
71E
7B8
77B
6EA
2BD
659
01D
579
212
78E
28B
6FB
0A0
15F
734
565
004
707
61C
14A
5ED
7FD
277
6CF
1A7
5AA
24D
53B
22B
675
288
179
25F
55B
124
5F5
0DD
22C
557
7F4
6D1
069
126
032
229
697
658
184
078
208
574
14E
53F
0C4
117
2B6
1DE
109
035
0B8
742
136
774
0CA
661
260
733
64A
04E
577
07F
74B
215
089
0E2
006
6BA
77D
094
6CC
16E
121
6AE
76D
745
152
66D
6FA
21A
78C
523
736
012
677
22E
144
5DC
0F8
1EB
701
0E9
7C8
734
0BC
708
111
67A
32B
0B3
67F
62E
751
6EB
1FB
074
045
7C3
7F2
05A
0D4
0F7
078
0B0
57C
0EA
61F
56A
0DC
61F
561
1CF
20B
6B0
227
123
139
7BB
759
01E
771
6EB
01D
51C
033
187
09E
591
644
71C
699
6E6
0AD
68D
1D9
7D0
061
592
29F
69C
297
693
71D
553
69A
6F3
754
625
26F
652
342
092
7FF
09F
593
6CD
038
6B4
6F1
625
6D3
2B1
636
23B
756
78D
7E0
180
073
637
22A
6E5
297
5C3
2DB
74C
2CA
647
0A3
2F9
15F
728
506
551
1BB
244
26A
733
5F8
124
55A
688
0D9
77A
240
239
2D5
76A
7F9
534
301
298
0BA
054
286
130
072
04F
588
270
6F0
755
7D1
276
54E
58E
191
5DA
5DC
058
7AC
7F3
2DC
7BB
152
7A5
220
00B
090
265
0B4
05F
208
18A
641
55F
175
248
271
266
6E3
6CC
56F
758
0D3
606
20A
23D
4DA
5BB
039
590
034
273
63F
710
7B2
002
0C8
641
5BB
5C8
154
152
239
243
65B
623
0E2
17D
580
55A
1DB
230
10E
6AA
72D
7B0
106
5B8
784
069
62E
13E
274
652
1A4
048
093
18A
259
0CA
6C1
741
7ED
6D8
607
5A2
648
111
1D2
78E
188
722
5B9
090
149
102
7FF
137
0DB
12D
051
105
74A
7FE
7BA
70E
7BD
60E
7C1
577
73A
6A6
072
7C1
00F
64B
670
5E2
7FB
557
27A
297
7EF
7C1
227
60C
246
01C
7BD
156
776
0A4
577
64B
07E
625
104
1BB
7E9
7D9
0CC
0BF
18B
77E
57B
797
0EE
170
68C
721
29B
696
542
0F9
203
640
175
1E1
18B
030
291
624
19C
6E8
0B0
164
7A7
72B
734
0CF
06B
6F8
211
606
5F9
7B2
136
1E0
66F
50F
0A6
5C3
020
288
1E3
025
1DE
5AB
697
738
742
541
7D6
1FE
044
6CF
68B
718
17D
1CD
5F1
6B4
182
02C
2DA
07E
168
1A1
6B3
6D3
538
5F0
579
0C6
7D1
76F
098
7B6
668
2DF
1C2
059
7BD
63C
0C1
647
722
762
144
1E1
26A
6EA
654
18C
08D
7B4
711
79B
766
7C3
549
72A
7A3
579
7CF
7CE
0AB
163
1B9
57C
027
0B7
65F
069
545
076
71B
62E
729
774
038
1E8
6D4
606
2A7
6FA
6A0
5E0
728
227
135
01E
609
0F2
238
1F9
79F
707
66F
720
67F
7F3
611
6AD
052
1CC
613
59D
264
70F
7A4
24F
7B9
240
1D2
081
72A
7FD
7AE
27C
59C
700
0CB
6A2
0D4
0A1
72C
26E
6F8
134
1A7
190
11F
5AD
737
77B
5C9
0C1
115
147
1C1
57C
117
66C
6DC
1B8
591
5CB
62B
578
263
6A2
7C6
001
6A7
22E
560
036
174
757
06D
139
653
78D
228
149
7A2
191
585
22A
129
1F7
5C8
5A1
5D2
127
0AE
766
123
6C0
75B
7A8
676
10E
764
243
21C
71B
114
651
102
01D
1B7
63D
121
7EB
2A3
7A8
7E1
172
29E
29F
150
165
2B5
1B6
023
0B8
279
7F7
07D
0E8
5C6
0CB
654
67F
576
7A7
639
109
0A4
664
5EA
6E0
07C
54C
061
66A
0FB
0C7
7F4
7F9
080
1DB
2AA
5B9
545
15F
0E6
6DA
1D8
5BD
0A2
1FD
797
1FB
542
0EF
1F2
5C1
69D
248
1B2
7B5
08E
05F
775
799
64F
7B0
116
7D1
0D0
58A
599
63C
06C
163
7B0
10A
776
562
5E9
16D
558
27E
6D8
252
72D
716
0B6
1CD
0F7
1E8
597
14D
7EF
746
77B
0C5
151
732
2BB
791
123
6C8
16C
08F
079
1F4
070
574
5D6
7E6
7D7
760
6A8
29B
703
673
0CA
674
145
17E
25D
68D
713
1EF
168
106
77D
6DA
758
114
5E8
765
131
5FD
049
75A
7FF
2BA
0D5
60B
71B
549
5A2
7C2
775
17F
1DD
10A
2D4
247
0AD
28F
0F3
5A1
793
72E
274
510
5ED
64B
630
290
580
5DD
272
030
2A0
748
24F
66A
02E
7E0
18D
6A2
0E3
5BC
7ED
0A3
5B7
7C9
14A
02A
652
30F
2C1
6F6
72C
0E3
1F4
68D
7A9
7CC
220
256
598
778
6F7
684
71D
057
0BB
778
0D0
53B
021
5D9
122
072
12A
709
2B4
13E
4ED
288
7F5
601
051
72E
0E2
5B3
6E6
5E4
2B9
13D
033
1A8
658
584
6A4
219
111
55A
156
174
0F0
0A3
1A6
605
202
64C
7AA
00F
5B4
10B
28F
5B7
0F4
225
758
7B9
684
217
5CF
68D
5F5
673
697
096
7B8
0C4
775
0BE
098
274
0AE
706
62B
612
662
21C
197
72B
084
0E8
59E
30B
214
745
70E
7ED
22F
70C
58E
5F4
06C
14A
18A
216
623
15B
1F3
0B1
07E
631
7CC
090
54B
15E
266
222
55F
5C7
115
263
747
661
24F
75B
2B7
5EE
0A5
132
067
74A
06A
7CC
09F
55B
22F
583
7FB
6BA
24E
637
072
2B0
5FE
159
130
02C
706
69D
021
654
625
124
7E5
659
197
13C
7CE
67C
1E5
65B
1DC
5DA
763
78E
7C0
5E2
10E
5E0
77E
68D
55F
680
085
6A9
6C4
77A
266
6D2
765
235
11E
2A7
662
24B
260
00C
5E8
139
648
511
7CE
215
58A
58A
76E
65C
643
6DE
61B
5CD
776
614
7A0
00E
197
679
04C
1CE
191
6CD
2FA
155
196
59F
0F1
6C5
1AC
61D
1E1
1E4
5B3
065
584
74B
09A
713
54B
27F
0E5
19B
596
715
635
079
064
238
758
6AB
005
249
5B0
574
730
1B4
063
12A
6DC
77B
65E
7B6
198
0AA
1F8
59E
28B
7D5
18E
243
019
282
219
250
58C
057
139
09D
69F
16A
1CA
6CB
090
0C9
6C0
100
141
67E
227
2A7
0AD
7B3
026
119
14C
68C
0E2
58E
050
7AD
272
22D
0E0
6B6
66D
13D
738
6B5
077
244
636
793
0F8
152
69C
6F3
725
673
1C3
094
586
743
1BD
702
0DB
010
66C
78C
103
2B4
043
0F3
153
70D
5E7
185
182
75F
7DA
709
253
733
15F
554
002
0EC
563
581
56A
000
163
6EB
028
683
571
6D9
10F
06D
2BC
7A4
060
084
672
1A8
75B
647
7DB
26B
662
5D9
1F0
076
714
1DE
604
547
30C
23B
77F
6DA
78F
222
632
5B6
1C4
0E0
0CA
503
7EC
73C
1EE
024
5CE
742
2FD
0F6
28A
1C0
30F
1C8
272
030
07D
25A
5C1
0C2
550
013
659
645
59C
7EE
262
08D
565
291
5DE
600
6AD
7F5
056
18D
211
584
24A
06F
6A9
6F3
31B
237
565
082
1E3
05C
168
684
67B
7B6
73C
5A9
762
1AE
75D
149
0D1
66B
732
1B0
26A
638
10B
65F
7F0
191
6F0
297
53C
0B0
2A4
014
55D
7CF
597
164
74E
1C6
1F5
563
206
1EC
0AB
166
697
723
5E2
04F
60B
7B8
176
1F0
236
5C8
133
007
595
2B4
5CE
1C3
1D6
286
61D
05B
195
209
6F2
6B6
5EE
1EC
6E2
09F
671
057
5BF
782
753
6DD
1B0
750
1BB
7FE
22F
582
26E
138
76B
085
630
52B
1BE
5DF
64E
775
0BF
68F
7FE
264
6DA
078
798
6F3
076
61C
6BB
26D
13D
194
75C
0BC
3A1
61D
6F0
734
054
634
132
09E
726
67E
6CD
0A7
77E
6C4
7AA
609
656
12A
1E1
7AA
545
1BF
69D
011
515
74A
05B
544
76E
60F
7BF
056
0B8
2C8
18D
701
6BA
037
05C
5D0
20F
2A2
70D
1F2
7B7
18A
025
0A3
160
11D
6A3
760
4E0
799
056
016
152
69A
060
167
71C
2B4
202
1C6
17D
192
6AB
065
114
4D7
09D
03A
201
27B
6F1
10F
16C
5BC
1DE
004
1F6
65D
6CC
552
764
552
0E0
24E
783
765
706
70D
258
0B8
13C
676
76B
294
241
25A
267
223
735
191
2DE
04E
300
086
167
5BC
54E
251
071
18A
056
0B1
217
013
065
5A2
64B
14A
1AB
1B3
238
671
0CB
700
250
69F
686
11C
683
55E
11D
7C3
742
083
004
5E8
136
10F
5C4
183
56C
7BF
5E4
195
0D2
22A
673
594
588
5DD
22F
0B0
651
203
653
03E
622
21C
1C4
79E
13B
6A2
601
7E4
1A9
57B
567
7D8
04D
668
6C9
547
7FF
0B6
253
706
7CF
6B7
645
04A
10B
62C
0F8
181
747
037
241
52B
5B4
614
5E2
711
778
5BA
1D4
2B2
044
5C7
6B2
08D
6B7
5EF
293
15E
227
185
5AA
61F
538
7D1
0AB
01C
014
5FA
0B5
5C3
5D5
088
11E
60D
16A
264
1E5
047
66A
664
227
61D
5E0
32D
617
07A
1E0
667
0BA
281
2A1
66C
2B1
6E2
576
552
5CD
572
555
6EB
685
277
6BC
2E1
125
6B1
67E
605
14E
5B4
702
21E
70F
0AF
74A
701
568
134
5BC
6D6
5E3
0C1
112
715
797
7E3
263
524
133
291
2CA
1CB
037
0A2
011
21F
297
736
619
0ED
0A4
123
708
15F
02D
775
0AD
59E
0BF
787
75D
276
29B
05D
20E
2B3
15D
236
5C5
129
519
1E2
6F1
190
722
247
588
745
7F8
2A3
23B
2DA
169
722
548
7B1
0FF
744
077
6B6
190
120
213
027
7F2
2BB
092
23C
03D
1DB
63F
1DD
63A
232
13A
23A
6A2
78D
7F5
30F
15E
5BB
0BD
085
5E7
1E5
60F
7A7
1D2
227
000
1CE
4D5
288
784
60C
30F
23D
591
293
791
0F5
6DF
737
283
739
62D
58D
736
0F4
0D5
591
176
7BA
762
2AB
7E2
7FA
5A7
1EE
77D
1DC
595
02E
6E3
2AE
7E6
716
1EB
572
59C
759
1A8
19C
10A
04C
5CE
697
6A8
51E
105
6D5
576
7EC
1A2
743
0C1
10D
613
689
120
764
10F
0D9
578
734
580
671
559
07A
2F6
107
0E2
2A7
08D
6C1
54C
072
276
26B
7ED
619
1E5
2EF
5E6
156
063
243
22E
759
003
248
137
500
194
1B3
7CE
241
697
612
686
7B1
660
2C9
6C6
7C3
587
2CF
7D8
795
07B
680
105
7CF
14B
109
2BC
032
61D
775
618
6D0
2BF
1C4
664
6D0
679
51A
673
1E1
155
125
71F
5B4
7EE
1FD
66C
05A
0EA
5AB
1AB
7AB
5F9
1B8
7BC
593
7DE
707
27D
7D5
0C3
0B5
5AE
218
065
7BC
28A
14B
2AF
1AA
59E
646
619
0CB
1FC
298
0B0
019
667
0EF
004
0AE
60B
6FB
774
210
059
21E
552
649
28A
136
03B
04E
226
77B
62E
7AE
258
553
679
570
281
723
7C0
7B3
6B8
0E2
7EB
182
0E4
7D1
18D
2EA
564
2AA
586
14E
212
1D7
2D6
5BF
6F8
12F
281
7BA
752
53A
660
227
103
16C
1E3
599
1E7
7FE
02D
584
2C2
027
70D
561
5D5
618
7B7
1A0
2A2
708
065
6C6
743
051
627
203
0E3
6A3
4F4
653
160
60A
1D5
0BA
061
1A3
613
76C
5EB
562
720
202
6D4
1FB
122
5A6
102
694
585
6B8
691
226
2B5
6F2
782
127
73C
22E
526
6CF
5CB
5B8
24B
79F
61A
616
06D
1A8
733
055
72A
0B1
10B
769
099
214
729
792
114
5C3
2A8
785
172
001
0C0
250
7AF
231
02B
576
12F
179
16C
138
7CE
0DE
130
034
686
5DF
701
7D7
652
27D
5DA
2B1
6EF
219
5FC
1EE
7D4
2BA
5B4
649
6F1
72B
7A0
6E8
067
26A
191
70E
7CF
5CA
5BC
71A
766
106
7E4
2A7
05C
1C4
555
78A
7B6
596
5C1
142
172
5F0
1D1
5C1
08D
687
08B
76A
16E
022
275
723
7DF
148
1A2
1FD
735
190
042
14E
7CC
7C5
774
681
086
039
2C4
081
233
7ED
16A
0CC
0B8
6BC
632
0B8
040
077
1E1
148
1A8
043
5E4
114
551
687
171
13F
13E
1C6
580
229
1D4
5C2
295
158
21D
1E6
73E
236
577
2A1
0E6
115
0C0
553
5DB
0E4
281
767
56E
6DE
5F0
0CC
0B6
13A
0F9
7B9
1C7
78C
5DC
769
599
233
6E0
5C6
756
11C
1CB
5E1
26F
25F
0C0
7B5
7E8
21B
0BE
0A5
5BE
10D
020
6DF
774
02E
194
0C1
593
194
589
71B
223
14D
712
13E
6EA
11A
22C
21B
6EE
1E8
082
5BB
7E2
2DC
164
5D8
567
6B8
6C5
612
0DF
58C
204
737
029
5E3
77E
7DC
6EF
24E
080
15F
0E2
5D3
200
7DC
2C2
072
1F1
7CF
65E
5D5
180
205
549
1C9
56A
17E
159
151
5D3
612
1A5
783
643
09A
190
03A
270
227
24F
7B5
7CE
702
0C7
7FA
7D2
755
1CC
0F3
12D
038
791
262
70E
011
34B
5D4
7B7
23B
0DE
123
5EE
28B
06C
266
58E
76B
27B
0CF
01B
1F6
750
29D
22E
52E
28D
06D
614
208
155
6B7
60B
1CF
203
214
201
1BD
740
5A7
1A7
23B
0D0
6FB
221
0BD
6A2
15C
6DC
781
133
5A4
1DF
258
629
092
0C4
6F6
0D9
0C2
5BC
257
5AF
5B9
760
601
559
297
693
70C
72E
6B3
1C7
0D1
738
790
262
180
13C
5E9
613
6A6
332
10F
130
0BC
1A0
32D
129
0B7
274
6AA
554
671
049
0C5
653
275
0E7
243
7DE
223
679
629
624
775
0B7
146
24A
204
5DB
57F
771
296
151
5B1
1DB
14C
131
29C
790
145
751
6D4
590
28F
1B5
756
1EF
5B8
5DD
754
26A
580
5E1
29C
217
5FE
252
7A1
190
099
520
7FC
5EC
04D
554
58C
598
1A1
1F8
7D5
7CE
12C
639
5C0
6AB
254
72B
617
70A
12B
253
5F1
007
5EF
5FB
7E4
573
204
5FC
04C
27F
180
275
716
75A
759
793
1E9
09C
0B9
097
27A
646
274
5B3
1D5
609
1A0
251
18A
257
128
608
06D
05F
241
05F
0A6
7F2
075
7D5
01D
763
6D9
10A
721
5A2
1F2
560
2AD
560
291
140
01F
0FB
6E0
586
79E
589
637
071
129
599
1AF
701
170
0B8
051
701
0D8
548
12B
223
7D4
544
224
1CD
7F0
672
72E
11B
0C8
69F
04F
54D
16C
079
1EC
5C4
0DC
651
257
006
1C2
13E
7B9
0DC
6CE
708
2B9
742
633
003
742
1DE
123
0A5
6BC
0D7
694
553
073
0A4
1B8
696
152
72A
25B
265
2B8
78B
12C
19E
765
667
0BE
134
532
2C3
753
63F
23A
08E
1D7
739
11F
02A
4EF
684
25B
0EF
0FE
7F0
147
715
0B3
59B
1EF
257
660
564
5CF
64C
008
16F
089
725
720
744
75E
0BE
54E
645
7AA
1A3
20C
0C5
7F5
04D
591
11D
001
77A
031
687
7DF
08D
2C5
0BD
777
6C0
58E
1E6
29D
5E4
081
7A9
216
5CD
0CE
0DA
161
645
00A
733
7A5
266
6B7
100
588
237
131
5C6
050
25E
23E
691
7E2
215
6C3
269
136
1AC
2B2
69C
714
2B8
73A
08E
185
7F3
26F
6F4
590
73E
062
181
2DD
2A4
221
5CB
72D
32E
04D
79D
149
56A
17F
227
7C1
656
5C8
2AB
78A
026
68C
19D
0D9
08D
128
05F
0C7
293
56D
743
7D3
16B
0DF
242
5BC
7BC
1CA
14B
6FF
04E
663
18D
6D0
0AC
69A
2A6
6E3
263
0E8
149
07A
192
229
655
55B
66F
292
61C
05E
7F7
06C
780
7D4
00F
053
766
7B8
252
1FF
084
086
27E
7F9
754
573
297
091
142
0E9
7B1
787
63E
1EB
11D
01D
126
256
237
23D
6A4
5B2
526
739
166
63B
101
0BC
5A0
55C
6FC
6EC
58C
11E
034
17B
267
641
572
0B5
72B
69C
217
14D
2FC
03A
6B3
792
011
0AB
6CB
66C
0D4
292
067
1CB
24E
254
061
7B0
606
0C3
766
18D
0E4
66B
167
18E
1C4
62F
638
185
296
0FF
7FB
770
24A
290
23F
729
69E
11D
26F
7DC
1D5
0E4
7BF
15C
6BC
282
098
59E
172
14E
779
715
1DB
754
07B
1DC
633
7D5
1D1
633
5B8
0FF
199
74B
264
1DB
02F
113
66A
618
08C
182
180
08F
20E
639
074
790
287
58E
18B
5AF
043
609
0F3
294
761
5B6
1E4
1C9
14B
02C
79D
2B9
214
1F7
6B8
745
05A
58F
590
6C4
1B6
057
032
07C
7F0
017
237
6DD
717
0B9
5D9
0D9
0CE
656
57A
62D
069
703
60C
772
2AE
5BC
791
792
153
75C
5ED
296
271
662
5FA
5A5
204
17C
704
176
21B
12A
135
721
5EF
7EB
75A
6BF
1A2
5F1
1BE
1A2
54B
7FB
6AC
1DD
135
21C
13E
1BB
7D8
20C
6D5
6DE
2B7
7A0
7B4
576
5B6
036
7CC
76B
79C
1C4
1CA
075
7AA
259
255
693
06E
064
5DF
2B6
721
6CF
0B5
170
6DE
0BB
732
618
1F2
140
7EC
6CD
00E
0AF
18B
6F5
2FB
221
2E7
60F
7FC
109
18C
628
7C9
635
1B4
66B
599
705
130
780
235
16C
602
278
03A
4E9
1C6
0D2
029
6F0
790
18E
135
0A9
249
089
798
093
5BA
738
643
6C9
5A6
053
1FA
7EA
63B
171
7C2
62F
272
26A
6EA
61A
0B4
78B
7FC
27D
590
66E
232
057
4F1
22D
6DC
713
568
2FB
05E
2E4
1CF
5E0
51C
7C6
7D2
57A
696
021
149
02C
654
68A
1E4
1D4
0EF
7BF
760
2B9
10B
2A1
630
7B7
7AF
668
570
077
5DF
62D
24F
216
7CF
20D
69C
5C5
193
553
6E3
7DF
27C
76F
64A
241
5B3
7FE
62C
6D6
12A
04A
72A
252
1BC
0A6
654
0C3
743
795
7F4
74E
767
2B9
02C
2A7
0CA
270
178
5A5
058
622
030
0AB
6CB
685
7E5
29A
178
281
60B
01D
66C
774
731
141
7B3
6DD
7A1
06E
656
220
5EA
61D
73F
7FC
1D3
0B7
70C
23E
155
73D
7D8
18B
14D
01E
5F3
18B
080
5B3
07E
004
5D3
5A6
6FC
0A7
5C1
7B6
279
124
18B
002
20A
694
725
25E
027
72E
26E
284
2B9
5E4
612
6A1
173
76D
7F2
69C
030
608
699
13C
58C
149
275
5A8
7EF
1FE
27A
258
14A
041
738
2A8
133
5F7
07A
67B
77C
7F2
0F7
21F
57C
079
18B
6F2
04F
7D3
7C7
586
205
546
796
785
149
1A4
680
03C
13D
070
17C
7D4
761
65F
05D
001
68B
585
2B5
639
29D
7D7
6F4
237
589
7DC
175
1FA
28F
10A
17D
79A
085
694
68A
0D1
17B
574
113
26E
766
6E5
7BA
7CF
77C
23B
661
5CE
5DD
0A2
22A
7E3
62F
11E
5CF
28D
5E6
544
592
617
18F
0EA
5BA
2A4
5E3
6DF
69D
269
266
5CB
56E
712
749
64E
6C1
0EF
032
2B4
282
70B
26A
67D
690
5CE
6AC
09D
01F
15C
6AE
5C2
735
5AA
18B
1B4
63E
0F5
7CC
04D
26A
65F
768
0C7
58F
7E6
285
02A
02A
7EF
79E
5DE
6F0
610
1A1
5B7
0EB
590
64E
0FC
6C1
079
214
03D
6CF
2D2
0D5
64D
187
691
2A6
604
21B
245
2AC
5BF
74A
158
082
0C3
601
6B3
04F
0F6
02D
758
176
733
7BE
64F
555
660
7A1
784
7C5
1D6
597
54E
1DF
1FB
195
749
60A
75B
04E
637
05D
6E7
73B
676
72D
091
559
19A
148
23C
7BA
033
757
569
737
6C0
5CF
11B
271
5B2
7AB
1E4
6A4
6E7
5C3
052
4CF
6BE
201
6E8
5EE
75E
781
0E4
080
1D8
166
5BE
592
5B5
026
733
2C3
5FE
091
632
192
112
67D
5E5
145
06F
20D
58E
551
5E4
5A6
0C9
1AD
677
0E2
59C
6A1
04D
2AD
6B8
7B1
7FE
0E8
00F
2B2
1A2
003
00E
591
0E1
6F9
1A3
7D3
7A3
20D
1C0
2A3
26D
131
18E
77C
299
6B1
561
63F
730
636
062
63F
574
295
19D
14E
76D
05E
0EC
54A
64F
5F4
5EA
4FA
60C
573
095
17A
1AD
17F
0B3
007
20B
702
606
075
1F4
618
6F5
7DB
56A
67F
780
180
07A
23E
601
12A
256
213
24B
684
51E
144
742
5DE
761
085
650
6D6
192
5CE
7D0
5CB
686
58C
123
568
65C
242
69E
63B
272
1AC
1A5
696
12F
1D2
792
2A0
723
0EE
029
00B
598
23D
255
06C
348
00F
089
572
142
62F
059
7CB
4E4
77E
7E2
1C6
1F7
290
246
04F
068
717
687
21E
6C8
70B
623
5C0
62A
0B2
7D6
050
01A
1B7
155
168
1FA
52F
099
033
03C
643
16C
064
7DA
2A8
1F1
1EE
1A4
2F1
2CF
03C
60A
51E
06B
0B4
1E6
63A
5E4
773
52D
20E
22B
7B0
1FB
555
0C5
561
699
092
5B9
26E
179
26E
11A
1F4
78A
6BB
241
0F2
088
5E7
1A0
288
260
284
272
141
134
521
204
1BA
1FE
765
03C
5CD
746
06D
17A
614
755
733
645
019
074
578
1B1
64B
13C
071
1FF
7AA
0CF
711
0F8
671
6F8
73A
7FA
022
042
77E
585
28A
72D
0BE
13B
20F
586
2B1
7FC
547
1F5
125
170
2BE
68F
4E5
522
126
72A
02B
575
63F
6FD
54F
58D
167
214
5DF
270
15F
5B6
049
22F
0A1
238
7A0
104
63B
784
0BB
5AC
2BC
660
5F6
2CD
16D
243
23C
2B3
150
5DB
67E
741
053
76B
6A9
12E
0E6
346
528
2BF
5A4
1CB
5DB
11C
127
1A3
60B
1E6
57B
266
28D
323
1B8
2B5
0C3
741
679
621
5BA
17E
5EC
00A
4C7
29A
2BB
24D
7E2
707
558
201
789
005
01A
129
6C7
307
787
232
7E6
0C3
1D5
738
6FD
765
218
5B7
77E
620
051
5AA
0B1
0C9
7CC
5D3
186
041
75C
76D
23F
300
5D9
5AF
608
5DC
755
1AB
148
6AB
5C3
63B
638
792
2A4
6F5
5B7
221
5F8
583
725
682
6ED
5B1
7F9
051
043
736
1AF
20B
751
7A6
044
145
5D4
6FC
2CD
0DE
2F8
068
358
170
204
5E8
556
750
788
6E7
1F5
6BE
04F
186
6C7
705
615
501
7BE
00F
15C
120
307
086
5E2
2C8
273
776
01D
108
6FC
6A1
568
69B
11F
574
63B
024
100
5A8
0F8
75E
5E9
4EA
70B
6A6
17C
100
764
7BC
1E1
1E3
006
7DA
21C
68A
175
633
0F5
1BC
17E
541
007
05A
0DF
7A4
00C
305
143
5F3
220
15B
27E
0A9
7C6
2A0
5B4
173
626
57B
77E
700
247
103
0B8
6D7
557
161
2A0
6A2
590
758
0CE
5ED
6A2
1A3
7C6
7C8
209
7F0
55D
265
68D
163
789
12D
2A9
133
762
51F
7F8
73F
71E
54C
021
180
1D3
0E7
671
206
044
21F
17E
292
07A
7E6
16B
78C
19D
769
28C
6E1
1CC
575
243
738
0CF
063
657
578
1FE
00A
01C
705
06E
6A0
6A2
170
6EF
21E
70B
79A
163
07E
2D1
165
03B
1B6
581
578
6B8
5DB
72E
543
1C0
7CF
2AA
65A
07D
66F
5B3
1F4
668
254
2AF
63D
02D
5A2
26A
1BB
224
172
1C2
108
6B8
16C
77E
27B
646
190
28D
2A5
732
62F
579
0B6
79E
696
5F8
7B2
782
693
741
27A
60C
09B
5E2
5C3
66D
679
165
0D3
61F
22E
6DC
75A
762
229
038
6AE
0BC
63F
118
163
00A
6AF
612
72B
57D
124
0D5
1AF
1CF
7B9
0E9
748
079
764
2B0
06B
182
589
7EB
706
063
701
7A1
287
0D0
7F8
048
188
003
1B6
1A3
11E
060
247
1EE
0C3
695
279
652
0B8
655
1ED
6E6
271
192
05D
10F
6ED
20D
5B4
141
5A2
5C8
7EC
69A
569
7ED
6D4
6D6
0C6
565
7C5
79B
122
089
084
7E4
6E5
00B
6D1
653
247
5CD
2A4
78E
5F6
607
0BA
0CB
5ED
7E2
678
720
74D
6A8
0E9
04D
263
1EC
6C3
673
7CD
71E
280
0C5
7D3
68B
5B5
0F1
1BA
7A9
680
762
5B7
325
597
21E
27A
645
59A
5D6
11B
680
533
61D
627
189
776
64F
5DA
5F5
130
2B3
002
546
678
714
69C
5B0
5B4
24B
281
5E7
797
61D
6F2
0FA
1E1
181
2AB
5E7
241
649
695
618
26A
648
1BD
66B
694
5AF
7B4
00D
77E
080
5C5
6FD
093
555
231
7DD
551
7EF
094
115
0FD
7CF
61C
22C
53E
150
2B7
0CA
6E1
764
02E
036
10D
1BB
59C
084
799
1E9
083
669
678
172
75B
15A
5B6
2CD
6AA
18E
0F4
6E5
23C
7C6
117
12C
20E
5C7
5D8
2FB
774
5FA
7C3
155
040
040
193
125
1A2
62F
0A7
0B5
099
25A
58E
60D
166
635
082
1A0
050
02F
708
177
01C
6BA
554
585
115
6EF
74C
0CB
156
27C
6B5
1DD
207
7BC
0C5
7F0
151
69C
1BC
1EE
6B3
6FA
1EC
755
1E9
29A
5F5
20F
1BE
24F
7E4
027
608
1E5
292
65E
6FB
7E1
1B8
5D8
752
189
023
79C
727
199
772
006
656
22C
16C
240
5BD
04D
597
71E
509
16C
283
7DE
247
283
10A
21F
2A1
57F
06C
730
7B5
6FD
5EE
548
57D
7E8
6F9
690
737
668
6BE
7B1
02F
243
72B
10B
6A0
774
282
797
61C
579
16F
215
298
224
1C3
59C
7FB
577
5CA
5CE
157
522
61D
693
058
204
218
591
01A
739
1E1
016
5A4
788
219
774
05F
553
2F7
1E9
6BD
583
140
2C4
7A2
545
56D
772
095
608
1C5
5C6
1A3
264
01A
30D
041
63A
710
014
7AC
1C7
000
09B
584
5F7
15B
13F
08F
2A6
1CA
0F8
00C
5EA
1EA
66E
7FF
15B
72D
266
220
235
142
03E
6CE
207
55A
536
098
6BB
04E
7E9
0C8
762
6AD
0C4
02B
5A4
6C7
03B
245
744
5E0
037
1EA
153
75D
0A9
5C1
189
197
60F
713
7AC
718
0DF
721
7CD
148
0D0
31C
036
0F5
2A9
6B8
21F
22F
7FA
1CE
18A
74B
260
5C2
0E5
292
685
55C
696
736
050
182
247
5EC
74C
64E
58A
26D
084
7AD
572
5D2
504
291
116
297
0D2
6AF
7C8
1E6
643
150
312
1CE
7ED
11B
1A3
0CA
1B2
7D3
12B
779
640
64E
738
00E
266
5FC
1F9
589
26D
58C
604
69A
7CA
58E
5E0
292
671
086
1F6
649
09D
08A
6FB
200
014
68C
780
59F
673
199
754
5D6
6A2
662
5C8
2C8
1A5
529
0A4
4BB
09F
25E
654
697
187
5EC
67F
291
186
1E9
1D8
7C1
798
6DE
507
11E
634
311
591
00C
0DD
152
7C2
112
7B8
607
1D1
59E
228
26C
699
13D
1F9
5D8
67D
2A1
032
726
0A0
62C
703
1F7
63C
2B6
56F
07B
7B9
4BC
030
58C
768
7DA
232
23A
1B9
1AF
246
0B7
6BE
5AB
767
732
7E7
7A5
760
289
03A
0FE
225
589
187
7D4
2A2
5BA
1FF
298
63C
55F
2AE
7C4
0D0
5B8
236
7EC
65F
7B7
0F1
0E8
697
0B0
689
21C
774
77F
5BF
07E
7DF
047
10F
260
6D2
6E0
6CA
570
0AB
75B
754
047
1F2
26D
624
12B
042
679
5F4
237
770
56D
7AA
046
7A8
1C0
25E
5ED
156
7BC
7BF
749
56C
083
68E
0B1
74F
71E
58E
02A
040
768
12C
79F
085
15C
666
71C
68B
6F3
1C1
574
565
17E
230
7AB
1EB
2A0
6E5
6E6
594
571
373
7FA
7D2
534
799
721
720
59A
051
20D
2C1
089
051
0D8
1F0
03B
735
0D6
1FB
1B3
5DB
125
197
257
7B0
5E6
048
113
016
029
63A
69B
0BA
6D4
25D
0F3
616
145
684
544
164
623
155
77D
279
1D4
5B9
269
203
231
09F
59B
7CD
0B6
79A
021
754
56C
59E
7E0
1FC
0FB
7C0
7AE
185
241
7E8
7DE
74A
7FD
7E5
7DC
1B1
0E1
209
205
291
5D1
621
691
1D4
5D9
59D
73A
252
7A1
2A7
573
223
0A9
7CC
681
0A0
5AA
065
218
7A3
606
098
770
0F7
2C0
212
716
603
64F
12B
7EC
21D
58F
69B
132
204
21A
63E
60B
54F
66E
581
596
51F
7C0
0C5
7BD
6F2
230
2AF
0E1
1BA
587
5E7
6E6
782
5D7
596
29F
5E5
612
0AF
61A
68C
062
2A6
55B
79E
75A
7D6
0AA
59F
768
699
705
61C
294
5B2
220
29A
03F
16C
189
037
575
181
216
5BA
188
141
128
031
7AB
593
53D
6A6
5C5
0B2
7B3
17B
511
65C
683
71D
74E
6F2
2BD
05C
1F6
17F
560
0BC
221
5B5
7CB
781
5B7
598
1F3
578
7C2
1E1
6BD
653
119
638
5D0
749
19B
7CA
6A4
6C1
559
773
56E
743
10F
249
169
782
780
23B
0B3
6B8
64C
116
0F7
66E
283
209
5D9
5C2
217
28E
63F
26A
2B0
159
271
704
0E3
619
7D0
733
02A
0D5
62A
649
70B
6F2
5ED
1DE
24E
000
14B
198
749
7B7
21F
16D
18C
6EC
038
050
078
29A
7F8
25D
032
04E
221
58E
212
170
798
647
7A8
212
5AC
135
54A
716
111
642
65B
5C9
56E
10C
6BB
70F
577
14D
1E1
0DA
1EC
7EA
149
7B4
081
605
7B9
576
6D0
6A2
6E0
143
0E6
15A
266
748
0E0
7FC
123
0FC
060
574
556
016
575
21A
090
0EB
215
283
5BD
032
1A7
637
1F7
5CC
114
192
64B
201
5EA
207
212
6BF
75D
5B6
0DA
6E7
0B4
73C
0D0
0F9
6F5
69C
6DB
609
1D9
546
60C
020
7FF
171
607
5C9
171
5D1
78E
023
5CA
192
168
5C3
1DB
09C
6C6
757
2AB
21C
216
17A
7CB
0DF
583
5A6
643
141
7F7
227
795
006
1E3
234
0B5
016
007
085
77C
690
590
662
1D5
780
1F1
595
274
79D
184
254
7DF
02D
664
1BB
1F1
130
592
1D9
0D0
751
749
002
202
5AF
12D
071
02D
7CF
0C0
7AC
2C5
592
5EA
575
0EF
578
67B
130
5C7
061
4E9
7A2
1AB
728
0EA
68E
202
1A0
75B
017
767
1D1
674
4F2
758
0E0
154
031
1FB
123
783
06E
220
714
21B
638
5E2
0FD
79B
01E
280
56C
5E9
1F2
2DC
0E2
76A
209
567
1B9
12F
065
631
5BF
63F
671
6BE
12C
267
726
2B1
633
648
159
1C9
728
570
013
111
796
0C8
743
7F1
161
045
265
112
714
2AD
5A5
046
679
0AF
6C4
6FA
109
6BC
573
6CC
712
7B1
705
50A
7EA
5B5
7DE
752
73D
0A1
230
297
0AD
093
6A9
7D6
7AC
14E
11F
1B9
296
248
201
11E
0D4
7B1
009
04A
699
27F
58C
778
19A
74C
291
79D
549
1FF
0FF
133
4F5
075
76F
5DB
1B3
098
099
1A0
610
7F5
22F
089
7E2
6D6
1BF
01E
6C8
038
1BE
7AD
789
1B2
265
16B
5F6
19F
738
0C8
070
74A
209
0A1
542
1B6
64B
09B
11E
17F
677
5A1
5AD
796
735
1D7
5B0
6D6
6F1
28F
757
5EE
0E9
501
568
210
156
1AB
2A4
692
32B
7ED
56B
05E
559
1BC
296
1FC
4ED
209
5B5
03B
386
1E7
560
0F9
19B
597
235
7FA
25E
0C6
1DE
504
6C8
1C5
0C7
1AC
1B5
564
198
5BD
205
59E
7D5
24D
5ED
6E5
7A8
291
093
24F
2A6
564
681
580
1BA
5CB
5B9
1A7
79A
0D1
021
6AA
792
1A0
75F
699
1EB
083
687
14B
5CE
147
759
677
05D
228
62E
03C
00F
1F2
05C
1E2
6D7
141
051
6EF
65D
04C
0A0
249
63F
6C9
01B
075
067
563
788
121
008
0CA
139
101
714
10C
6F1
6AA
7C6
139
128
225
027
1A2
2A8
027
6A3
6AE
0C7
1B8
7BD
125
215
057
5FC
017
72C
7EF
0AE
5EC
048
5A1
707
6DD
5D2
09C
0E4
713
0FD
574
7BE
1E1
276
14A
1EE
043
62E
5A1
6F4
5D9
5E0
032
680
026
055
647
62B
717
29D
19E
601
6C8
013
7C9
5A9
088
729
202
08B
678
1D2
264
1EC
210
0D0
267
154
6B6
580
1A4
682
60C
0F1
1A0
59A
22B
64A
4ED
1F2
71C
783
5D7
614
2E7
219
293
270
5B7
077
6BE
2C5
546
621
0EE
1E5
7C7
50C
581
1C1
6CB
638
218
147
75B
78F
003
1FC
22E
7AE
7D3
6F1
24E
016
037
13A
106
5C5
7C2
058
016
14F
77E
142
559
61B
08E
14A
0A4
711
7E1
10A
223
5FD
5E2
6BA
0AB
190
7BE
56D
708
156
1FE
724
794
027
252
7FE
08C
6CD
069
60D
544
1C3
024
2BC
69E
039
6A8
577
755
078
09E
66A
7CA
0BA
1E4
7D4
26E
112
620
5B9
006
023
72C
2BC
288
753
69B
5A4
78B
77A
5FC
587
1D2
267
603
7BA
693
297
092
1EC
260
7B2
7D8
563
5F9
266
6FB
698
0A3
73D
78A
7BE
264
7E5
69C
181
6FD
715
745
6A1
679
012
0F8
549
03C
671
5AC
6FD
6C0
023
160
10F
601
275
6BE
552
066
0A0
236
5C5
713
789
1CA
223
09D
70F
27B
710
7E9
2D6
284
6DE
2B2
056
115
108
1B3
248
145
68E
10E
76D
183
55E
2C6
218
06A
781
5B1
778
0B6
6F4
565
05A
7A5
55E
0E7
22B
5D2
795
1B6
6D2
226
574
10D
1D0
1E6
7E8
016
05B
120
041
73E
0A6
6D7
1E8
687
6AF
7AC
019
2A5
07E
0C5
546
128
626
14F
74D
260
0AC
5AF
230
602
772
651
031
7FA
705
79D
2AC
111
69C
514
782
6F8
0B2
0FB
2A7
556
046
53A
063
1D7
64F
17C
123
669
273
3FA
035
0C6
2DF
265
73B
256
23C
649
1CE
169
00D
63D
5D2
08E
692
130
727
29D
000
227
11A
1EB
7C2
060
0B5
54C
0E4
1B3
77F
13D
5DB
142
116
55C
7C4
5B5
5D7
6AC
6EA
78D
208
54B
5E2
70D
68F
22E
0FF
5E6
299
62B
2BA
768
7BB
787
0DA
6BF
20D
712
04E
206
718
08F
11C
061
7AF
231
24A
7B5
5DF
119
0E3
67C
5C6
5A4
308
188
7C0
516
18D
743
276
7A4
66E
340
713
067
631
6EC
721
019
10C
10E
01D
0E0
258
73A
5A9
6FB
00E
18C
62F
1D8
5B6
0D2
1A8
63A
05F
726
69D
736
6E7
2A5
030
5B3
78C
656
009
532
079
036
5E9
16B
0EA
750
2C0
7FC
0A2
05B
6E3
776
72D
5AD
76A
608
21E
66B
674
590
7B2
660
25B
254
26D
09D
5FD
205
657
36C
263
02E
2A6
0D7
598
1B7
7C3
19A
53B
178
16E
2A7
7AD
040
594
61A
65F
291
29C
0E9
764
7D4
6CF
26D
7FA
159
147
7A0
242
0AC
04A
7E2
0F7
5DA
61D
540
300
1F9
718
798
1D9
171
621
6AA
636
232
6B2
0AD
7A1
1EE
62A
035
741
600
6A2
6E1
0E5
00B
223
72E
28C
578
0BC
5DD
680
24C
2A4
651
231
74A
75A
656
043
5A5
602
6BA
726
039
6AA
1F3
29E
7CC
706
190
5C1
191
291
247
61A
77C
670
501
1B5
577
034
604
7E4
709
0B6
4E9
7DF
001
6ED
244
7FD
5D1
0E8
6FB
5B5
608
06C
0FB
541
007
1D5
682
5DC
5DF
28C
50D
1D7
0EC
0B7
7C7
1B4
4C3
5E1
0F4
5AA
219
00E
54D
15B
754
709
785
06A
1CA
607
6FC
26D
71C
726
596
58B
159
539
1CB
092
689
676
74D
764
21B
663
6E8
1B4
255
0C7
30F
69B
746
50D
754
762
248
0CB
082
618
04A
64C
11F
7C4
5D8
24F
701
68D
582
7DF
603
580
22D
1A2
557
321
1E8
255
0AB
739
629
56C
221
0D6
24F
72B
6B0
753
606
5B8
045
2BE
1BD
7B8
68A
1CD
75B
163
17A
623
622
6F0
081
690
56C
1D6
238
20A
558
750
75C
677
580
124
152
162
12C
6D1
6E7
142
778
76C
6DD
28E
111
705
29E
772
6DB
66F
0CC
1D9
55C
5D1
194
148
03D
2AB
72D
227
1D6
51A
775
2B9
228
675
1FB
05E
12D
781
607
5D0
173
288
6D3
5A3
234
0D0
080
031
275
6FB
650
592
164
69C
0A2
278
79E
666
289
741
627
6A7
627
55B
60A
0E5
557
016
62F
099
71B
7FB
5DE
077
2D1
70D
6D5
2A4
775
590
0E5
5A4
773
1AB
0AC
65F
77F
7FA
5B1
2B4
23D
025
163
288
13C
688
5B1
0BD
6FD
04A
1E5
061
100
07A
7CE
126
721
25F
5E4
775
668
12E
6ED
681
67E
742
251
271
6CC
0D2
554
228
76C
0B7
74C
1CC
579
635
00C
5C1
153
251
7D8
20E
616
037
616
7EB
646
781
559
127
187
750
5F5
112
1E8
0E9
1AC
12C
59F
209
218
687
790
797
52F
561
666
755
075
000
5EF
065
765
5ED
14C
103
5DB
27F
01D
776
667
55D
1CF
684
1F1
6F7
778
72B
79F
0F7
1EF
031
7AC
1E3
2B6
647
704
79C
118
7B3
6ED
05A
7DF
72A
25F
266
696
5E6
076
7E5
55E
6CA
16B
10A
59C
60C
219
798
5DE
738
025
100
1CE
151
158
00A
314
5F2
086
7D4
1B3
556
7F3
6A4
6A2
6A9
0F2
740
050
661
121
23F
582
0CB
750
568
7EB
771
4E2
32E
263
0FC
277
211
047
745
1EA
0BE
62D
6A4
698
0ED
67E
0D9
036
710
061
7DB
640
55D
21B
23D
003
052
257
08A
565
04F
1BB
163
011
032
083
5C8
5AB
00C
1BE
68D
7E9
5D5
01C
6D9
1AD
1A3
1D8
6ED
156
10C
04C
12C
247
7DE
66F
698
1D4
155
65F
7D5
137
28D
68C
63E
288
0BE
089
632
1AE
13B
70E
750
1C2
5C2
17A
020
23F
05C
28A
00A
163
7D8
5CA
603
0C7
1EE
20D
279
0C3
299
0D8
5BC
1E7
069
79F
068
746
001
6D4
72D
5DB
624
723
120
4F0
0CF
0B7
5D3
5AA
25C
5ED
1CC
724
665
2A8
156
6AF
5C5
11B
1D7
140
190
22A
0D4
06D
5BC
568
1E1
640
1ED
254
020
25F
610
58D
79A
5F5
638
0F3
587
7A9
108
72A
1D7
78C
695
7FD
6D1
261
5B7
740
592
2D7
7F8
711
52C
6BF
610
024
156
6CC
345
1E9
23E
563
128
552
24B
7DA
7F2
2C9
141
20F
535
5CD
13A
2D2
6A3
7C4
6FE
21B
55B
0A8
653
1EB
611
119
1B2
64C
10B
0CA
785
7C2
5FC
288
0E0
5B4
10D
014
59F
051
1E3
072
762
5C4
264
6A2
59E
627
659
699
165
6C5
7CA
206
632
727
0AB
6E3
5FF
18D
03B
21D
65D
22D
7DC
61E
7B6
6DC
5F0
585
6FE
7B9
033
579
270
1D9
0EC
59D
6E1
57F
1F2
000
2BC
687
0E7
086
155
7E2
796
188
6D8
61D
7DA
1F7
17E
763
648
6E1
24F
1C2
01F
25B
1F4
665
6D3
54A
644
14A
0CA
1CD
0A2
623
1FD
042
0D3
564
04D
6CE
067
1EC
590
294
2B0
5CD
27F
141
2D1
616
2AC
7D4
705
272
776
0AC
742
7FB
1EE
162
7F3
5B2
6E8
121
0E1
716
17A
23B
1E5
558
190
216
652
7FB
555
1D5
779
081
639
0C9
719
5A9
7C0
792
6D7
296
658
753
291
29F
5BB
6D1
75B
067
155
09F
0BF
07A
0B1
1D2
0E6
156
156
636
26F
64D
29C
045
72A
55F
09F
260
1C6
651
0CB
7D0
0EA
6DE
559
125
15F
7AD
15A
73D
7C7
1A1
549
68C
5AD
725
0A1
282
752
277
07C
6A4
095
188
5AA
772
795
5CE
680
171
55D
270
7F9
7D1
212
69D
1CE
773
7DB
265
094
1E6
783
056
7F0
569
1A5
62A
116
195
59B
633
747
69E
61A
5E9
675
700
654
035
55D
6EE
262
6FE
0C8
154
1D3
50D
159
6C0
01A
07D
020
0D0
020
111
035
123
6FA
5AD
278
2CF
0EB
796
749
7D0
620
212
796
6D8
162
712
5A8
6FE
1DB
7EF
593
0BD
05E
641
7EB
095
79A
04C
5A1
300
297
042
73D
584
153
5A2
6B2
707
1D0
1F4
790
177
0B1
216
685
66E
77C
21D
6DE
7E2
597
273
6D7
35F
15A
14F
5A3
768
2C0
046
0BA
1FC
13C
679
23D
0B4
062
54C
1D1
748
7D9
22C
621
13F
1C9
651
61A
6CB
590
5BF
00E
581
16F
667
0E1
61C
65F
1DF
55A
7F5
0F5
175
166
599
6EF
13C
754
054
0A0
75E
60F
14F
5BE
0EA
609
13A
5DB
582
05E
2B1
279
091
0A5
4D5
6AC
087
0A4
67C
5E2
0A0
570
7D5
5FD
476
042
793
194
7FD
29D
1CC
074
1E9
5AF
5DA
7E6
016
6EA
34C
290
701
66C
6EB
7A0
599
2CB
73D
709
160
5B2
0BA
585
076
063
6DB
5B4
7E1
18F
270
023
520
15E
378
03F
26F
1F8
292
00D
050
205
6AE
24A
0EC
0A6
214
63E
082
6E5
179
0E1
056
583
262
093
1DA
56E
7B6
646
7D1
6BB
11D
0C2
763
1F4
115
0AA
7BD
261
0D1
785
6AB
650
6ED
6CB
581
76D
109
569
61C
684
08B
14B
781
7CB
6A9
5D6
6CE
237
27E
6A5
0F6
758
576
138
2A3
0E7
7D7
6A9
57E
122
757
11C
2F7
7D6
7CE
6B5
7F1
63F
76E
56D
79C
191
585
0A0
047
129
593
0CC
612
0DB
60D
772
221
79C
59D
75A
2A2
03F
588
10A
10B
749
63B
6AB
00C
614
7D8
65C
15B
1E6
5FF
539
12D
67A
716
280
6A2
0F7
7CE
21D
055
2CA
1AD
12A
036
038
58C
540
26B
0F4
16A
61F
166
574
6DA
5C0
778
5DE
6F0
7DD
562
17B
70D
2BA
66F
23A
288
09D
121
766
5E5
1A2
5C5
044
79F
6B1
763
0BA
770
18A
320
64E
06B
7D9
70C
020
038
00C
5F3
174
624
707
589
04C
05A
103
509
0EF
63E
030
7E6
662
27E
142
592
1E6
11F
287
21E
086
617
5D3
634
109
563
753
640
2FF
2DD
027
728
1D6
22C
5E3
148
19F
2BD
23A
5F5
22D
7A3
061
07B
7C9
56B
691
78C
582
242
5AD
0D3
1F0
5E8
587
076
702
770
038
66C
67E
19F
697
7A0
6A5
5B5
6BA
104
30E
7B3
7F4
074
637
755
111
1F6
073
566
188
5DD
218
17A
77A
6EA
718
73A
0C1
5A6
6B1
112
621
733
5E2
162
1E6
196
1F5
711
643
187
310
135
289
17C
7B0
521
107
6FD
676
0C4
0F0
1B9
511
618
243
7A0
5B5
6E6
719
600
238
137
022
009
6B9
6E4
006
657
45E
059
7E8
058
6B4
7C2
02B
6DA
1F4
08B
6D4
6CA
02C
5B1
6F9
27D
2D1
136
01A
600
7A1
7EF
5FF
0F7
6D9
5EB
1A9
75B
6C9
579
626
0E4
28A
268
7FB
02B
721
670
2C5
240
5B8
743
08B
72F
23A
6D1
0C9
09C
753
6FA
659
74F
5DE
556
0E9
1EC
006
7DB
542
6BB
14E
201
252
6A3
66C
7E3
603
598
235
6DF
2C6
0EE
2E7
608
72B
53F
185
138
779
539
26D
047
649
2CC
00B
6C3
5FA
100
254
06C
229
621
6BE
032
2C4
0A6
56A
2AE
11D
2E1
575
5AA
0E2
753
588
779
76A
79D
6B5
181
6FE
592
1BF
118
0A2
6BB
07A
24F
6D9
124
622
726
7D5
65C
732
0DE
717
17C
6EF
622
5CF
79C
637
6AC
75D
1B7
07B
066
7A7
047
7A1
20E
038
5B0
64C
2AD
29B
5B1
694
6F4
516
01D
00D
77F
1E3
03E
187
142
580
6BD
5CC
0AC
130
00D
078
764
707
615
214
583
6D5
153
7F3
26F
100
7F1
221
617
1A2
750
15C
1CA
5D7
616
214
398
7A9
028
05A
03E
6F3
79F
1F6
22C
69B
2D3
1BE
71A
666
264
069
7ED
618
58A
23D
7B6
772
2BC
2EF
19D
61B
552
5AB
047
202
759
54B
128
72C
7F1
618
570
256
76F
0B7
1F9
646
701
69D
21F
105
7B6
721
7CC
59A
67F
6DC
2A1
17B
5C0
772
1BD
102
5A5
30B
7F8
62B
6A7
063
283
576
33A
1F4
781
07E
02D
2C4
5BA
08E
67A
539
587
015
765
5F2
220
32B
189
751
579
6C0
04F
258
1D0
601
6E1
4EE
28E
7A4
1DB
1F6
7F2
646
20D
00D
0C9
023
543
770
178
510
5B7
72B
183
127
7E3
12A
502
250
2D7
0AE
66C
76B
517
2A6
600
0B8
2A1
756
624
7CD
06C
0AA
0AA
298
596
57F
148
796
635
5D5
08B
704
726
74D
661
01C
03F
657
032
675
6FF
63E
1E3
62C
173
2F5
79B
1A8
61A
0AF
196
1B7
639
55D
7AA
5F4
605
0B5
6C0
570
0A4
7F8
0D6
03B
681
013
031
559
727
588
272
13B
70A
2A5
102
66F
724
665
792
008
582
25B
65A
013
07D
77F
615
7E9
7DE
29B
14A
61A
75D
62A
5F8
1A8
691
0AF
2A8
665
04B
54A
756
77F
2AE
100
5A9
72C
684
02A
649
147
10D
0F2
087
02E
60F
6AD
23C
720
564
72B
026
26A
1A0
5AB
727
572
01A
051
6FC
0AA
4C9
03A
311
122
17F
510
62C
215
757
6C3
67D
522
78E
7B5
649
6D0
7BA
0E0
113
62C
6CC
7D6
7C2
2C2
252
7D3
26F
685
7AD
622
79D
5DE
00E
138
196
7DF
005
2A3
56B
168
1EA
038
05E
74F
196
558
52B
18B
170
557
04B
795
5DA
6C0
14A
1D3
7C1
748
1C7
59F
6FF
195
128
6A1
7F8
7D8
7C5
553
011
5C3
366
09D
200
1D9
732
6CB
01E
78D
6FF
11B
6ED
676
17C
141
161
67A
763
053
2AD
601
6B5
7A9
59E
086
7AC
0C5
727
097
008
03D
128
056
7E4
71C
151
570
688
7B5
27F
24A
204
217
2BF
59E
220
7A7
597
600
5D3
6FF
4EB
283
741
048
67D
14C
0F6
621
057
583
67A
7C5
171
640
5F9
6CA
727
1FB
1CA
053
619
0B7
216
599
189
745
6F4
018
702
62F
5C9
21E
6FC
5A7
60F
593
046
2EE
029
6E0
64E
1B4
083
6DB
1B4
71D
28B
589
76E
691
63A
631
242
77B
702
153
24E
0F2
181
184
18E
2B8
7E8
61B
5CC
0E5
599
243
230
1AB
655
7F9
2C5
5B1
6FE
1BE
795
18A
1B0
793
0E5
0A6
13B
05B
25F
0E3
728
7C4
69B
633
0EC
7C0
705
009
5D4
181
017
77F
284
215
0FB
565
28E
614
078
5F2
5F8
6AB
047
2AB
0B7
213
0B0
530
116
22D
6E5
2A2
7C5
5A5
15D
682
697
631
214
29A
2CD
295
6D2
5D2
621
1A8
000
14A
618
59B
0C9
562
29C
142
151
674
5F7
770
6F1
78C
14A
632
12D
146
7F5
028
11B
6F1
284
5FB
795
56A
5CE
64C
1A8
6C4
6DD
7E6
1AC
6E7
1C4
7D8
074
176
1C1
11A
29A
031
61B
0AB
07A
586
66C
137
68B
095
0DD
73D
138
248
6C1
672
02B
769
123
75F
0C5
75D
6FF
094
23D
1E4
77B
1C4
658
06A
1AF
28E
1E2
706
054
577
79F
1FE
042
1A3
76C
098
24E
667
6CE
079
7F8
1E7
033
70E
552
606
1E8
0A9
605
19D
690
1C9
7FA
139
7FF
053
688
616
60A
622
004
0A2
672
0AE
082
161
6FC
0BD
6FA
157
780
6CF
689
5B8
1A8
129
022
28B
09E
20C
61F
596
0EB
295
7F0
0E3
0CF
02A
6BA
7F5
1C2
710
7BB
794
6BF
0A2
661
04B
5AA
1BE
6B1
15F
697
273
5A8
035
5BF
084
72F
05B
53A
0B2
1A6
015
55E
7C1
686
0F0
26B
610

