BDADC1CE
3DBFAD42
BDB64EDE
BD8736E1
3DE77CF0
3E12FF5F
BD86D468
BD0C94B5
3DCF36B2
BDFA5CBC
3D878930
3C8DA1C9
BDF85173
BDF5998E
3D1AE544
3E11B696
BCE3301B
3E05D49B
BE05D41A
3E06A404
3D57D3BC
BCED3EB0
BC93899D
3E16559F
3E1A168D
3DF71BE2
3E05A0CE
3E001CE9
BD3A65B8
3E068AE1
3DD1A661
BE15B9B2
3AA903D0
BD0F0452
3E16D005
BDDD0C37
3CCFACC9
3D17776A
3D62CFDD
BDCFC228
3D2186DB
BDCD6F5C
3DA0F806
BD4B1C09
3DE30073
3DBC0FB3
BE202D4C
3E2E8C21
BE01D88A
BD251304
BC78D280
BE2B434A
BD8BDB98
3D99F2C2
3E26DFB9
BD8015A2
BDD394AD
BCC6F4B1
BC5B43E5
BDF797D4
BD8A2EFA
3C64B778
3D07D998
3D294799
BA9E8C0F
3E18B0EE
3DE9D66E
BD2A1EE9
3E2C16CD
3DACAFC6
BE0CD2BD
BD6CD337
3DA76DE7
3E0C47E6
3D4E813E
3D4A0008
BDB47D8C
BC9E21B8
3D161D4E
3DD42114
BDF3940A
BDC93AEA
BDA17239
BD5A7882
BE15833A
BE0AF2F6
3D8AD001
3CC0CBA8
3E1E6249
3D76EB99
BE03C3EE
BDEC428C
BDE65E8A
BDB548EE
BCA61E7A
3DE4A84C
BAFCD86A
BE299538
BC5D4B49
BDD930AE
3DEFACFC
BDBB2B77
3D8D2687
3C6EFB39
3DBED228
BE063131
BE230C89
BCB27D41
3C29B8F5
BD71B3B6
BDAE5204
BDB8368A
3D84369F
BDA76839
3D8D81B6
BE1ECE0F
BD6FA7CB
BBF9D341
3DB71AC3
3D8D463D
BE11C503
3A274497
BE136F7F
3CD1CFCE
3D874D62
BDCBD6D4
BCBEE493
BE0AA7CB
BB7B7ECA
3C6984E2
BE58314C
BC20E485
3E129929
3964A800
3DD68D32
BD83A239
BBD59086
3DBC0C64
39D8F6CE
BDD9AB15
3E24CACA
3D982B8A
3D4D3B61
BDF86747
3D6ADD4E
3DAED96B
BCDDB814
BE206D80
BD233A12
BE10EC6E
BE2AF204
BC92E19B
BDCEF60D
BE1A0B18
3E224042
3E42F2CA
3DAB3EAC
BDE8CBDC
3E346CE6
BDD04FD3
3D8F7949
BDEC4EB1
3DF1123C
3DDCE7DF
3D5029F3
BDFA049F
BD70A67E
BD945253
3DA4AEB2
3DB6ABF2
BC2F6A18
BE242252
BD1BC4A1
3C242C4C
BE0B28ED
3C91A2D6
BE288DE5
3D76758A
BE0E0AF7
BCD383CF
B9BE09FF
BE10EB37
BE3539DE
3E0E3963
3D11451E
BDA72FFF
3DA92865
3D71A8C1
3E0F825E
BADC50DD
BE147F0F
3DBD8681
3DB50B84
BD1BB25E
BE1765AD
BE2438D3
BE2100BB
BDAD8DF7
3E069D39
3D007275
3C13D3CC
3DB5B454
3DD1F756
BD821222
BAD4B7BB
3E0D1BD4
BDFC0ACF
BD16987D
3E04E367
BD92605A
BDCA92D5
3DA7AD05
BDF75E4D
BD193430
BDFF22B4
3E1D4061
BB835033
3B98CD20
3B55AD76
BD871270
BCD909D1
BE2396D1
3D9F1FAA
BE1C1303
3DCCE5F2
BC1BFE6B
BDB2E45A
BE30961F
BD372FF0
3E0E7141
3D9A9596
3E1BE6BE
3D5C072C
3E24E62A
3DE7DE73
BDEADF10
3E18E48F
BD2F77DC
BCA69879
BD5B754C
3D98BF96
BE321995
BDADFB10
BE3FE87D
BE11CE94
3D40D61D
3D45BDE0
BD4F7859
BE3D98EF
BDCC74C2
BB590BBD
BD1F9BC9
BD864896
3E09B133
3DABD383
BDD19161
BD9516FD
BB253154
BD7D5B3E
3E0016FE
3DBA34BA
BD2E4B98
3E0F9158
3D36D09B
3D648EE4
BCD3ED14
BE2F19F8
BC4B1A95
BE04029F
BDFA8DA9
3E0CFE1F
BE0FDA93
BD5DBBC5
3D4C92D5
3E10A12D
3D89BE0C
BD5E5DD0
BD292D50
3D73E415
BD844A9B
3CB21BB9
BDEAC70A
BD0D0B40
BD1CE862
3DA6089B
3D372861
BE114F19
BDE5AFA9
3E02C4AD
BE004609
3E42E5F2
BAE16617
BC17556F
BAF757D0
BD463FC8
BDFB068C
3DF62BC3
3DA3B609
BDB5DDC9
BC6ED409
BD89E831
3E178345
3E08311E
BD08CE56
BDE71A50
3DB6160E
BD7DC57E
BE1B6749
3D53DE2F
3CD526AA
BDD9035E
BB7AA210
3CD4626B
3E11816E
3E01D5EE
3E2EFFE2
BDACFE2C
BC3FC742
3D8043BD
BD14CE1F
BE2352EB
BC4BD33D
BDBC5D8E
BD5491D9
3C0C2AF1
3DF6E41A
BE1136AB
BC3F029A
BD4ADAF4
3DB97DB8
3D684A37
3E27634A
3D93E5A7
BE03F3A1
3DF6DA1A
BE19F3BF
BD8AE021
BD89ADDB
BCDB468F
BD658A31
BD85EB4A
3DCF8ADD
BD29AC6A
BE0DE993
3E0DF7F2
3D1B34BA
BE0CC760
3C96A651
BDD6A1AA
3B945B8F
3C066BBE
3D8CF202
BE455B7E
BCB83F70
BD58D3D4
BD01DA56
BC0D0A68
BD2DD45E
BDE757BA
BCD19767
3E1E8F59
3DB53CBD
BE0E657E
BE041DD6
3DE277C2
BDC54C93
BE2C9AAA
3E15F09C
BD8EDDD9
3E1521BF
BE0882A5
BE31479B
BE0FFEBC
BD8549D4
3D89D8CA
BD7D0151
BDAAF3E9
3E381E8B
BD2C3626
BE0CE04E
BD8BD20F
3DEC7A40
3E06340A
BE2737F3
3E01831A
BD0716DC
BE294883
3D60ABFC
BE261A6B
BB5111E3
BDBD4A1A
3DA39FA2
3DA3889B
BDF942B3
BE12C6AF
3DC79C6C
3D38F57D
BE003BF7
BE073C90
BD1C7ADC
3D0F6F07
3DDB0965
3C2CFCC6
3DA8DCFD
BD15166E
3B2D4F95
3C560446
3CA75045
3D7D2167
BD0945A4
3CF7D128
3C5880C1
BE12AADC
BC7F7702
3CD912FB
BD1D1815
3D4C9326
3C9AA7DA
3D000106
BDC39CB7
BD30E673
3D911BDF
3E0C8D43
3D802007
BD33E154
3E175169
3CE4D8A0
BD334964
BDBFE03C
BDAED77F
BE15B99F
BCD24099
3C95639C
3DE4DB85
BD75608B
BD149C21
3E13BAF0
BC2FA168
3C881333
3DF524AF
BD967C7C
3D8D7721
3E177F5C
BDCD9F12
BD659639
BDC707B8
3BB770DA
BE201935
3D74E035
3E107226
3DC0C7BC
BDF1E3CF
3D06EF11
BE16954B
3D47708B
3DA1F955
3E30BF39
BCC6B847
3D61EAB3
3E0F9566
BD68932D
BD56E604
BDE2CB48
BCC5D231
BB92F5EE
BE299446
BE20F592
3DCBE470
3DBDDF25
3D750CF0
3DF15A60
3CBAD840
BD4006A8
BDA3FB93
3CA4B796
3B2301D9
BDEA5990
3DD654B1
BDB820B5
3D81A965
3E3EF2C3
BE1134B2
BD0FE031
BE023672
3D8C6968
3E21A076
BE147ED0
BCFBC10C
3C6F7F95
3D3CE345
BDDD5867
BD1BBD19
3E398A58
3DCB6B30
BD9B861E
3D9A4A2A
3D3E48D8
3D1CFF50
3C6A6E92
3E1919A3
BA2B3936
3C73F538
3D9C752E
BD68B7BA
BE0C7346
BCD31815
3DBA0B67
BCF13485
3D39BE36
3D6ECC05
BDD6B6AD
3C90F7ED
BDA47E1E
3E1146DE
3E0119C0
3DAB094C
BCD2B265
BDD5BE6B
3DBE91F8
3DB01DC4
BDA77A3D
3DD4365B
3CFE7013
BDB5C309
BE284AF6
BE016254
3DF654EF
BD883248
BD8E2E31
BC8A57A3
3D9B35FB
BE21E90B
BD2CC85B
3E237D07
3D0F7D23
BCBEFE17
3CE33365
BCA6052A
3E03D624
3D0CF6CE
BE28F6A2
BDBEBE1C
3BF1E241
3E335AD7
BCD68843
3E112BA4
BDDAB3A3
BC998000
BDE00F11
3E171EF6
BD639521
BDA76C62
3D3256B2
BE13AE2A
BDA69AC9
3DF76D96
3D9E4F4D
BE2934A6
BD47656C
3D92CEB0
BD08E800
3D950E36
3DD61F31
3C182E30
BE100D58
BD00DA13
3CD140EC
3DF45F9E
BBD5D1DA
3DE93AB2
BD870014
3E181FFA
3DC12016
BD8C52F9
3E0837D2
BC9BCF1E
BE27FEB9
BDDCDCCB
BDD10E6B
BCE3042E
BDCD225D
3DE57D8A
BDEA3AAA
3D7D57A0
3E22AA01
BDC43D47
3DB378E0
BDF07EDC
3DD19296
3DBEB800
3DC5ABD1
3E194706
3CE39585
BE03F733
3DB4C8A0
BE2BF0DF
3E2DA676
3E1A8360
3DD71125
3CF7DA60
39FA85BC
3D0062E0
3DA3E68F
BDDFB7B0
3E384F5B
BE108F71
BD05AB73
BE08F95C
BD990C35
BD09AFDD
BD37A88B
BDA4DC5F
BC48EEF2
BE2A2FDA
3BBC5E45
3E09D416
3DF7831E
BDDD89F2
BE120DF5
3E2AC648
BD3B5EFE
BE3C16F9
BDA635B1
BD345F02
3E041945
3DB35210
3C80C5F5
3DF07116
3D7A36C7
3DEA904A
BE0B840E
3E444E23
3B09DE48
BDF4E846
3CD88CF7
3DFC08C3
3CB5D29B
BBAA2A00
BD706C07
3D7C244D
3E311518
3DA8CD74
BD99F3C1
3C9EC0B3
3D6C4A1F
BD310476
BE1A0C3F
BD9AFCF6
BE3051A0
BD8835DB
BE1F4477
BDC3EBDB
3C73E965
BE1CCAD5
BD3155F5
3DB913A3
3B9B80EA
BDB934BC
3C5D1D84
3B902EDA
BE36968D
3C0C7DD3
3DC83E46
BE0C0921
BDD9EAF9
3E1ECF59
3AD5BFB5
3CA88F7A
3C07666A
BDF54E84
3E036C6C
3CA41CB2
3E2770FF
3DA260BE
3BCAADEE
BD844698
3DFE6688
BDD5FD63
3D0C8618
3E33E472
3DA52FBD
3DEC9BEC
BE12A544
3DA99C92
3C8CB531
BBB64E52
3D0E9009
3E05EA4E
3E1B45E5
BD5E47F0
3E299A2F
BDB18545
BDFC3283
BDF839D0
3E073CD8
3DAC9FE2
3D66CF05
3E245A14
BE17CE94
BE155130
3D75D03E
3DA904AB
BD7845A1
3D5C6F63
3D4CE6C4
3DB38ABB
3B202E3F
3CAF2B1D
3D4A2790
BE17D637
3C784A6E
BD83789A
BD8327B1
3DE59484
BE1320A6
BD1A0799
BC7FDC01
BDBC1A27
3BDBD0F2
3E188A65
3D8B0AEC
BD948D4C
3CB725E1
BD3C9415
3DFD6C70
BD1D05EF
3D99126E
3C4EB50E
3DD817B7
3DEDF11C
3E1472E2
3CE4D496
3CB8A6F4
3E18F034
3CF0E3F5
BE0294C3
BC4FA858
BC1A943F
3DDB6796
3DE6C8FC
BDE9A802
BE0285BB
3DDB7F83
BDF930F8
BE2C3E88
3DA82494
BDA0A865
BDCFA502
BDE66848
3D70F85A
3C8357F9
BD03CA9D
BE022146
3DA80FC1
BDB71EFE
BD0F1FE6
3D3CCF60
BD2D2265
3DA9A597
BE06DDEE
3D46561F
3DDD3FCB
3D540627
3D309EAA
BD8016D5
BE2C3815
3E1A2839
BD61E15C
BE1F4BAC
BE0A2044
BE3A482C
3D6FE2B0
BE0A7ED7
BD998649
BE21AB13
3D905CE1
BE1F1885
3E112F3F
3E25352F
3E1FD9AE
3CC80841
BD872490
BA1E811A
3DF4AAE5
BE31D2F1
BD013D05
3E4C9C80
BC0DF11E
3E0B3113
3E046A03
BE2A6F9D
3C56F209
BCF261F9
3DB58FC7
BDE0B910
BE3A8D47
3CA8ADDD
3E215673
BBE029F6
BDD3B83E
3DE2A885
BD989F1E
BDD44648
3DA95372
BDA68D82
BCF93998
3D09B011
BDD053FD
BD02ACC3
BE26A2A4
3E20376C
B9B46F1C
3D76DEAA
3D6ED249
BD4ED036
BE0E8078
BD97091E
3E1D7503
BE09F187
BE1A7808
3E00241E
3BD05435
BBE9817E
3E2CB3DB
BE12B8C9
BD491BEE
BDC0C26C
BDE7ECEA
3D67A68B
BD186BB3
3E125D2D
BC800117
BC7FD4E5
BB035F5B
BE116626
BE12F32C
3D600CE0
BE1AE8ED
BDB12576
3DB97C95
BE0BF898
BD90B639
3AF483CC
BDD8009A
BDD87124
BE2AEE75
3DE86E5C
3E12BFA1
3CB3F970
3D8C2FB0
BE29A352
BDDE75D5
3D683BF1
3D1A09CA
BDA61DC0
3CEE03C2
B9EFFCFE
3D1047E8
3D3C3AAB
BCE8D4B5
BC966D43
BCC4BAC3
BD9367CD
BE089073
3D484DB2
3D178001
3BC4FE2B
BE27BE7D
BE249662
3E0DDD74
BC9BECE0
3DB5AB0A
BC85C25F
3DBFA220
BDA54D0B
BDA1FDBA
3CF3F30B
3E0B0904
3D6FFA7D
3E11F53F
3DB94A98
BE20C3D1
BD040BE1
3D3197C4
BDDA7304
BD105501
3D1010E3
3C9B0BCD
BD15044E
3A841D00
BE174DCC
BE1B990D
3E2D642A
BDD8798B
BCF49F49
BE26BDAF
BE1A9BEC
BBE9EB5F
3E06A8BA
BDAA09BF
3CC4CF43
BE27FB67
3D8D7C2D
BD4EC138
BC0ADE2B
3CF2B6B4
BD3E3C53
BE0D8ACD
BB9F1DE3
BCAC756A
BDFF06BD
3D1BFF79
BD125FCB
3DE893AB
BE1866BE
BC4DB9E5
3B1ED566
BDAE5DBD
BC5D5083
3DE67B6F
BD443B31
3E221C35
B9FCBDA7
3DAF6642
B8F331F4
3E032BE3
3D77C951
BD58DAF5
BDBE47BD
BE2D40CB
BDEEE47B
BDD9575F
3E1C695F
3E2D617F
3C9B0010
BDF706DE
3DA5A193
BD8A5062
3CFCE89B
3E010D00
BD37D6AF
BD6E3094
3E2014AD
3CE54F30
BD207E18
BE1A687E
3C1420C6
BDDA5899
3DABB36E
BD977D80
BD764C3F
BDA8474F
BCCEE518
BDAE3457
3E1F5A17
3C92BDD0
3C3A36C0
3D31D627
BD5CE5A4
3BE56D20
BD7858A8
3E2F4EE9
3D4B5FD7
BC85B542
3DD56A4A
BD9CBEAE
3DE6130A
3E09F209
BDBF0819
3E1D73DB
BC4AE910
3E2A1733
BDF29CC5
BDAF2975
3DBCAEDA
BE1BA4D3
BD911123
3D78BF24
3CD1E930
BE1193EF
BD53746A
BCD972B8
3B83B8C0
BE047737
3DE65C00
BE2F83F7
BD81E481
3D8A6741
BD23113C
3DF7C9D6
BDC12A34
3C0269E2
BD9E0FCA
BDB280B8
BDFE105E
BE15F4BC
BDB81936
3E0B6922
3D472E55
3E131769
3E0C1B03
3E24C2AF
BDCBE056
3E0D9A1B
3C9840D7
BE20163C
BDC3FADD
BDEAFF51
BD655147
BBE041E0
3CC47A3E
3E0B680A
3E08B2DD
3CE8BDCD
BDDC119A
BDB54F4F
BE2C825C
3BB5778B
BD041F65
3DEB6979
BDF43267
BDF92955
3D17567C
3DB19DB0
3DA551B0
3DE8F482
3CD896E0
BD96180E
BDB138D1
BCCC0556
BE1957D7
BC94BC4B
3C8F1950
3E28282D
3DA60C18
BE279BB0
BD0966D7
BE2D019B
BDBA96B1
BD3AB5F9
BDBC48F9
BE213160
BE0C6881
BE0B0BA3
3CCFB91E
BC1D86A9
3E2C8EDA
3DCF64BF
3DB47E5F
BE1ADECF
BE0B9CDA
BE0C9DBC
3D0E804A
3D91E958
BDB29900
3E143822
BB8C4556
BE1719EC
3D6632D9
3DBEF860
BD9F7C7C
BD252250
3E1FAB4D
3E138884
BD9BE58B
BDC5402A
3DB235BA
3DCB6600
3E292E24
BCF2F039
3A309400
3C48D504
BD361756
3E15F2AC
BE2828E9
3DCC6FF4
BE145A7E
BE0F17A6
3D82FF59
BE21C7F8
BD01C7FC
3D733684
3E059CFE
BE24F922
3E1328C0
3DD4413E
3CEB0BF9
3CE6D982
BE2D1FAA
3E239C5F
3E245EFE
BDAA99B6
BDB799AA
BE15819D
3D41B372
BDC132AB
3D68EBBE
3E1635A5
BC7DAFB3
BDCACB2F
3E15F820
BD5BEE3B
BDBE2B74
3D3AE692
BDC67F03
BE02B1CA
BD7FD4BB
3BAA20AF
3E28795B
BCCF1612
3DE18B5A
BD1D7BC5
BDE29700
3D5296CE
BBE45B98
3E2E2DF5
BDC4F513
3E18E26B
BCB33C93
BDFA721D
BDE37B3D
BCBCEA4A
3D8F221C
BC975A04
3D5BEB88
BE2418D6
3DCF0888
3C994E97
BDB1C50E
3D871B36
3E194B19
3DB78377
BDE26B53
3E2F9C4E
BD0EB75B
BBAC618C
3E4E235E
BDCC5B3A
BC3A4F13
3D91539B
BE2947B6
BD448064
3E12EC75
BBCD4088
3D2C6EFB
3D670C65
3C761B5A
BD68D9D2
3BB67F94
3C29E325
3DE3F2C9
3D1FD1E2
BDC7FEB6
3D5F20C6
BE030CAA
BE13BDC5
BB92A63D
3D927B19
3CAB6592
BDD844B7
BDFA3C55
BC350D9F
3E216C69
BE1083FE
3D3FBD5C
BE3DC5CF
3D87C014
3D9EFB46
3E069811
3C4C85F6
BDDB616D
3D666B62
3E1031E6
3DA7EB41
3CE03CB5
BD6F6E8F
BDE54DC5
3E258B3C
BDC32B1E
BE1378F9
BDF928A6
3DC158D5
3D786340
3DAF5D37
3DA31E49
BDF04214
3E1C696E
BCD114A7
BC3D7738
BD86689C
3E125D3A
BD0A1EBD
3B26D318
3D084C64
BCFCBBBF
3C1465F7
3D71BA8B
BDC163D0
3C86E03D
BE36DECE
BDB6220F
BCF9B6BC
3D9DFD75
3D58F982
3D189628
BD7EF36B
BD1E6F9A
BD6F1969
BE2AF4E9
BDA81FEE
3DB85883
BDAC3B61
BD10A95B
BE17F1EB
3D74081C
BC5D30CB
3B970B43
3E251AD3
BD3B5053
BBAB9263
BE3BBDAD
BDFF7C99
3E12E7C5
3D01C4BA
3DA2DA32
3D7055CC
BCC2BA72
BE1C42DB
BDCFFBAC
BE22F5CB
BDC3FBB1
3E03B40E
3D83B490
BDAD63E9
BD827B7A
BE003DE2
3D96C688
3D58A8FC
3D777E41
3D2A2164
3E221A79
3D866797
BE2D8332
BE26CC75
3E109301
BB167B59
3E22F206
BE1328B7
3D84DF35
BDE85D1D
3BFEF743
BE2FFADC
3DF98C04
3D921D72
3DE13151
BD6BB50C
3E1DB710
3C8AA55D
BCC330BE
3E0DDF44
3DA92136
3C89426B
3D901B06
3E1F4798
3BCFCA77
BE038B4B
BDC354C5
BD1FC9AE
BD6585E7
BD746E12
BE2841C9
3DB0947D
BDAC5156
3E3BA521
3DA5AB20
BE054EA0
BC2B5CAA
BD2FB4D1
BDD5978E
3D4F6047
BDB357E1
BD53A536
BE173200
3CB80B94
BE21DCA6
BE1925AE
3D6B0A40
BD021920
BD9F26C4
3DF89E55
BE1D505D
3DDA066B
3E2905E0
BDA02069
BD2CE206
BE25F98C
3BAA5AFD
3E3B9EDD
BE09DED2
BDDBDB64
BD70ED81
3E3CD1C3
3C46F263
BDA60C9E
3B93882B
3D618921
BC9F5388
3D830517
3E1B7C9D
BD6B0EFE
BD4CC991
3D235EC8
BDB5A072
BE126D02
BD91199B
BD9A4773
BE23AA4B
BE14C045
BE3A275A
BE103D2E
BD6957B3
BE1E23B2
BDF3145E
BD019189
3D8F92A6
3D0F3E2F
3C0483CD
BE12EAE9
3D7FBFDE
BD4EA2C3
BD43B0F6
3D8019D5
BE0E4B5E
BC8C26A0
3D03B54C
3DAF7195
3DC2E639
BBA939C9
BCD74E72
BDE0A56F
BD4B2E5A
BE182175
3E50CE02
BD1E4B53
3DBC07D0
3E2B306A
3E1C3B35
BDF32566
BDEC29CE
3DBA4D45
BD3F0B59
3E195637
3D827BFE
3DABB574
BE17BAC1
3DF1AEEC
BD927A71
3D3FF364
3DED75BF
3C608AF1
BD905294
BD14AA94
3DF3C79D
BE1F5AE2
3C468FED
BD46A1E4
3DFED7C2
3D0533DC
BE11D79E
3E1AA182
BDD52332
BE2DF218
BDFA0E73
BD245DD9
BD4A4836
BDC6C40C
3E00F75A
BD503147
BBB376AD
3E1090AF
BDDAA8F2
BDE2EFB6
BE30A475
BE066284
BDB7D492
3DC18B6B
BE1A133A
BD0FC4F4
BDEA7840
3D84DF05
BE1E60C6
BD86FD55
3CF96838
BDB5397F
BDE19782
3B4DF0F7
BE2A7269
BE0B00DA
BD55963C
BD5C11D7
BC93A230
BC0AB1D1
BDE99265
3DD3A47C
BD34D113
3E0E8066
BDD88BB9
BDEF3FB5
3D98A5D6
3DFB208A
BDF37576
BE10E3D3
BDE3EEE9
3E0668FF
BE2A68EE
BD91A1E6
BE22B865
3E0811CA
BE04ABF6
BE2257CA
BDC4A267
BD1AF282
3D8310D5
BD9F1058
BE12BFAA
B9C2CC1E
BC00A11E
BE1021E5
BDFCC53A
BCD96255
3E298E68
3E25AC7A
3DA02CA3
BC9A298B
BDB9D531
BE131727
3DA6CD4D
BD3EF771
3D93AE8A
3E412081
3C50BA19
3AF01A1C
BD7488E7
3E42BC0F
BD8769F7
BD03F40C
3B918FF5
BE15B345
3DE13219
3E1EB89A
3D030B29
3DE414DC
BDF0FF87
BDBB6E2B
3E3E7537
3CB40F26
3E177D37
BBE83CDD
3C828422
3D9A1730
BDE2CA9C
BD984999
3E01D41E
BE1F2417
3E2E8DD3
BDBBC74E
3E07847A
BDFEE71A
3DBFE0EC
BE04F241
BD4A9B85
3DFC579F
BE1E2261
BCF1B68E
3DB6CE89
3CB5CD75
3E1DFDD5
BDB58BD6
BDBAA358
BE10E913
3E0B6047
3D61A2C4
3DF293F0
3DDD2FF8
BD00CD04
BE254A95
BD163317
3CC4300C
3CCFC6CC
BDD65AE1
3DEEFF41
3DD10D87
BC625378
3DE6E311
BDA4A6FA
3C7B434F
BE02785B
3D861CFB
BE08FB20
BCE78F58
3DB21840
BDF832CD
BDCFC2C1
3DFC831C
BDAA1D1E
3DB15039
BE1A1F76
3D831A6C
BC7A0E17
BCD5E128
3DB1663D
BDBD3799
3D0E952D
BE2BD349
BDEC704D
3E259A80
3D3C1D8B
3DD3DDEF
3E00FF0C
BE1D7279
BC962940
BD273A9B
BE27E97F
BA06798F
3D9795DD
BDA8AAAE
3DA6B2DE
3D651160
BE3C4D2D
BCD1CBC0
BE264EC9
BE021B55
3DCCCF56
3E19B201
3D8FF9F6
BD387D84
BD8E4FEA
3E098E4F
3E20117F
BE040F63
3D554944
BE23382A
3D99D157
3D681FBE
3DF43829
3E36AA95
BC26FD3B
BD2A8FF0
BDCDB4EF
BD62CBA3
BE09FEEA
BE41C6B6
3DCE422E
BDA6CB88
3B3DBD24
3D659685
3E15620A
BE1707B8
3E1B32CF
3DEC6848
3D649E27
3D85748E
BD0FF17F
BDDE347D
BE0F0752
BDF8C4B9
BE0DCB28
BBEDA0DA
BE0D19F1
BE4B063B
3D3B4142
3E0F4A3E
3DCA01EF
3E061A6A
BD07720D
BC0A8AA9
BD552B66
BDDF2FEF
BC8DBAEF
3D0F4344
BD719044
BDF563C4
3E0C1E14
3DCA30C2
BE0E9463
3DEF75AF
3D81359E
BDBFD8F8
3D96DB78
3D90A6C3
BDC1C0F5
3D2C83A8
3E0E67F4
BE114FDD
3DAE8AEF
3E2731CD
3DBC3B7A
3D99AFAA
3E32B4E9
3DEC86FF
3DC37279
3DA0AFEA
BE1100DA
3D764AA2
BD6FE140
3E2C3A10
BE11CA76
3D415264
3DCCB38C
BDC17EB1
BD2BA38A
3D82C790
3E2EF0B3
3CE82004
BC3E082D
BDC95CFB
BCDA2730
3DBDD4F4
BD69B964
3C5285F4
BDC7C3A2
3D814678
3CEB89EA
BE080498
BDA02A69
3E07EC88
3E03BE41
3D884BD3
BE1E5319
BD084438
BD291D2F
BD3FC622
BE091CC4
3DA9ACA2
BD82541E
BC5882C4
3D6FDC59
BE4214F6
3C857522
3DE3B40A
BD768B7A
BCBE3C92
BD940DDE
3DC0D7D7
3DDB8576
BE1FB287
3B6CD3C6
BE1AE5C1
3DC39E49
BC82E4BE
3D9DBE4E
3DB29C99
3DB428F2
BD5514F3
BCE206B3
BE0E7D91
BD7A2B8E
3C7987BC
3E061C13
3D95B5B1
3D4EF459
3DF20E65
3DF82D9A
3D8FC53A
3D6D9F11
BE292CA3
3DEE9F44
3E3BFC0E
BDA078C8
BDEDEB7E
BD61AEAD
3D59F83A
BE13D6F8
BDDA8B95
BBC46A1B
3CFC18AF
3D2B1466
BE08F7F7
BDE91ECC
3E250B78
3E09F5BB
3D90FCD9
3AF22CC7
3CECAF75
3DDB07F6
BD9911DB
3D87CC3E
BE3F6073
BD53DA12
BCA58F91
BE03752D
3E39CE66
BDFF3D8A
BDE097B3
BE11C6FE
BDF1F2AD
BD8F84AA
3C6CD0C6
BE229EC5
BDF69025
3DB4B250
3E0E98E0
BD177691
BDB23298
BDBB1FD3
BD7F491D
3DA1402E
3D47B373
3C47247F
3BC71BE8
3E27E1F8
BDE5E7E5
3DF669FD
3E0585A4
BD1646BB
3E41AFCA
3E2D93D0
BDEFE895
3D0E3005
BDA5B35B
BD97014A
BE0427F8
3BD6C3DE
BD959875
3D4C8024
3D00A9A7
BCDB0367
3DAB0BD4
3D571758
BE0DCDE6
3CEFCAAC
3BA48A33
BD5BA3F9
3D7ED8E6
BD299AF5
3D171DF2
3D5E8328
BD89A715
3D3DB431
3DE643E4
3DCB8B0F
3D0FA0B9
BA86ECBC
3E2DB39E
BD2038FF
BD94ABF4
3C9D8ECA
3C2754FF
3D55607D
3D259748
BDB645F2
BE206947
3B9FB593
3D49D7F9
BCAD1A58
BE4B22D0
BC8AEB38
3DB955B8
BDAB910A
BDBBB295
BD4B4C4A
BE156AAF
BDE6C276
BDED219F
3E00900E
BDA1B69D
3E2314DF
3E2E6697
3CECDF3F
3D9150EC
3D84AD48
3CCDCF8E
3E025FDC
3E2FB0EE
BC1268AA
3D0CE3FA
3DE37A73
BD9E11C0
3E05EB43
3E043373
3BEEBA59
3D5B981D
BBF31CC8
3E16FE90
BE21D534
BCB9CB74
3CF7643B
BD865469
3DED0837
3DFBDF2E
3E492A2D
BE22687D
BCA2447F
3CEF0457
BE1EAD4E
BDA2E740
BDB65DBF
3E2D77BA
BD08E07F
BDDB24BA
3E2C7904
BDEC7015
3DEB6C75
3CDA7F5C
BE2B4489
3E11C29E
BDD55FDB
3DA2B61A
3DBAE6F4
3DF4C85F
3DB6C610
3D7C0174
3C811081
3DAACF1A
3E0C28CF
BE2029F3
3E2CC1C7
BDE9633B
3DE91726
3D98876E
BE30861A
3D944F9B
BDDDA176
BE0C2551
BDDCB3F9
3D5F1903
BBD5F8AE
3E1491E7
3DFF29CE
BCD7264B
3D973BAA
3E5073DE
3D965F34
BE21AFAD
BDAA2287
BDC5A986
BDFF0C62
3DDC7C96
3E2786B9
3E131BF0
3E4CE43B
BE21314A
3C18A419
3DB5CDE1
3E104342
BE2CE922
3D88D4A1
3E477CF7
3D5F038B
BDFF9BF3
3E327F39
BDB681A7
3DC705BC
BE107F98
BCEDC068
3E2DC180
BDEEF66E
3D89FE28
BD845794
BDC238EE
BD527929
BDE4FAE0
BD948CC5
BABD2CF2
3D74F959
BDA0D7F6
BD89DFC8
3DB59B44
3D4CD939
3D47973C
3D6E089D
BE1ABC14
BD98465C
BE1AE9DB
3D869C6A
BBD325DC
BD37896E
BD9B1CC0
BDFC1C8C
BD9D3E6E
BDA498B3
3E0724C4
BDB46E7B
3E4BA1C3
BE15622B
BD9F2A3D
BB853724
BD64350C
3DD8AEFE
BDA604D7
3DBBD9EA
3E10C5AC
3DC422AD
BD43077B
3E23BFC1
BD5931B4
BDAE9A14
3DB82662
BD93996F
3B521190
3BD98594
BE16F6C8
3DF259E3
3E0EE1C4
3E247D67
BD392AF9
3E04D495
3DFBE6F0
BE0DF441
3E022CEE
3DB12A8A
3E1B5BD8
BDB16DA6
3D81F2D3
3D0D7C0D
3C4C6F02
BDF864BC
BD0CFBFD
BDECA1E3
BD921119
3D933A7A
BCFFB9A8
BD936D5E
3C89F328
BE0F1B33
3CE67C70
BE32B42C
3DF8B312
BE2A418E
3DDE5AEA
3D3C9C89
3E0A4FD8
BE27FCC0
3E0A3481
3E244DAA
BDB06046
BD840EF9
BD348AE6
BE2F5E2C
BCD1B222
BCC68ED3
BDB82801
BE071C62
BD8CA1DD
BDE89C0A
BDE15D8E
3C209A83
BC2F8032
BDAEEBB3
3E256265
BCC4F92A
BD8F10F3
BC94C80F
3DA0B2CE
BD3DDF9B
3DCD527B
BE16EE44
3DFC040E
3D6E3B0E
BD845113
3CA7464A
BD349172
BE0BC8FA
BDA49DCA
3D931C7C
BE06F15B
BD582816
3DB49D73
3D830871
BE100BFA
BDFA5670
3DD848C4
3C233B8F
BCB60167
BD4E848C
BE0CF1FA
3C9E034E
3DDF72C6
BE031C5D
BDEE12B4
BE154AD4
3E175867
3D9B25FA
BDDA4FC4
3DA46741
BE03947C
3C7F4752
3D8D4926
3D738F81
BE248286
3CF44128
3DD24BAA
3D9F9EAB
3B98EFAF
BCDA5090
3DCCC013
3E182CF6
3DD3F59B
3CC1DA40
3B4C1CAB
3DCBA614
3C2B4377
3DE07A58
3D1219A7
3C0DFA26
3D289CC2
BD30B8E0
BE281B4F
3BB7BB74
3CEFBF5D
BDE25613
BE07832C
3E11F146
3DF7DB5B
3DB335B0
3E2C15E2
BC1D760D
3B26EE23
BD3B6A3A
3DCE51D2
3DE99DFD
3CAFCF11
BD89C2FA
BD513B92
BE182ADC
3CE0C725
3D77FECA
BD6BB60D
3E387C33
BE076F71
BCCB030F
3CF57122
BD85B174
3D6FF185
BDEE25DE
BD016F44
BDC8BC99
3D820D2B
BE0562CE
BE1B9932
BD922C83
3E14154D
BDC29571
BD24597C
3D924B39
BC058294
3DEC2886
3D93A66F
3DA2598B
3DB8638B
BE03C6DF
3D73373E
3CF38F8B
3DBC274D
3DAF44C4
BE1F1563
3DED7E75
BD826482
BD61918F
BC8FB4E9
BD047669
BD8AE3BD
3E2F5241
BDD35CBE
3BEC0BCC
BE218705
3E049C75
BCE2F846
3E22E894
BD822FD4
3D206FB6
3DAFDF35
BD4BC3EE
BE26A19B
3A992378
BD783873
BDF1D1EE
3DA55B96
BE049E99
BA25922A
3E1DDB4E
BD9840CF
3DD3D661
BE156428
3E136D4E
BE313442
3E0AF2EC
BDC559CC
3E222D84
3DBC9B79
3E17DBD6
BE293B7E
3D920DE4
BE02A209
3D5D2ACA
3E0B0413
BE2A0B35
BB320686
BD974693
3CD36869
3D9361E7
3C49F5FC
3E0A73BC
BDB41F6E
BDD3DD17
3DC265A8
3CF046D0
3E022C31
BE22FEE4
3DA72FE1
BE303C9B
3D44AA7F
3D8BCBD9
3E2D98B9
3DEF392B
3D84D739
3C54C310
3D389372
BD3D31BE
3D9B3D5E
BD0B5790
3D4ACC92
BDCF215A
3E1834BB
BD4C7A34
BDDA932E
3C9C22A7
BE221058
3CFF7022
BD34C601
3E0556DA
3D09EDFC
3D6234C7
3AD3DDD0
BDA29FAE
BD020C72
3D14D782
BD998DE0
3DB736B3
3D90E08B
BDA8ED42
BD125EF0
BD3A34A6
3DA90F1D
BDC9094F
BD82F20C
3E06BD33
BCE72473
BE372684
BD498C14
3B932ED0
BDC428EC
3E0B9DF9
3DA27FCF
BE08C763
3D7866FA
3DF5CF16
BD7E55EA
3D69B2C6
BC5E4423
BD4BB3ED
3D3C0759
BD774038
3D88E9DC
BDC2D15D
3E4ADBE4
3D334E6F
BDC0448E
BDE8A208
BD2EAE63
BD8A7CEF
3DFD99A2
3CE8D9C0
3C8A6C4C
BC72FAEC
BB5521B0
3CB4FA4F
3D5419BB
3D774299
3CF17092
3D30990F
BE20FB09
3D6A8E7C
BDF07CB3
BE25557B
3D5C2094
BDF025CA
BE27BCA5
3DE79966
3E02C313
BDA79780
3E09FD39
3D91BDE3
3D9CA141
BC889AAE
BD263194
3BF11419
BD0ECFE5
BD8A2DCC
3BEDF409
BE38E713
3C4E2F46
3DC3FE61
3D1ECCD4
BE1B8C1F
BDDDA9A8
BD637999
BDB36316
BD8CE0EE
3D2D1AF6
BDB93056
3DECA8A6
BC3D7C81
3CC3A771
BE1B766A
3E27F24E
BDB1BF6D
3E25DF18
BDB621F8
BD625D2F
BE2B1167
BDB2F90F
BD862F8C
BD2B7E79
BDED53C3
3E1BD317
BDD6DF34
3E50887F
3D12B0F5
B867268B
3D1F4003
BE1B3811
BD993224
3C6042E0
BDA5A71C
BD873C7C
BDED1A3F
BD965070
3E2C52EA
BDE4C609
3E0EF5B5
BD29B647
BCE4873F
BBF846B3
3DC0152B
3CE6DCAE
BDE46EDD
3E0AAE1C
BD8D563F
3E25F677
BE0F120A
3E36C353
BD3363F7
3E3286A0
BDDC51B0
3D23B5D9
3E3E4F3D
3DAFDAEC
BD575D39
BE3E6678
BE2B9460
3DDDB1A1
3E111D4F
3E1A8F02
BD4C5FAF
BE01D95A
3D922E6C
BE2966C6
BDBBA8FA
3D59D491
BD05475C
3E1012CE
3E0E7FAA
3E355248
BD15DB72
BAC3DAAD
BE32E637
3E404A57
3E263D94
3D3A3430
3CA801F8
3E21A5A1
3D9873D3
3CE5D709
3C9FC2D5
BE1DF046
3E1C35AB
BD87D877
BD2A29D0
BC389095
3E1DACEB
BE2C45CB
BE1C5FA7
3DC890B6
BE09630D
BE08F645
3CB0AC3E
BCA639E2
BB473C4F
3E373481
BC896C54
3DA9360F
BCB54D25
3E0820C3
3B339FA2
3D100F7D
3E1943DF
3D342A93
3CBE1377
3E022B35
3DC547C7
BDDF4651
BE283E1D
3DBAD0F0
3E121210
3E1C665F
3E19A084
BD8E67ED
BD99A7B3
BE2408D5
BD27068B
3D537D3D
BDFCD118
3E028717
3E0F6CBC
BE495DE7
BE112E23
3C660689
BE1BD889
3C5154B5
3E1CC33B
BDE07F45
BD6F4BE9
BC9AE64A
3A00A3C9
3D48F458
BDDF54DB
BE11268D
BE0DE2AC
3DAA7C44
3DA94E7C
3E0E538D
3E10C40D
BDD2504E
BDEE7ED2
3D62B415
3DBEBE63
BE1FFB0C
BE2958A8
3DEDF216
3E0C2323
3D8766A9
BDAAF5F8
BD521E92
BC9EFF84
3D835F92
BE11FF34
BCF79B1D
3CD28665
BDE8DF5C
3D9F4D8D
3E1D3F1F
BDD6C283
3DD27846
3C900775
3D13B17C
3DC5237E
3E164651
3D4A427E
BD9F50A8
BD3E201B
BB945100
BD93C1EF
BDFC54E9
BE17726D
BDDBB714
3D88AF2C
3DE965D5
BCE208FA
3DC43475
BD5DC386
BE118436
3D10C9C1
3DA49B8F
3D81240E
B8DDC62D
3D9BC0BB
3D5B3F41
3D96DC85
3CA358B0
3D82DA19
BD3592E0
B99DAEDD
BC8A7980
BD71A6CA
BC8479E9
BDF8F4A6
BC7A8B4E
BE22152D
BD450CB9
BDAC859A
3CE5E518
BC7A450D
3B7958D7
BDDA5BD1
BDC781BC
BE075377
BA9F4029
BE2A2CCF
3E1E8AA2
3E25F83A
BB84D292
BC7A87FA
3E09F155
BDF9B52A
3E11A1D5
3BE44E79
BC846453
3DAB0960
BD096A28
3D24131A
BE22002A
BDDA64FE
3CFDBB56
BDED3A1C
3D8240AA
3DDDA7E0
BBB283D5
BC1B8CAE
3D4C374C
3D3FBA0E
3DC5B740
BD019FC1
BE213F40
BCD19215
3D6E0A86
3DB87203
BDB9A6E3
BD5E2B47
3E26F65D
BDB4DD02
BE2F7A24
3D7967EB
3E00F546
BDDFEDE3
3DBAD2D8
3DF08BC4
3DC59F2E
3C40E992
3E245DCC
BDEDBB7F
3DCE2292
BD8BE8BC
3D30673F
3DB2246F
BCB1D2B0
BD5469B0
BD4BE44A
3D4F4733
3CD6AE5B
BD83D623
3E046DAF
BDFCFFDF
BE01BCA9
BC9AB3D3
3D9B0525
3DF01042
BDC84D57
BE3C3482
3D26A7EE
BE0F3DC4
3C030553
3E221739
3DF18C99
3C163A18
3DEF3CAF
BE1522E0
BDB47870
BD476575
BD3D2F8A
BE2FA49E
BC26FE78
3DFF21FE
3C89B0A5
BD9868FB
BDBA70AD
BD671C9D
3DBEAE22
3DE6F4AE
BE038ABB
BDA5E79C
3DC17B01
3C33B89E
3E36A4F4
3CFDCBDA
3DB429FD
3DD0DC15
BDA6225F
BD967F94
BE31EFBF
BE03FA0C
BE21A49A
3D46C161
BC39BFAB
BD1076B7
3D18EBD6
BC937BE3
BDCBB9CF
3E37E4CE
3DE15439
3CB2805A
BC84FFE0
BDE18EBA
3D41CAF5
BDDC658A
BD5DFB58
BD1D6A07
3DA239C2
3DF0D840
3E1AAD8C
BD8ACD70
BDD5A8E1
3DC6776C
3D0D8E90
BC977430
BD6EF0C6
BCC94369
BD19D46E
BC72DF53
BE2DB928
BD55F658
BCB86B98
BE218E20
BC41D6A4
BC4775F7
3D2BD27C
3DB1C1A8
3DDCBE5A
BE20DE57
3C1D6614
3D371B94
BDD0697D
3CD314F8
BE2E89F0
3CEDFD40
BD641740
BDE88CE7
BD56AF10
BD0B73ED
3C632F5D
3DF43213
BD95E612
BDFCA2C7
3E29C4E5
BD82966F
BDAFC08C
BE07F329
BD5759FB
3E09FBCC
3D9AB3A5
3BF7B320
BDFB7763
3D728B66
3E0E1508
3DFCD782
BCC19AF8
BD785F72
BDC80930
BD5F0DD2
BDC008AB
BB43BE65
BDF76F79
BDA9157F
3CA52427
3DE64FBF
BDF616CC
BE189EAA
3E1902BD
BD705B97
BCB6029D
3E13D2CC
BC8C03CF
3E10064D
3DE959F4
3D018694
BD55A92F
BA34E2E2
BCA3E355
3E1F1E7F
BE18CBF4
BD7F5C50
3D4B5DBC
BDAEFAC8
3D54CB73
3D216C24
BD53886F
3E1B8CAC
BD83ED8A
3D9A5FB7
3DD3CF16
3DC85F3D
3D8F9E1F
BE14ACD8
BD4882EF
BD049E60
BE0DB75B
3D412D9D
3D8AB6CB
3DA3A746
3DE0F865
BE20DC7D
3D8BC332
BDC987C1
BD91ECCF
3DDC65AA
BE1B9C29
BE0D23EB
BDEA5988
BE21EA60
3E18DDCB
BDAEB033
BC67BA10
39CB9160
BDAC35C9
3E0B9A8D
BE27D038
3C59F0FC
3DBA68C8
BD2842E8
3CDBA7BD
3D9CE0B6
BDD646B6
BCE4B609
3E0A0B93
3DA48054
BCBA481F
3DC88226
BE1EABED
3E0A9C1C
3D94AC6E
3DFBCF3C
BE0DE6C0
BE17934D
BE0B709B
3D93CD24
3D2E449F
BD19A07E
3D91E5AA
BD9FB17D
BD24CF06
BCAFF5AB
BDC4D8ED
3D870443
BD1B6548
3E10F480
3E073B98
BD64A3B5
3D8A542A
BDD72FCE
3D817553
3BEB3B76
3DDB8CDB
BDE13F28
3D908D27
BBA4E944
3E28EC9B
BCAE83A0
BBF5DC52
3DB92F8F
3E27AA0E
3E27F20D
3DA80FB3
3DB2840D
3E2D4B74
3DDB3D78
3C0F2E6D
3D3841E1
3E1E66A1
BB0B88C9
3CFA4AB6
3D68D452
BE0E47AD
3D4B6C27
BDD5D25F
BDC02DF1
BE224F50
BCB07034
BDE32C1D
3D84DA29
3D24A86C
BDCDBDAA
BE056BF3
BD8FEF33
3CF9BAA2
BE2CE8A7
3CC2E7AE
BDCAD282
3D7B94B6
3D47F76C
BB321FC6
BADF7385
3D00BA64
3DEDB5E7
3E2AB840
BE11A63F
BE2EB1D0
3DAFB420
3D663424
BD929DA1
3DEC52C2
BE10BEA8
3D22F12B
3DFEB7FC
BCD0BCA4
3DFDC515
BE2F5095
3D6F1461
3DF929FC
BE0F806E
BDB15A41
3E1224D1
3DD92D6E
BC954805
3D0E794B
3CBFB7FB
BD0A79AF
BCCD62F8
BDD8185C
BC9E7C69
3D8B0AF4
BC395B99
3D50737B
BE1D51BB
BE19892F
BDE1A4C4
3CD94357
3DB1B977
BC9E98C0
3D853AE8
BD09F4A7
BE275D40
BE05A5A2
3DB6830F
BE29E05A
3E1F9F64
BD9387A0
3E149184
BD527F28
BD69AD91
3D363832
3DE6F0E8
3D77BF21
3DF477F6
BE1A3914
3DA6E7FE
BB82E6C6
BD394822
BD04972F
3D457AA3
3DA8920E
BD4D82A9
3E2ECEEA
BCDDF54C
3D91A1B8
BD9BBA38
3DB60B18
3D0F2EBA
3CF2A02B
3DFA6EFF
3CE0D4F0
BE22CA76
BE0A5AD2
BBC85126
BC23D611
BD1FEBB5
BDABCD33
3E26E96E
BD7C3308
BDC604EE
3D4A4C4E
BDC5F8BD
3DA2EFC8
3DBF4C76
3E174EFF
BDB9193C
BD6CA36F
3DF79910
3DB479DE
3D834498
BD02D640
BD929A2D
BD2707EE
3D8A156F
BE05C7FE
BD1A7D1B
3D98B1B5
BE00B534
3C920444
BD259FDC
B8CF91AF
3E2EA8FB
3D5559B2
BDFA4491
BD642680
BE2D8410
BE1747C2
BC773B7B
BD0A3D48
3DBF9AD9
3DEE8458
3D857856
3E350447
3E11E000
3D2D62C6
3E23DAAC
3D73B66A
BE17BE78
BCD84076
BD516ACE
3E1D1ACF
BE3BF5D9
BE04B0CA
BDDA349C
BDE79F0B
3E241D09
BE1FC66F
BE08AB80
3E1C84DE
3C416F15
3E281D35
BD37E358
3E13FD99
BDCACC54
3C3A977C
BBFDB063
3DC6A530
BDAEB6A2
3D6374A4
BE10DFDA
BB90C726
3D23CBD4
BE12110B
BC5A98AD
3DA57019
3C2B4EA9
BDD6F778
3E43F067
3E3060AB
BD84883F
BD53605B
3D63D664
3DFA160F
BDB9768F
BCADFB8B
BC4F68C4
3E083210
3E15A54F
BE19C6EB
BD078B0F
BD8463DB
BDBDA61A
BD62AA19
3CAE25C6
3D3BBA1D
BD07AD22
3D504EB7
BE31067A
3C07E7D4
BE098960
3D916143
3CE4A4BF
3D955CDA
BD76A760
3E2D1377
3D9F1EEB
BE44957B
3E221E8D
BB284246
BDFF6D33
3CA2BD1F
BD51AC34
3D6297E2
BE130D2E
BD8C994E
BE06E338
3E2E415A
3D9E94A4
3C4E01E4
3DD44130
BDD38F8A
BE1EC0B1
BDADBE83
3E0652FD
3D889261
BE2968AF
3DAB7B47
3DBA7B4C
3D7012F3
3D237E73
3DD37DCE
BDFD1539
3E009998
BDD9EA20
BCAB61EA
3B7AE708
BE12C05F
3D85ECFA
3E23E25E
BE12019F
3D7482C6
3E094356
BD2723DE
BC8CFD37
BDBDDD24
3E05F2DA
BE0C13A6
BDB910CF
BE02A505
BDC61599
BDB43857
3D168D66
BC8F51B3
3D44DCBA
BD0AE714
3D3ED695
3D18308D
3E1D201D
3D2EE6D9
BD79A48D
BDEA6E9F
BDF6899E
BDCE80EE
3E0714B5
3DCBA054
BD5453DB
3D0425E7
3D68AD11
BE1875B4
3E42F25B
3E053C39
BD3A4FA3
BD71D18A
BB91E052
3E0BD3C0
BD73FC7F
BE1C54F0
BE02DFF6
3CD9D743
3DA55FC7
3DC56C35
3E05AA19
BDEE1E02
3DAD820F
3DF9BB1E
3D313E82
3CFCA437
BDE70EFF
BC4C4D70
3D1008FF
BE2D2C43
3DAF68D4
3E19BE8F
3E0895A8
BE28151E
BE0E05B8
3D8AC13E
3E18C342
BD38936C
BDCF4B0D
3E13FB1E
BD24C184
3E2DD8C2
BE046974
3D25EEDE
3D995874
3CCE84BA
BD35FEFA
3CD528C3
BC4D7CB8
3D1F6CF6
BE293284
3E0BE77E
BE1F3B2D
BA888443
BDA2D881
3E138DD2
BDE44A8D
3CE5909F
3E2C112B
BE00601D
3DACA425
3D984F69
3C33586D
BD79A457
BDB11A45
3C075D8B
BDD5DE97
BDED161E
3D92453C
BBD48217
BDD35FE5
3DCBBC14
3D9E6390
BC44F8F4
BDC19420
3DF2A592
BDD2110B
3DEE0EC5
BE094902
BD1C2D64
BCE2917E
BC7CAFC5
BE07587E
3D870E14
BE07C0C0
BD017CFB
BDB955FA
BE283912
BDBFBAE0
3D0528C4
BDAB46A8
BD9D96E1
BD05EDBA
3E19BB1F
BD96A230
BD1AFAEA
3E0D5F43
3D8F1DB8
3E29C9F0
BDCEEF3F
3E12F864
3E181A90
3B4F5B2F
BE05E60A
3D9C958D
BDDBAB40
BE3B9350
BC47E08E
3E0546C3
BE1D6137
BE1D61BD
BD11EB00
BDD1BBF9
BDDE75A5
BD90B70E
BDF21916
BE0C9C34
BD09722F
BDF5DA64
BCBE8185
3B6191E9
3DCBED0E
BDC376B1
3C981043
3DE75E97
3DC8BC21
BD992067
3E3E9CC2
3DAA887D
3DCB28B6
BE180E77
3D719D4A
BD9D101A
3DD63204
BDF126E9
3DF09535
3DF21C84
BE130E39
3CCA24ED
BE1EEAA8
BD348EEB
3D1A4137
BD6CB841
BE2D3673
3E1FCD1A
3D65C698
3DCDEE5E
BE1A781B
BD6AEDB1
BDE56D41
3CF38E21
3CC8BACD
3E0E2713
BD276A26
BDAA256E
3AA02B64
3E124B21
BE13EB87
BE22D801
BD4F4845
3DDA1E0D
3CC7B82B
3D9526E9
BD9189E8
BD045CAA
BDD08555
BC92C57E
3DCC04E4
3D2A5946
3DFC0FB0
BE1844A1
3E22F1D1
BC2A925E
3DC74378
3E10CCE8
3BC9BCC9
3E20939C
3E06776D
3E142E21
BE1CEF13
3CAF4A57
3D9CC453
3D1D4A59
BDB0056C
3DB52784
3DE569C9
BD9A1BCA
3D108C72
3D494BB8
BD9F94A7
3D80756E
3DA0FF2B
BDC0FB0A
3E09CE8F
3E29F0B8
3D2D3CB8
BC98D232
3C1ACC2B
3D8CE65A
3DA667CC
BDB989B1
3D62A75D
BE1C45A8
3CA11166
BCA559FF
3E1CA038
3E0B737F
3D605238
BDA4C403
BDC957A1
3D9EFB40
BD473BAC
BDA57FF0
3CEEDE07
3E110B18
BDE4BCF7
BCD91C28
3D78864E
3DA95443
BDB1AE74
BD86661D
BD5A0897
BDC62482
3DE1F7CC
3D1434B2
BE1E6B51
BD3CC53B
3DDED406
BD7D6E63
3D5BDB87
3B87149A
BDC9F6BA
BCE67018
3D81B02D
3E2D318D
3C86246C
3D73474A
3DA9FECC
BD72F8DA
BE063868
3DC2BDBB
3DC10DDB
BD20969B
BC16881D
BD76E4D7
3E14C542
BD4CE7E0
3DAFAF0A
BE2AF93F
3A3E824F
3D6C7133
BE273EFA
BE1FA0E1
BE2546EA
38D65AAA
3DB1A094
BD8A0CA3
3C21D151
BDBE5937
BE23B17C
BD932DB3
3D87DEC8
3CDB1D2C
3E2F1B75
BCB6E7A3
3CC19D19
3D0412A8
BDC68976
3DD43A67
BD247FCA
BDDC1434
BC12620E
3E1AEF89
BDCEE94E
BE09870E
3DF8196F
3CED20AE
BD6B27DB
3DEF7BC1
BDFDF14C
BE2E1ACA
3E4316C2
3E0EF2C6
BD00F11D
BD92D4E2
BCE0B6A7
3E0891A9
BDE6A25A
BE124C70
3DE21591
3D60EBB6
3D4A29A6
BE3F3A7F
BB9D3A4E
BD4326F9
3DF77B01
3C12B1C2
BE0C7CA3
BD3D04AE
3E3F4B1D
3D765042
3E22A396
3DE0572E
3E43D221
3DE46330
3E1CACC4
3C43FBF6
3CFAC570
3E16AE42
BE0F932E
3D425E1B
BE2BCB84
3B98C5A4
BDD377C9
BDDD2E86
BE18F33F
BB8A9EDA
3E189E6A
3D0DB1EE
BE26B34E
3E2440AD
BE087859
BDFFB482
BDA93D99
BB2A177C
3CAD80E5
3DC683F4
3E045C5C
BE1EC1B1
3E1296D3
3CDEEB58
BDAB726B
BD861B9E
3E46F014
3E0DD68D
BE268723
3D0245A7
3DF19700
3CB869F4
3DB46C78
BDBDDABC
BDC25C69
BC936FC8
BD432011
BE159A14
BD1D46FB
3DD779BA
BD224E14
3DA490FE
3D518BE0
BDCA635B
BD4DC929
3DD81207
3E1ABFBB
BDE3C59D
3D85EFC1
BDD028F6
BB7595DC
3DC8D6B1
BD879EF5
3E25DB1C
BE30C6F2
3D30BA36
3E290271
3BA1EB9F
BE28A40B
BC43464C
BE1A1AA9
3DB228C4
BD315AC4
3DE30993
3DFAD0EA
BE273625
3E01882E
3DF647FF
3D2B4AF4
3DB304F9
BDB46475
BD5CBCC4
BE07484C
3C9E3E82
BDFA5ED7
BC8EF91C
3DBB4E75
3DF878EF
3E0DBED9
BE0DF60B
3D99C877
3AEBC29D
BE1AB9A5
3E2D03FC
BE0C6720
3DE1C369
3DEB24AE
3E21914B
BDF11150
3CB6500A
3DCACC62
3E025F56
BD8682A3
BDA4DD00
BE04737E
3DF67C0C
BD8EE4EA
3D1FB534
BDC72723
3CAF2E30
BE103DE1
BCFBF49F
BD2C646F
BD914AA0
3DD84652
BD2FB8BF
3DDDBAEB
B9A5316F
3E0BF14C
BE1F4C79
3E1BBE7A
3D9C28C7
BD14DE2D
3D054E71
BDE7D35A
BE352136
3DDF3CDB
BE083348
BDD8E5A1
BD0A234D
3D3FCC14
BDB837B4
B9A342A5
3E1920C9
BD92BEF5
3CF14F4F
BCCF5DC8
BD8609B7
3CED3F75
BDF19389
BDA202A1
3E1B768F
3D9EEC92
3DCA16A4
BD235EEE
3D3C7FB5
3E687879
BDF177F3
BD87B12B
BD4BD529
3CA9AC58
BDE5D2C2
3D990AD7
3D1E91C9
BD5963BB
BDC0D156
BD997FF1
3D272E29
BD01B870
BD9DE13A
BCAA8577
BDFB77A3
BDD4CE09
3D9557ED
3DF0E3EF
BCAB0153
BE2E8B1A
3DDF84CC
BDB15E14
3B8E0548
BE3A83F0
BD35D7A3
3CB6D1B1
BE2ED559
BD114DD7
BDF84027
BC80DB07
3CAD25C8
3D382B2B
3E323408
3DC6AAEB
BD7EC7D5
BDA2DCDF
3C5FB97C
3CB92A95
BE0BFE04
3E03D6ED
3E28AC6B
BD722775
3DF94E4D
BC90E331
3DC52C3A
3C1717A8
3D239457
3DB048FB
3D8E9B6F
BDAE1E9C
BD1F0267
BE47C7F6
BCCC3F74
3CAC7BE4
3BB29AA0
3DA927D2
BDB2ADB7
3CC1D4E8
3DB38377
BD636059
3E2D1D8D
3E00A65D
3DE3390E
3DBE9D2F
3DC9433F
BDAA1409
3CCB003D
3D8A6277
BE4A27CE
3D1DF0DC
3C684C20
3E00602B
3E1ED369
BD873D6D
3D87AA34
3DB67445
BE10D484
3DEF581B
3A9CD20B
3DFB581D
BDD1006D
BD99E3CF
BE2B7F8C
BD1B2799
BE2B741E
3D600F09
3E139F01
BCF8D274
BD1AA28F
BD7901BF
BD72AE1C
3E1603DE
3D38DB66
3D9E1338
BDC4B3D3
BD14736C
3E25015E
3E107AFC
3E16ACCE
3E19C05C
3E08C741
BD4A1F8B
3DC8900A
3E37A323
3C9CD1F2
3E40216D
3D06338D
3DB3DB9B
BE10FDEE
BE2C7B69
3E146CA3
3CE28C2C
3DC57707
3CAC3C3B
3D3170CC
3E05DB95
3B9BDE8F
3CCB2DD2
BE174316
BDDA2476
3DA503E3
3DD5931C
3DD9D532
3E0E364F
BDC71492
3D4BA00B
BD7F9CDA
3E14261B
BDB058A4
BDBCDCEF
3D8E3995
BDBE2AEB
BE285320
3D8EECCC
BC73EB84
BD3D9264
3D03630C
3A9474D3
BE05E6AD
3D9B606A
3D87DB37
BE0EC896
3DC1C418
BE24C81C
BC80E49F
BE06DA81
3DCAE999
3D5204A1
3E0A91E1
BDC679F6
BE1AD91C
BE1DDEC7
BE08B424
3E0BD6F5
3D305639
BDD76063
3E00F865
BDD651AA
3C7BD042
BDEEC183
3E073176
3DE24224
BCC3BB51
3D9DD551
BDAEB9CA
BDFF3CBE
BBDB0832
3DD4F966
BE212127
BE2638D0
BC1CB0E0
3C9B7FA1
BDCBB1AA
BD9B6ED4
BE2E2589
B909548E
3D36A5BC
3E14D61E
BD79509A
BC414421
BDA437D9
BDDD71B0
3C9531C1
3D85820F
BDE98063
3D783C76
3DC095AF
BD3897FF
3C5E3430
3E107E1A
BE35040B
BE12FF3C
BDF5ECE3
BE0753C3
BD6E2818
BD07149B
BE114F02
3DEA32D3
3E2CAE34
3C891C29
BE0E23BE
BDA6C717
3D0DAD02
BDA478BF
BE040290
3E24E3A4
3DAF1478
3E09D2E2
3DC29234
BE15559D
BDF07EF0
BE31ED56
BC39CFDA
3D2B50DA
3BE5E60F
3BA57B4F
BE014BD1
3D35B786
BE0F2B2E
BE0A8316
3D089EE5
3D8F1B93
BDF9674D
3DB50546
3E1915E5
3DF2F872
3C8F5B32
BDCA9242
BDCDE554
3E09E6EB
BDF11C70
BE07CAFD
3E4B69D9
BDF41698
3CF45BA3
3DF03652
BDCC2590
3D3AEBD1
3E207036
3E28772F
BDC9CF18
3E2C58CD
BD8EE1DC
BE224340
BE2B53A9
BE0CAA52
BE236F85
BE2A8E49
BD8A10DE
BDBD433A
3E1DEEA6
BDA1D5A0
3E385BF4
3D928EB7
BDA74BCB
BDC0805E
BDFD37E7
3DA74880
BE12D758
BD7DB7DF
3E078CD8
BD7079F4
3D2F823C
BD35CDB4
BD7E43DF
BE25C98A
3D9A2AC4
BE10E016
BD949283
BE0704FC
3D419896
3D890A05
BD6A5C8A
BCD17EE2
BBE650C3
3E18E00F
BE36FD01
3D99B1E7
3E2469CB
3E3297A9
3DE5DD9B
3C5D65F0
3D22A64C
3B897202
3E07F257
3E25DCB3
BD4928E5
BDF313FC
3D6D07E9
3D24DE1B
3D918855
BD779AA4
3DAF9EC0
3C36E93B
BD0A4EFC
3D2D8167
BE186A3D
3D3F688F
BCF0E071
BD223517
3E1DAEBB
3E26DA3E
3CBA338B
3E038345
3E2CD36C
3DAECBD8
3E0D89D8
BE0EBA36
3D94C3E2
BE39BFE4
3DF1714D
BD87760F
3DC81653
BD5D8A2A
3E11D0D1
BE1DF6B4
BD3AC76D
BAE4B3AD
3E28ED0E
3E0ECD7E
3E368545
3DB4E5E7
BD5DE970
BE2DF97E
BC9D9B13
3D7F0A2A
BD3B322D
3CEE8D54
BDA4D079
3DC81C57
3D9059B4
3E04D8EA
3C1F5768
BB55DEF3
3E2ED770
3D12385C
3E0F2811
3C7678A8
3DEDF4D4
BDE06DE4
3DEE9FB7
BDE2CBEC
3E0CA457
3D9D4CD0
3E0EB06C
BDAEC239
BCE5C795
BB2A68F4
3E43D92B
3DAF2208
BE1108EF
3D3DE456
3D054810
BE06163A
3DF2F138
BDF82797
BCB10AF2
3DE937F4
3E09C1B5
38ABF52A
3DE775B0
BE4ABD02
3E2221B0
BCF6F0AB
BDF9E7E7
3E43D43A
3E0F63EF
BE1B8B35
3E24EDA5
BCDD2394
3D754A92
BD90335F
BD481709
3E20CAD6
BD46FDAB
BDE92E10
BE1C8FA9
BD492281
3D745885
3D55EE6F
BE1B90D8
3DBB6C59
BC8B1F69
BD1DF224
3E2AED90
BBE87581
BAB77324
BE1637E9
3DF734C5
BD020B5F
3DEE5DE8
BE1A8892
3C397411
BD8E51BB
3E2BB8E9
BBC8FBD0
BD691796
3DF5F2B9
BE2369D4
BE18D368
BD268195
3DD424AC
3DCE5BE1
3D857D02
3C985FCA
BE0C7F82
BDB43CBB
BDABFC50
BE384C6A
3D82ACBC
BD954030
BE2274C5
BB9C2114
3DD17304
BD3CB878
3D4178D4
3D868F69
BDF66BA0
BDBB0D8B
3D900F24
BD1B9031
3D87E1FB
3D59F42F
BE21FBB9
BD4B631A
BE1FEB5C
BDC747F9
BE29AA27
3CF451A2
3E3DAD9D
3D83E3C3
3D6259C6
3E29D2FD
3D0D9EB4
BD9F6849
BE2CD2FF
3CE45684
3E1D9204
3E1AC623
BB917E98
BDF36FB2
3DF2B991
3E3BD4DA
BE067934
3DAB63E5
3CC783E8
3E10E3D3
3E0BB147
BD2685A3
3A51684B
3E1233B2
3D9BED45
BE3FC0E9
3DCA3452
3DD984E7
BC478D20
3E106FA7
BDB41D79
BDF69E02
BDBCCDEF
BC9CEB53
BDCFAEC6
3E32615A
BD9CBB37
BC71B82D
BE1E0C9C
3E33F3EC
BC1CCDBC
BCD4A3F7
3CF6432C
BDBFAF40
3D82AD58
BC41280E
3DA5BFB1
3D84F93A
3E2F24F2
3C480F2A
BDF144EA
BD0A5B79
BDF3E325
BD97A4EE
3E2FD1DF
3DE246BC
BDCD94FA
BD9789B7
BDC31827
BE395E6C
BDC63D31
3DF09F91
3DAA9B94
3D92AB7B
BD608986
BE12C777
BB897539
3DFEE10D
BDC9FB12
3CB57C47
3D6A6CD3
BE15387A
3DD58507
BCA8CF53
BE01B954
3DDC4D07
BC867C49
BE1B347C
BC06EAF0
BD78879F
3E1F7F35
BC290802
3D439044
3D35ED46
BE147C2D
3E062996
3CCA2C89
BC87EAF5
3E22B4D5
3DA58042
3E2BD763
3DD52357
BE18747D
BDDCE2F7
BDF33E84
3D4B8966
3DFE7DC3
3E263B0B
3D306A96
3BC9C3EC
BDCC7051
3D6F5CA4
3A9B1743
3D2EB711
BDFA62BF
BD824BA5
BD0BDF9C
3E04279D
3CB28B97
3E07AB75
BE2B411A
BDDB43F8
3E229775
3D9B5E12
3C6C1054
3C9DB76F
3E09BCA9
BD04FA6A
BDE8C2A4
BCA33526
3E160E27
BE2B2E06
BDC30632
BE23F1A8
3E204212
BD5C0B54
BC7FE6C3
BC986301
BDA3BE31
3D629966
BBA489D4
3DC13ACD
3D64C353
BC38BC97
3DC6EC11
3E3A83C0
BE26C3B2
3E2A9182
BE1E7BF4
3DA757E2
3E0498C2
3DEBD880
3E35A28E
BE100B70
BD83E045
3D97E044
3E20671B
BC8AAF14
BD2D1F9A
BE314C29
BDCFB303
3E09DF70
3D81BA13
3DB61806
3DF1C2B3
BE19B4F5
3DF3A687
B9FDEE1B
3C3530A9
BE1EDC1C
3E308C79
3C1C0176
BD722C81
BE27932D
BE0AA3F0
BDF39ADB
BC911231
3DD06063
3E28A459
BD770CAD
3CCA858F
BD9CDACF
BD3C55B4
3CA267BA
BDEC5E08
3E00DA0C
3D63D79C
BDAE13BB
BE42CB66
BDD604E7
3DB02B89
BDFACCE0
3DEA8C05
3D3AAAB4
3CC338D5
3DD1833D
BDF61B11
BD1311E4
BE0515D3
BE277A9C
BD5F5F35
3E00BFED
BD95E6F8
3DFDBFE0
3D910634
BE1669FA
3D815EF2
BDB5B624
BE1E931E
BDA3AA04
BDB70CFA
3E09ACE0
3E2D4C6F
BD868680
BCFB5447
3D93E799
BD4347F9
3E0BB561
BE366E3B
BD981CD8
BE0D3868
BE11D29D
3E12D9FC
BCC0CDB7
BDF299EC
BDF4C5F4
3CDB357B
3DD42732
BD4C0167
3CAA9692
BD552ECD
3D312D86
3D85E5EE
BD169E9C
3D19A0BC
3E052197
BD569CCB
BCDB00F1
3D8A7351
BE0F0FB8
3E2A19F1
BCF5228B
3DB927E3
39ADD003
3D40BB4F
3E141E86
BCA0E820
3E0C6E0C
3C2D1E68
BE225B51
3D9797DC
3DBC969D
3DB66C2F
3D9C687C
BC476310
3D5EB3C5
3D98718C
3C5360E5
BDBCA788
BE082A57
BD7E5CD6
BC205C34
BDD6C059
3E1F7C33
BE097890
3E2C7993
BD882456
3E067E49
BE00CE61
3DF70A7E
BC2C1A26
3E2E89C0
BE12F1B5
BDDB05D6
BD8720CE
BD549113
BCBE979B
BD8BA574
3CCEDC47
3E1A9638
3DC8F5A9
BD7185AE
BC40F65E
BE0D7906
BE10C599
BD656212
BD191A48
3D83578C
BBDAFFCD
3E29E1DE
3CB8FD48
3DE27B00
BE2A9767
BCEB87F9
BC93B03B
BE1A565E
BE0FA4DE
3DA15869
3DB97331
BE03FBDF
3DE8ED0D
BE0FBCD1
3D0D10A0
BDBC60A1
3D0BECCE
BD15A9FD
3DB70214
3C080FE3
3E1D45A3
BD5C7A69
BC0011D3
3DA4543B
3DD10FAF
3DFEE965
BD4A5326
3DC869D6
3C856C7C
3DA7156F
BC4CA089
BC686499
BD0B7B10
BDBF6C73
3D06C02C
3C65C25B
3E310B74
3D01E123
3E0CDB71
BB97B515
3DB54533
3D4C2B7B
3D384B7B
BDA1A0E1
BDE6E830
3D38FC40
3C81A94B
3CEFDA86
3DF0FDC1
3DA4170B
3DD459D8
3C8689D6
BE06FD7D
3D8A4E68
BE2B8134
BDBC0079
3DB894F0
3D9FB04D
3D9F05F9
3DE368CB
BE1FCC09
3E0A61B0
3DEA19BF
BE0F4A6D
3E2568F9
3DAC741B
3E077B31
3DF33018
BD41BCB5
3E0DAAD6
BE223BDE
3E28649A
3D660E04
3D8AA852
3D40C6E6
BE2B32D7
BE090C77
3D649B8A
3E204681
BD186600
BE246DFE
BD908B3C
BE03D2AC
3D4CBFED
3D36CDC4
3D9D05DB
3D7902E0
BC8C0119
3DE3A3F9
BCE66FB3
BE08E992
BD16E5DE
BE19965B
3E0CCA9C
BD8FDE1E
BE0E61B4
BD2911FC
3D8E510B
3DE5C963
BE079226
3E1BC125
3E17D5BD
3D4027BE
BC94E181
BBBD9971
3E06E1F0
3D3E4753
3D25AC77
BE1058BF
3D8693B7
3C0013F9
BD9044E7
BD0B68EB
3C387ACF
3DCA6506
3D41B754
BE1B139B
3DCA3562
BE1D83EC
BD646E81
3E08E52E
3DA6C8CA
BD6DD75B
3D9F53A7
BD8AC488
3D8D16C9
3E0B13E6
3E06D045
BD88BC0E
3DF47A86
3D02F15B
BE113CBD
BBEED7CB
3E370667
3DB208C5
BE09D4DE
BE260E2F
BDA3C985
BD9D3788
BDF6AA5B
3D5F2350
BE1CF18B
3E012971
BD488F35
3C263BE7
BE070BF3
BD0180E5
BC0F5273
BD881BD6
3E139D47
3D00DF19
3DAFA1E1
3D62B9E6
BE0B3C06
3E000105
BC0FF258
3E3080D0
3CE558D4
3DF8AAAC
BC4344DC
BDD0B0DC
BE0A95EB
3DC00BE1
3E014D8A
BE2D9F16
3DE4D322
BE2555ED
3DBF7B71
3DACF2BC
3DA8F7D9
BE0B3155
BDF6EFD6
3DD2B663
BCF99004
BDDE2505
3D1A8C53
3DC80105
3C6BDADE
3E1C1398
3E09E3A0
3E13EFA1
BC95BF1E
BC478810
BD7D2AB3
3D47B46F
BAA89446
BC36F047
BD2A9EFE
3DE61CD0
3D738534
3D968E03
3C60EE3E
BCDCC106
3E18B1D2
BD71DEFC
3B8B8425
3E52D907
BE0ADB4F
BC90E188
3E0ED877
3D5EFB4D
3D91E962
BE047ADB
3E22CCD4
3CD954F0
3E198947
BE1C79B8
BD145378
3E1EFECB
3D4F12E1
3BDE0E2F
3DFB3919
BD2FB4FE
3E274758
3E0B9A3C
BE346393
3E234387
3CDAC45F
BDF58EC9
3E0225A9
3DAA8EE4
BDA47A88
BDFA39A7
3DE7D75B
3E00E47C
3E051CA3
3E0051BA
3DDEA4A8
BD3F5C3F
BE161959
3DD3EBEA
3E0EE026
3D50A2EB
BD824BE2
3E084C33
3D3DCDE2
BDAEC736
3DAE3DA1
BD91BFCE
BCFD02D7
3D99A703
BE16C579
3DEFD012
3E16091C
BDEB58AE
3D127234
3D445C7C
BD84D7F4
3D59930E
3D420EA9
BE10C1DB
3E15D324
BE141579
BE11A3F5
BD1F9A8C
BDFF14A7
BE29B1AC
3E25D5BA
BDB67CF0
BD737541
BD5180FD
BDA63AA1
3DE3C588
3D510667
BD4799A8
BCDFEB6B
3E18926A
3DC055F1
3D9E75E4
BE05AE74
BDF61258
BDACBB89
3E4C904D
3D87994E
3D98528C
3D3CDC2D
3DD01477
3E4B4664
3D949EF6
3D3730C6
3E1D22DF
BDAAF7F7
BE2AFC8F
BDC74664
3C93AB90
3D457F40
BDD604B9
3E1D4DA6
3D670D64
3E10CC05
BC070BE4
3E08DD07
BDC373B1
BDEB018E
BDEDF127
BD0ADDC8
3D378D79
3DA30C0C
3E129635
3E0125F9
BE092254
BE200E2D
BD0E501E
3E25BC27
3DA8D637
BE13A014
3DEDB5D9
3DA63C1C
3D98A19A
3E273864
BCDEADC1
3DA2A9C9
BD2E7FD4
BD95C22D
BE1BC424
3E23C18A
3DDADDE6
BD29FCCB
3DF7E5E0
BE11E2AE
BE089F43
BD2BC122
3E1A9C69
BE1FC91C
BE079336
3E270FAE
3E05C922
BE0064DF
3E14B2E5
BCBCEB34
3DC82E7C
3D19E09B
BE37E1CC
BA6EE2A3
BE04EE04
3C9B050D
BE2AEC68
BE1CCCBD
BE19C8F0
3DD0A8FE
3DFC5E72
BC2B5504
BC44D2A4
3D9616DC
BDE30B26
BE0FF929
BDAA726D
3E152B68
BD5436AD
BDF45CE8
BD75BA53
3D95CE5B
3E14C666
BE03A410
3AE3500D
BE043438
BE0126FB
BBDBC228
BE233E81
3E013F9D
BE00E2C8
3C992B8C
3E1FF457
3DC04794
3E1D5A33
BD694B03
BD25103E
BD268F0D
BCD9F223
3DF4DAE9
3D1CEF0C
3D398155
3D17E8DC
3E1EA909
BDDCD590
3E1D273E
BE1306A3
3DEAA470
BDFB5871
3DD00E96
3E14576A
3DC55D6E
3E15DE04
3D94721B
BDFBDD33
3CDA9297
3CBE8567
3E107BDE
3CBF7468
3D263F2E
BB5D567C
3CEB888C
BC28231F
3BEC6C3E
BD1C1450
BD936540
3D85529E
BD5E811B
BE1763F8
3DF97418
BE27F439
3E2B4D97
BE27E3AC
3E24517D
3DA068D3
3BFC8A7D
3D7B7861
BD8FC2FC
BE1E6621
BCC2B4B7
BE1DBF87
BDE43CFC
3CE2D67A
3D94F707
BE19B514
3DD7FD9A
BD7E29AF
3DB86BC6
3D38CB5B
3CA29CB7
BD7E3F0B
3D5897DF
BE2DF493
3D95984A
3E08E1CC
BC2D138F
BE2EF5A3
3E0907D3
3DE6F37E
BB714664
BDC68D5B
BD510D12
3D8D8AA3
3D48A5B7
BDB071EA
3C9F591A
BE2CA7EE
3DB65A68
3CF3E6FE
3DF63FA5
BE0EF2D2
3D5C7784
BDD76E04
3E15ECB7
3AC6AFDD
3DE11096
3D9F15F9
BC8D88FE
3D5C7533
BD988DDA
BD777813
3E2E5EC8
BD3D3716
BDE62DCC
3A4F004E
BD3D198B
3DEF490E
3D91C2A4
3D252D20
BDA1A094
3D573C94
BDB5837A
BE2B2887
3CE67D99
3D243A8B
3DDC05EA
BDB4AAB4
3DA9175F
BD55DEB8
3E16DC79
3E19579F
3E2E16BB
BCE87996
3D9667B7
3DCF64D7
BD1AF7F6
BDCC4C41
3D3E8457
3D9A68B3
BE336A4B
3E30EFE2
BD2CF7BA
BDE078EB
3E0E91C2
3D0E6F2B
3DEB9047
BD465BBA
3D8F870C
3C2B9DEC
BE44193C
BDBDCFC8
3E16EA5B
3D6FE0FD
3D7E7734
BB7BF7CC
3DA3E2D4
BD6AAF7C
3D33A699
BE192305
3DF7B09B
3E15F68C
BDCFE185
BE26FA56
BE0C2D59
BDD9CB0F
3B0A4F2D
3DB7C5A6
3D093A6B
BD5A0BE2
BD5FC982
BD3B62A4
BD2191FC
3D3EA6BF
BE2C6441
BDDD5807
BCAA4034
3DD1820F
3E031732
3D45E8E9
BB264AAE
3C9A9E2D
BE1BBA2F
3D8EA06B
39F1F238
BD05DB47
3C4677D4
BDBC300B
BC0041EA
3D0D1D2A
3E317E86
3D3DEB11
BD083C19
BD9FB700
BE1C5B9B
3DF31609
3E274108
BE06FEFA
3D0115FC
BCADADA1
3E05B1B0
BE0CA212
3D4E87FA
3D5ABB9F
3DB0B938
BDDD54BD
3B2EC73F
BD4CCC43
BCB40982
3E19B17A
BDA415E9
3D803BBD
BE1DDAEE
3E0DE761
3D98D05A
BE0E588D
3CA0EF3A
3E179E03
3E0F98B9
BDB767D6
BBEDBFE1
3E05596E
BD9E5461
3E1A53AB
3D9B0F38
3DD67E0A
3E2CBB8C
BDB1F91E
BD6B0467
3E2E3CCB
BD45287A
3D0E7713
3DC2FBC9
BB4FDFCC
3E1BCDD1
BD859E4F
BE1BE8E2
BD41FA53
3CC47E8D
3DC0F2EB
3E37508E
3E293F71
3E087C53
BE0D196F
BD5273A5
3E4BA4E4
3C9B784B
BCC54185
3DA4EE1B
BE255242
3DBFDA7F
3E09E0A3
BC7B6DFE
BDD4F773
BE0DC726
3E2AFC7E
BCEA4EC0
3C1A6468
BDB9FBC2
3DCEA0C2
3D59EC6C
3D0DFFE4
3D947128
3CBFE253
3D478856
3E24F505
BE248D90
BD3CEBFF
BC33B718
3DB5EFED
3D5F95F5
3E10A905
BE10DF53
BC873C37
3DE565AD
3DA5B7C5
BD8072FA
3C9D207F
BDCE419A
3DC6BE0F
BD97F130
3D2C4768
BDB2FDC4
3E29B18B
BD8E4F66
3E18D69A
3D680379
3DA4BAE6
3CF45954
3DC97016
3E0A7E18
BDD5499A
BE2922CD
BDC85BC5
3E24B422
BDF1FE3B
3CBCFBE2
BB016A4B
3CD8E485
BCFF5232
BC2C1B62
3B70B4BE
3CA79FD3
BD19FB7B
BC8F9F11
3E14A71D
3DFFFE39
3D047DA5
3D063A99
3E1F9B14
BACD7D27
BD2B4FF0
BE232822
3E25EFF0
3D11A9B7
3DA17912
3D69B65D
BC9D5A2C
BCF0AA31
BDE089F5
3DF5F5E4
3D8EDBEF
3BED3884
3D93356A
3E1592B7
3E0DE644
3E0F5744
BDADEBF9
BE137C03
BE36646B
BD46BF82
3DB34E08
BDE27F0A
3D80F1AC
3D3CBC4A
BE17D716
BE28D611
BD81AA78
BD89B7BC
BE1CFC98
3D8F0C91
3C515016
3DBDAF73
3E19DE1B
BDDF656F
BE2376AA
3D35F29C
BD548A00
BDB1DF12
3E05CECA
3DA6D3D1
3E3F30A9
3C6AA285
BDA66104
BCDB0189
3B8F9BE6
3D2BE80B
BD9A7937
BDC9A3C7
3D545A7A
3E248961
3CCE03B0
3DE5D54B
3E13B77D
3E15152E
3CC366F9
BC9E6DDC
BDFCC766
3D43E400
BD193498
3DC6A607
3D64DE4A
BDCA4E24
3DB3FD91
3DC7701F
3DE25365
BDE867AE
BDE3F15F
3DC28B3F
3E25BD18
3D7F2B10
BA975662
BD0F71CE
3E129D0F
3E243B2A
3E0FE306
BD567196
BDB0DD05
3D8ECFF6
3E1BF3FF
BC0E93FC
3DEAEC30
3D64D601
BC80AC91
3DAE1F28
BDA187D6
3E209788
3D184A0E
BE187825
3DB9156F
3DA705FB
BD06516F
BD6A0B71
3DEDCDF0
BD2B88B2
3CF76227
3DEE5F04
BDE65760
BC2A469B
3DE8AE1B
BDE66D16
BE11E9E6
3D7F1B49
3DCCA215
BD34AC11
3E192910
3DEDE66B
3C3C3D55
3D89A81F
BDCAB935
BDF3F6A5
3D0C8088
3DC12B8C
3DC057AF
3D0F0E92
3E03BAAA
BDE34A15
3CE9CD63
BCDE53C4
3E21E6CE
BE1C6F86
3DC5A933
BE14114F
3C86040C
BDFB524D
3D73D03C
3E253EC3
BD1E15D7
BE12583C
3DF2594B
3DE4986A
3DA58523
3C3396B6
BCC44418
3E2E5AB2
3E050B86
3DFBB5F3
BDA3F9B7
BD3AC086
3CB54EED
BE1C18EB
BE1BF7C1
BD9DA9DE
3DDB5D1D
3CAFB79E
3C48FF10
3CF91345
BB704BA6
3BB8F192
3E0DD5D7
BD914488
BD68B8AC
3D39894A
BE098F11
3D59C458
3D4E283A
BDD49A8B
BE214416
BDE97E9C
3CD31415
BD7C6304
BDF9CB2C
BD0DEDC8
3E2B9956
BE10DBBC
BCDD4680
BCDB4A57
3DA9DEBA
BD23F8B5
BE04AD28
3E2595D2
3E1C4D8A
BDCEA207
BE015F95
BE16A69D
3E012AEE
3DBE3FBD
BD7B6689
3DBB014B
3E06DBF1
3D9508A4
3D9AE211
BD5EBAAE
BE04117E
BBA1931D
BD25B48B
BDA07D13
3DD12C5E
BE03A96A
3DDF6B0F
3DD14857
BE2D3357
BA9638E6
BDA98865
3DEEB08E
3D9AA4DC
3E073076
3D9F44B8
3DDD9738
BC1EB69F
3E030A56
BD951AC1
BD909ACB
3E2DEE3B
BCBFC5ED
BC96CDB6
BE226515
BE124FC2
3C59118B
BC4DE556
BD145E6D
BCC623E5
3DE268E9
3DE55968
3CEAFAD8
BCAA6D44
3E164444
3E157B0D
BDB64BB0
3CDDB038
3CC82F20
BE08296E
3E2DA3EC
BD5E62CA
BD980EAD
3D3506BC
3DB80DC8
BD90F7F3
3D3B50C6
BD4D6704
BDF3867D
3DF91616
3DA067B9
BB9BA0B1
BD990945
3B68BD87
3D2FD9B8
3DC5B8F0
BD852B16
3E3EFBE4
3E0848CD
3E39E1E5
BDF82338
BA51E4C2
3D84C65D
3DC616BB
BDEBE54D
BC5BC5DD
BDE55737
3DDA69AE
BDCA16DA
BE19B2F7
BD7A9EB8
3D985590
BCFFF685
3E0D43D0
3DB678CE
BDFE9197
3E1E262C
3C696CF1
BE458968
3DE346D3
3D52F5DC
3C27E3E7
BD87ED0E
BCDE9C48
3DC7451D
3D9AFAFB
3D2991C7
3E1250D6
3D090E63
BCCFB75D
3D135F62
BE116EA8
BD47349A
BDDE0C25
BD9B5FF4
BE167371
3CA69BA9
3DFD166D
BBADC281
BDE23C83
3DB8CD77
BC760BF6
BDE866B2
3E1C835F
3E1AAC0B
BD8AA4C0
BDF2C6FC
3D3445AA
BCE8A77A
BA52DA7E
3E1F5F84
BE1BC314
BDC899F2
3E0CA407
3CAF2787
BE439BC4
3E0B6963
BD91C8BD
BD6C65A8
BE25F414
3E3EC2D6
3CBCCE4E
3E390DD6
3DE7CA8B
BE07F328
BE38CD54
BC65F1FE
BC375286
BE21791E
BDB4F79A
3C047761
3DA4EECE
3C31C8A6
BDD5E2D5
BDBAEBF7
3DF2106E
3DEA7CA2
3D6F3649
BC8030F6
BD1FFF8F
3E2E7389
3D859DBE
3E286711
BDE7E293
BC902BA8
BCA13B9B
BDCBD974
BE23DAE4
3CEE5020
BE0825CD
BDE91F37
3E13FA09
3E059AEF
BC414DED
3E036F71
BDB1F50E
BE0EB7C5
3DC99F0E
BE2B00AE
BD8E1091
BC011E79
3E1F0B96
BD105DE8
BDDA9176
3E104960
BE131137
B9CAC1B1
BDE9B5B8
BD94AE69
3D950EEB
3C94D977
BD550CA4
3E14B585
3DDE1E20
3D26B2A5
BDD5D016
3D433C96
BD3C51F8
BCD4772F
BB33C8C0
BD319718
BD182298
3E2E5F1A
3C314FC0
3E29E7FA
3D4A4F7E
3E1C0F8C
3DBC2BCB
BE169057
3CB16AA4
BDEEA1C8
3C4254AD
3D2B5F5C
BD9A2B61
BDBD19FF
BBD758A0
3E269D93
3DBC3881
3E20431F
BDFA69AC
3BED1B20
BDC9BEC2
BD0B703B
BD4E43EF
3DA08ADF
BC99053C
BD9131A9
BCBC8F6B
3CDD78E5
BDD4C3E0
3E081B7F
BE054455
BDF1425F
BD40D1EE
BA51021C
3DE9FC1A
3D37C7A5
BD73584F
3E0F9353
3DAAAB3D
BD423E22
BC1E2B18
3DC5C1E2
3DA6EC22
3BF40AFF
BE033B63
3DC5A6C9
3D00C19E
BE1310B9
3CFCA380
3A9BFF09
BE0B301A
BE164157
BD81CB76
3D2743CA
BE0FAFF7
BC92F778
3E1E4484
3D921168
3DC5C22D
3A120517
3E028F29
BDB58D27
BD5A114F
3E17A033
3C1EE678
BD5184B5
3E1B8677
3E212E78
3E2E6EB8
BE06F848
BDF68EAC
BDAF69B4
3DB9C82E
BD12B4F5
BB539A5D
BDB1AD3E
3C40776E
BDFBAF13
BDB33481
3D9E1D2D
BE1CF4B1
3DA4F09B
3E1D7B0B
BE15CDD2
BB864691
3DFF2341
3E1EBAE7
3E163B1C
3DA56D85
3C8262BF
BD4706E0
3E2A1DEB
3D99CA7F
BE023854
3CF50826
BDC22C4E
BD031FF3
BB508853
3D77A9AC
3E07DB49
BE20DA04
3CF21F48
3DC5DE1E
BD86C393
3C9FA7F9
BC311DBB
BC61CEC5
BE1E5377
3E0142AD
BE2E4009
BCD2B0E4
BCF56BD8
3DA4FAAD
3DD25C68
BDBFA5B2
3C73411B
3D9E91CD
3CE048DA
3DBE683A
BC2FAAEF
BD1E2B49
BDD0216E
3CBB4245
39BB5D8C
BDBA47FC
BE1EBD62
3E2D5DEA
BDE373D1
3E274CDD
BC20654A
BD85BABB
3E0DD494
BE1DAFB4
BC0F8A22
3DBA903A
3DFD6C15
3E23D44E
3D856050
3DBE8396
BCCB48FE
3D0523B2
BDB5F07C
BDBA8EA2
3D51FFB7
3DBD9A02
BE22FE54
3D89E178
3E1BBAF4
BD1994C3
BD8D0EA0
BC8BCB36
BC43C0BE
BD03C469
3E0EF615
BDCF6704
BE0C74BD
BE08BA77
3D22ADCB
3E0A8751
BBE77E60
BDE856CC
3D8F22CA
BE0C2214
3E237D8A
BE0675E7
BE2EC2F5
BE1B467D
BDF46DE4
3DC7A3D5
3D6A4E4C
BE117376
3E29329A
BE072E74
BD90504C
BDB1454E
3E1A59DF
3E19B5C6
BE0D1D24
BE24549B
BD6DFE4A
BD36F326
BDD8BA8B
BD9F22D7
3D6F56FC
3C4874CB
3E2D02A6
3E208101
BD74F48A
3E1A9CF9
BDC11149
BDB7F760
BE0C75EE
BDA9E80F
3D1D8AD7
3BFB9190
3DAE2A1A
BDA8D1C7
BE0F747B
BD4AFA61
BE157F01
3DC5A429
3DDA082C
BDE0ADDB
3D756D29
BC4F2756
3C9B4D08
3E1A9F5D
BDD04B5D
BD178D0A
3D47E7E0
BE1C27EF
BBCEFB09
3E215D44
3C2871F1
3C2A0981
BB860066
BCC3285E
BE084676
BD87A94B
BDF7AA5F
3DD0A8CF
BE121301
3D6BFB76
BE1BEC26
BDD8E18C
3D7C0E48
BD9F6F0F
3CF2BFCA
3E0519F4
3C744067
BD985372
3E3488F8
3D554523
BDD9195F
3DC3DFE2
BDB73FF3
3E2980D7
BDFDD196
3E06D793
3E117BEC
3E2B3D2E
BE103937
BD354E7F
3DAC4CB8
3D022580
3D436913
BDFF5CD2
BDA6469C
3C9E5B64
3D76FD13
3C36C6A0
BD27E7E8
3DBB3468
BD4CB4D6
BC82A6CA
BDD8195E
BE2A84ED
BDCFBF31
BCBDA1EA
BCF675AC
BC69A192
3DEB3313
BE1A37F3
BE2C644A
3DEF83B2
3DFDEE8A
3DCA898C
BD363F2C
BDFA8AE9
BD24122A
3C9DCA18
BDE44641
3CBB1BDE
BD8C1BB9
BD44D763
BDC4C2A6
BD52BCD8
3D11F8C3
BE29B94B
3DCD5EA3
3DA42813
3E0F307E
BC8A8C8E
3C4F9CFC
BD28FD4C
BE258C5B
BD4806ED
BD9FCBE6
BE0C2A00
3D8DBF5C
3E1C4D8D
BE137CBE
BCA996B5
3DF23579
BDAD8F25
BD8C3B61
BE0F2464
3CA58451
BE4C2D58
BDA08A25
3E004E81
BD8BF988
BE047DAC
BD214647
BCFD2767
3D643F46
3D00656D
3DEC3F5E
3DB361A1
BE107D75
BE1B6A2F
BE129499
3C1B7F2D
BD4CF0D6
3E30D6FA
BE004126
3D1156A4
BDE692FC
3DC972D2
3D890C23
BDC16670
BE068AA3
3DA2D92D
3CDF2206
3E035692
BE1C756D
BE2BAA62
BE06E0CE
BE16612B
3D497EDF
3DD6D8C7
BDC41E1A
3D6239B7
BE18C1C9
BDAF146D
3C9A6463
3E2B4F45
BDA3B932
BC9C0F4C
B9F1E782
3D682AF8
3B714DAE
3E2CB817
3DD173CC
3A46786E
3B61D99F
BE1B942A
3D61F14C
BD836B87
3DD1A3B6
BC30E076
BCB8C158
3E03776F
3DE0326B
3E28E9ED
3E1B74D0
3D98CC35
3DC75F18
BD03071A
3E264872
BDA71203
BE278FC9
BDE0315F
BD4F9BA9
BDE4B851
3CC5C1FA
BDE06B26
BE22C28B
3E2577C8
3DCEB9A9
3DA753D2
BD12E5E0
3CBC455D
3D6C8D4D
BE2D441E
BDD87A8F
BE02CDF8
BE055447
BE417C91
BDF9F5CD
BE2326B7
3D15DC0E
3DBD60FE
3DD687CE
3DBFBD1C
3D33B9C3
3AE3DDD0
3E02C6AF
BD7DE60E
BDFCBE20
3CEBB21B
3DFA0127
BDF3A206
BD8535E4
BC126676
BE2573C5
BDC01820
BCFE970F
3DC01E68
3CF5418C
3E0F8AA0
BDFF26E4
3D951B90
3E1581AA
3E04D7BD
3E12E6EC
BDBDD4A8
BE387EAC
3DA24171
BD3D96FD
BE087555
BD1E9039
3D053770
BDD7FEFF
BD94AD1B
3DC942E1
BE0C65B6
BC3E661D
BE0D05C2
BDBCDC9C
BE1CD387
3D91CB6D
BE25CB59
BDD1D07A
3E10B2E0
BDB0C78C
BDE215DC
3E1CBAA2
3DD63E77
3DD2F5FB
BDB4C96C
3D97ECD5
3DE97E61
BCDA295E
3E282727
BD5C96AF
3D6ED2FD
3C249374
3B3390A1
BE19FAD2
3E0F5BE1
3E1558E2
3CD8F8BA
3E523A20
3B7990F4
3D09EB26
BE237117
3DA17E3B
BDE845F5
3CB3EDE8
BC513C8C
BE46C177
BD01454F
BBEAD602
3DE309EA
3DFBE81E
3E24347B
3E11A509
3C9E1137
3CD0E2D5
BD6897C1
BDBC053D
3E078C86
BD9BFC65
BD74FA6D
BDEE7F45
BE0FC686
BDEA823C
3D32497D
BC257F27
3CA070CD
3BD4580B
3DDBACB1
3DAAB28E
3DB42BE3
3DFD7EF6
BE34335F
3D198A34
3C4E9132
3C7037B7
BDDE0FBD
3DB64BC2
3CC93A86
BC1668BF
3E2A23B2
3DF8BD90
3DF70AD7
3DD25109
3E3C6EE1
3E33FC9B
3C719F66
BDFAB853
BE3851B7
3CD724B1
3D349A79
3DF306E1
BDE2DFFE
BE06F7CF
BD0C990B
BE349A3B
3E03A8F5
3E0AC9C4
BC9F8420
3DFD8B27
BE2AAE4A
3D45F7D7
BE27A803
BDB37DB2
3D1206F2
BE119B0C
3E1B8663
3DBC8475
3E1B97D7
3D8D222C
3DFA188B
BCEA9B11
BDA225B3
3E106362
3D7244BD
3D0809C3
BE060755
3DD06AE6
3E223618
3E1814A2
3E212DE9
3E1C870D
3DA0F816
3D9A502E
BE378C71
3E0101C0
3DDD09D2
3DFF4244
BD1A8D30
3C725AE8
BE0C82AD
BD39CA20
3CDAE8B6
3DBD58E9
BDF5E1AA
BD2AD2CC
BD4C7485
BDDD739C
3BCD9C9A
3CE9DB31
BE21E420
3DD8E572
BDDA6B32
3D9E0450
3CE2D4ED
3DFFD67C
BCAB0BE0
3D4F81D7
BD6E25FC
3D788DA0
BDC757D3
BD838F6C
BD457ECB
BAB70BFC
3C09ADE4
3C848FCE
BD01CAED
BE1EB722
3E2282DE
BD524220
3D3E09ED
3D9DF634
3E03EAAF
BE1E613E
3E2C52AA
BA574DD9
BE2E3C45
3DFA8D52
3D92FE0E
3DB8711A
3E2F95B8
BDB8098F
BE46ACC0
BE374FE3
3D933B74
BD557441
3C2F2711
BE228726
BDE07305
BD814882
BE2C0AE7
BE1CB8D1
3DB3BCE6
3E05227C
BE083A93
3E1C390E
3DAFA549
BE1275B7
3C92BCB3
3E0BCCCE
3D21AFD2
3E0E34D8
BCBE19C4
3D823F04
BDE24E50
BCF78A56
3D3B92E2
BE14CAC8
3E2F1F43
BDCFD9F7
BE025E8E
3E335060
3DB6C2AB
3E10D057
3E0F2E5A
3E2CC0B1
3DA843FB
BE0930B5
BDC0C3D9
BD3E963D
3CA6F593
BD141478
BDAB418F
3D977ED3
3D66279F
3E519376
BE35DFCA
3E2FCD5C
BE16E8A1
3DE5C05E
BE09171E
3D8E2C3A
3D9395D9
3DD18703
BDFA7364
3DF33E84
BE213A9A
3E19873F
3E2359E3
3E48F769
3DDC239C
3E2D71AE
3D430372
BD3EB02A
BDC33F41
BDEF256D
BE116462
3DBF177D
BE04C366
3B2CC806
BE4E1D52
3E2690B7
3E2EFA17
3E135E12
BBEFBCC8
BD7824D3
BE29E23D
3E006E24
BCED03EE
3ABDA23B
3BD06B96
3D94A616
BD9C3B5D
3E41E9A1
BCF0AA37
3E0CA085
BBCAEC00
3D43B163
3DEAC402
BD47BC59
BD813EBE
BD1A2548
3E062162
BE122301
BD01B6C8
BDEFBE28
3CA2AEA0
BE156400
3D31B30B
3D49BEF0
BC4EC116
BE0B1D81
3DC34469
3C836D5D
BD237139
BD12C88E
3E0FF54F
3E40204E
BE09B863
BE1427FF
BDFB910A
BE08C3E6
BD2A7CAF
3DD5EF79
3DA44FD2
BDAA2046
BE0F1769
BDE26E53
BDE39790
BCDBFC02
3E291924
BD855091
BE1220F5
3E08408E
BE01E9EE
BE1F1B66
BD5AE0D9
BDBEDB0F
BD894BA0
BE13A5EF
BAC6ABD4
3CA2022A
3C8617B1
BD49616E
3DD7E690
3E02D91D
BD2ED487
BCB22DF4
3C88B87D
3DA28BF4
BE0AFFAA
BD81DA3B
3E336896
3D5EA9CB
3E3E131C
3CD0A4DD
3E56078E
3DB81A7F
3E011155
BE05FDD3
BE2A4B05
BD2FFE86
BCEF309B
BD8C2DCD
3DFAF7AF
BDA0C03E
3C9F3507
3DC36D17
BD9C07DF
BD7A5D93
BDF57C40
BE3F97D6
BC828F28
3B702700
3DAE141C
3D900A0B
3E41EC63
3D061004
BE0764D3
3E320633
3E1CE051
BD090E2F
3BE96D10
3D841311
BD81EA82
BDAF766A
BE25F0B9
BDB21B6F
3D8FC8A6
BE22EE6C
BDE22B7C
3C107A5F
3D801567
BE15F71D
3D780D07
BD211A38
BE05A2BD
BE455A81
BD746E22
BDAC98E3
3DBE5A55
3D806C66
BD1B283F
BC87966D
3DF0FD75
3DF1EFAC
3AD5B3BE
BC1633C1
3E073DBE
BDBAE3FF
3DBAE763
BDE63DA9
3D75EACC
3DDE1315
3DBF04DD
BE2FAD38
3AE5D3EC
3CB55F29
3D5F6973
BCB6645D
3B416F2C
3E416B88
3DA1F057
BE032204
3E0820E0
3DAD854E
3E1F9B10
3D29FD73
BC645489
3E282ABD
BE12C7EF
3DB9D4A0
BDECD197
BE2135C9
BD01EBD2
BD7FAB57
3E11DB02
3D81C787
3D385972
BD94163B
BE2A389A
3DB0F372
3E281D59
BDAE8CD9
BE1BEA17
BD27F531
3D4EE885
BE04BE00
BDAE9F1B
3DD1E9E6
BC6427A7
BC5FF6D5
3E0256F9
BB71D249
BE288829
3E1956B5
BDB93A7F
3DB1FF52
BCECAC8D
3D96884A
3E2A4AA4
3D99BE06
BD1D9B0F
BE382826
BAF79AF1
BD40B053
BD61BB4A
BE2CDAA0
3C043C63
3DC017F0
3DE99357
3D67ACB2
BDC7124B
3E018039
3C888440
3E07DFBE
3DBF2F3B
3E248435
3CF4FD53
BBCEB69B
3DB5850A
BCE623F2
3DCEE9E1
BD166345
3E2324D2
BD8F786D
3DE67814
BE228417
3E10CE2A
BD47D412
3D4F620D
3CC608A9
BDD47DA1
BE21D761
3DFF74B5
3B2FF325
3BE2CFF6
BD7A79D6
3CDDE901
BDAF89C1
BDAE8BA2
3DB81F41
BD883F00
3E078C58
BD749245
BCCB34ED
3DB19FFB
3CFDCD09
3E345C7E
3DB2EAAD
3C6D34E0
3DDB2D0F
BE1F9BFB
BE21C82D
BDA3C24F
BE092595
BD51E1C1
BE2F1830
3DE00A2F
BC43A99F
3E2A8239
BDD2F421
3CFBC378
BDC87EB5
BE132976
3DFA7F92
BDCBB7CC
3E151B0C
3E2BD778
BDE11BED
3C340AB4
BE1745B3
3E1A8714
3DDDB10C
3E090128
3DB9550A
3DE13144
3D847E2A
BDA3DA58
3DB626B8
BD01824A
3E1EE59C
BDDCC312
3DC8574B
3E236D12
3E2961A8
BD4D6207
BDE809C4
BE21BDBB
3D36E3C4
BCC26434
BDB48219
BE01EF6C
BC9BE856
BCFB1347
BDB66BCC
BD3EB1A3
3E1E9D7D
BDF9AFEC
3D1B1646
BE077F6B
BE0F24B7
BDC97080
BDC34161
3DB2AD81
3D530F0A
BDF06AE3
3E0B9B79
BD91F815
BD2509E2
BD1DAF75
3E0A7545
3C604A94
BDA8C076
3D3C2A6E
BDE070A4
3D8C502A
3DB1CD12
3B2BFAD2
BDA84848
BDF6DD9D
BD54EDBC
BE20B374
3D921696
3D55CF53
3DD7B9AF
3DE7BE26
BC8D1800
3D69FCFE
BD3774FF
3CF302D2
BD1B9006
3E2C242A
3CD6D24B
3DC107E2
BE1D8633
BBA708F1
BD799DEB
3CC6AC8E
BD7EA2D4
BCBCFCB0
3E21EFD9
3D50521D
BAE3DF34
3C90B9F1
3DC43EE4
3A53A97A
3DDB409D
3DD1E6FD
3D8F2FDD
3CC13878
3E11EB09
3DF72F4D
3D433C7A
BDB53679
3E1E6C0E
BDD6BE2C
3D38C528
BDD5777C
3DF6EB1A
BD8C8DFA
3E1C5011
3DC929F6
3CBBB8C7
3D87C71B
BD895E6F
3E036A2D
BE12FADE
3DA0B8A7
BE176168
BE0DFA4F
BB993D27
BDB2A1DB
BE258722
BB91D682
BD95B420
BD94BFF0
3D46033B
BE26A92E
BC6A647A
BCC89CE0
3D915A64
3D098E68
3D0442C3
BBD96820
BD8D43EF
3B323980
BD973539
BDD66013
3E11DA9E
BE0C98FF
3E290C75
BCE29CCC
BE0241B3
BDFC4CA4
3D3A43A4
3D4BD1D8
BE04B68A
BBEBB047
BDC3BC90
BD5F1EE5
BD32E2C3
BDABB3D7
3D696E58
3C9BB1E8
3E18D29A
3DF63583
BD9E206B
BDC646D9
BC4A9C6B
BD613AFB
3E200C2F
3D45F87F
BC3336E0
BDBA35FB
BE128564
3D71C028
3DDD08A4
BCAC2C3B
BDBFA740
BD1D78B8
BE122FA9
3E497AE1
BE1A18C3
3E07911F
3E1E92F6
BDDD254E
BE195C24
BE0A4C47
3D8DF2FC
BDBFDE62
BE3313A8
BDF1655E
BDEC6D0D
3DC4EA2F
BD09007D
BDD8161A
BE09795E
BE029CF4
3D984CC4
3E2CD8D0
3A1CCB0D
BE2E5220
BDC3CD46
BD6B5901
BDB1D09C
BE13E671
BE12EB8D
3E12C1FA
3E206167
BE062E95
BCD17581
BDF10E03
BD86C795
3D7AB45E
3DF0B0BD
3DC0C088
3E2AE8A6
BE0603A1
3E1069CA
BDDB1747
BDB57136
BDF3DBE5
3E1A9EBE
BDDB8EF9
3DDEE18A
BDCA6B06
BDB5ED04
BE14275C
BC97D346
3B59409A
BD012B64
3D006E19
BE0E91C4
BD81055B
3D136A50
BE2AACE0
3E0C5C5F
BC0AAC31
BE2B9ECD
BB87857C
3D14D299
3D8AF48C
3D7DC3B2
BC435A16
BDF1A2FC
3E0B2EEE
BE30752E
3DA811B9
3E2DF5FB
3D4AC598
BD8F6296
BD1BEDF8
3C38C5F5
3C58B1A0
3D868650
3DDDC17F
BE18C511
3D04E2DB
BCCDB003
3DF49B85
3D033D3A
BDCB371F
BDC38A81
3DB95FA4
BD2413A9
3DAD4AEB
BE126817
3E335595
BDAA94E3
3DC73C0D
3D747399
BD8D5CCA
3E0F0084
BC677092
3D8BEED8
3D965512
3E03B638
BE0E050B
BE09C9A1
3E3EECA0
BD0B0961
BE015D29
BC710E28
3DAAA126
3C804EDD
3C805B5E
3DC9B645
3D929994
3DD12597
BDE875AC
3D276A1E
3D356D0F
3D19013F
3E169D5B
BE1C502A
BDF96851
3DB33401
BDE54F06
3D02E858
3DD06EAC
3CA11A06
3C3E8772
BD774C9F
3DBB8174
3BE59896
BDA2F15F
BE2ADCA9
BE1EB0CF
3D8ACB55
BD8870DC
BD335711
3D4BE1F8
3DAB2E14
3E1F3ABF
BDA53444
3DEEAD11
3E01F5FF
BC86C70C
3D453EDF
BB70F265
3DA8B236
BDB1C6FD
3DDE4431
3DF75B9A
BDA62484
BD82AB6E
3DF604AE
BD2ACFF6
3DF4A74E
3E268771
BE02A4C0
3E03D5E9
3DDF7550
3E13FD6F
BBDE286F
3C1C3119
BDFBE18C
3DF2DB2F
3E24828F
BDD0CFC6
BD82482E
BBF12A67
3DDC7C64
BE09F88F
BD2D6CA6
3DC4AF8E
3C0E8F55
BCC7B05B
BD588A34
3DCC9F23
BD0DB2C8
3AC2A3D2
BDD4CB92
3E0B30D9
3DB65DF2
3E103957
BE10B4E7
3C9A4878
BE1A3FFF
BD61DDDA
BE3D9F0A
3DB60CAD
3E20FC64
BC078AC6
3E11FEDA
3E20F0D1
3D857764
3E07EAEF
3E28797E
BE201302
3CD9A562
BD4F1413
BC94706A
BD812305
BE044E74
BE2DF1F0
BE2093E1
BBBD23B6
BD832B7F
BDB7AF1E
BD481FAD
BDCBCBB7
BDA0AA53
BC9C13E9
3C3CDD3A
3E10C36A
BD54B106
3D85ABEF
BDAFB031
BD0B70C8
3E20B5E5
BCD06952
BDF1E95D
BE21ADC5
3DB78E7D
3E054ADE
3E26337B
3E091512
3DE1A597
BE18C361
BA8F88A3
BE22133A
BE0D4D92
BE0C5E25
3DAB948E
BE376CF2
BDF11178
BDB6777C
3CB0AC04
3E013764
3E0624F8
BE1BB31F
3BD23CC9
BD466AAA
3DF0CF6B
3BB26488
BE16F840
BCEFCD0C
3E0653CC
BD0BBF2D
3CBFC44A
BE2B0249
3E3DF837
3DF4D076
BDA12852
BE1F3694
3DA02516
3E311078
BCBB98D8
BE2EB340
BE24920F
BD0DF856
3D1519B0
BDFBACE5
3DE2D95C
BE0E6FEC
3DD1B9DF
3E191388
3BD6547A
3E43635B
3C83E8FF
BDE2C1B0
BD6F3092
3BA61B01
BCA6E41D
3DE39744
38D98321
3D1BD889
BE1EC093
BE020062
3DADC8F3
3D9F98A3
3D0F8541
3E29B4A5
3DE52613
3D784D3F
3B42FD4F
BE056681
3DF51362
BDC8D60F
B8B6096C
3DAD826D
BD5245F2
3E199522
3E083E23
3E0D45C6
3DA17F14
3C7B36A0
BD98B63B
3E01FAD2
BE297C59
BE3273CD
3D18D5C5
BDA271FA
3C9DD00F
BBB389B6
3D48D779
BD1DE364
BDA92DB9
3D44F5C7
3C2FBD94
BE16D649
BD9C0DEE
3C6F0803
3E117AA6
BD3BFCC5
BE07FE0B
3C5D45FD
3DF55F56
3DA9ED7B
BD22652D
3D296507
BE0F9C54
3DC48BE5
3DCBF0C5
BDF802EC
BD6C7424
BCA64A25
BD67846C
3D5F214F
BD5ECDEE
BC48FFE2
3DA44A25
3D50CAE5
3E470DE7
3C59D1D1
3D755C42
3E2A56D5
BDA3F894
3E07FE47
3E0BDF4C
BAB6A22E
3DE77842
3DC5356A
BD34CDB3
3E18263C
BE0F4C28
3D654EF7
3E249BC7
BDBD1E71
BE28C132
BDB4F49C
BD49F52E
3CA192D9
3DC10F60
3E11E576
BE04E747
BD333585
BDD8B0F9
BE1D69FB
3E1B669D
3D040415
BCA49471
BE236375
BE0B736B
BE3EE3EB
3E245A41
3D8B1B34
3E25D45F
3D52BDB6
BDA8187B
BC5C9BE1
3DF34F6F
BDDE7EAC
3DA81500
3E44AA54
3DE75302
BB954EA5
3D8D993F
3DD1B748
3D4A9C6D
3DD90802
BC314B6E
3D95BF01
BD06293B
BDDFBACB
BDD891C1
BD47092C
3B6E3F1E
3E198079
BE00E202
3DFC83AA
BE1D8E9D
3E1B5AAB
BE1CFEA3
BDFDDAAB
BDB2C007
BC560C72
BE1C6239
BE07FEF7
3E248BF4
BDC74FFE
3D06BE3F
3DFB5DF4
BDDB45A5
3D1D2AE7
3D0AF744
BD82454A
3E002895
3BA51C9A
BDB992BC
BCFF6652
BE183581
BDC66E4F
3DCCB8D6
BD2B64E7
BE0A5AA4
BDAED14C
BDCEF299
BE0DD3FE
3E322BC6
3DD2C310
BE35B52E
3D2442BD
BE511199
3D1FCEF3
3E1784BB
BDD5AB00
BDB46EF9
3DC3A590
BE04C6AE
BDC06177
3E2477AC
3DC31648
3DF4D795
3DEC38A7
BC7892D7
BCCFDCCD
BD90F41A
BE3E159D
3D8F349F
BDE58C07
3E446394
BE1B87E9
3B4E1DBF
3D5D242B
3DA92122
BC755BB1
3D896DFB
BC8E8D7C
BDFC17ED
3DE8A79D
BE187432
3E0A206C
3E1B3669
BDB33C8B
3D9ED579
3DFCF08B
BE09F657
BDC15212
3E285B65
3C492036
BD595E93
3D20B570
BDE9B5BD
BD7C1645
3DFB8E34
BDE1E802
3E2DAA9C
BE242CED
3CF7A9D6
BC8C4D53
BE50FF84
3C410F23
BE1CC6F3
BD172F34
BC17134C
3E0C8C69
3E0EAE66
3DDCA852
3DD7BF0D
3E1183D0
3D37F77A
BDA08540
BE15030B
BD184A7D
BD4D7FAF
BBC3A478
BCB490D2
BD1F6F4F
3E226AE3
3C69A416
3D7E11CC
3E095EC5
BE1D8548
3DC3B2F5
BC2E0B26
3E2881C8
BE1172A2
3DFF9971
3E263911
BDE189B1
BE283EFD
3E2B8E7A
BC6CDAF2
3D50B8AD
BE11E174
3E0DB844
BB9CD60F
BDD07F87
BC90FBC4
3D713D2F
3D6828CE
BDB438F1
3D300E61
BDBB09F8
3E070DA6
BD0BAF2C
BD0073FE
BE1024FC
3CFD44A4
BC031BE1
3C8F610A
3D8793EB
3E1806A6
BD96AB86
BD8F974B
BD9AA4D7
BE23C100
3D2BB746
BD24DC9F
BD2BED27
3C8E8D99
3DF97B71
3E1B6331
BDEDD7C0
3D95D337
3C8460D4
BDC33038
BE02CF4F
3E0DFF7F
BD0F79B5
BE24A014
BCAA02D8
3C8CED6B
BCAFE6B8
3DE00E5C
3E179C23
BE04BA2A
3DAB188A
BC8774A1
BC819B07
BD368A20
BE24C6C9
3D03422C
BDB8CEF5
3D3149B7
BD3095B3
BD6140FD
BE1C7C8C
3C2B7CAA
3C81728D
BD174E92
3D96375B
BCC07250
3D05A465
3DAE67D9
BDCCFB9B
BD633993
BDBA48C9
BD861CBE
3DE09A96
BE22D062
BE269B65
3DBF05DC
3E0C0DBA
BCA9C88C
3DF59F19
3E280118
BD8D2C1C
BD8C90FC
BE1ACD8E
BE23BB77
3E5CFFA4
BAB3D947
BC34F5B3
BE32EECE
BCCDAC17
BD5E55F1
BD5F2372
BE1944C9
3CA37105
3E0370E2
3E304071
3D091632
3CA27AC0
3D584B86
3DF83DC0
3C6E7244
BD4A489F
3D56EB4D
3DFDB131
3DD9C766
BE0907A0
3D92D563
3DCB9E53
3E15F42C
BC9FC2DF
BE06680A
3C911034
3D89AA1C
3BB5FBE0
3C26D660
BDE2E4E9
BDB2166E
3D3AEF0E
BD95B561
3E176AA9
3D733201
BDF4C32E
3DA2E07D
BDBDD530
BE2EF6C2
3DB219E3
BDEE7711
3DAAA01E
BD02DC4D
3E1E7B6C
3DEA614E
BE11B0AF
3E1A40DA
3E00D9D5
3E0C44C9
3D1F4CE9
BE193403
BC4A6BF4
3D36B68D
BCCB84B0
3C076CCA
BD2B7E7F
BE24CE9A
BE187B2B
BBFB673B
3DFE3F3E
3D7B8A98
BC7F6CC1
BCA2DB72
3DC29BC2
3E104DBE
BBBBDC48
BC04A2D0
BD35A906
BA2057BE
BBD0DF04
BC0CE7F1
3DD8A86C
3D61F71C
3E025205
3E0165FF
3E2457FF
BE0BA2C6
BDEF6683
BDB70017
3DEA7302
BE09BE53
BE188704
BD45AD95
3E14BF58
BCBC85E3
3E29DF03
BE23227A
3E08D72B
3D29886F
BC4F6B16
BDBF32FC
3D207C38
BE15580B
3CCAB838
3E062739
BCB81FB7
BDFC969B
3D183D11
BD0F9B8B
3D77A18B
3E302DE1
3E04B1A1
BD6953EC
BDFE16E6
BDD87186
3D95A3FB
BB9DDBDA
3E0759E6
BE1C33F7
BDB26B62
3D997D2C
3E01130D
3E06A677
BDE0C4E2
BDFA789F
BE2C0F35
BDC8EECD
BE1F92CA
BE1A75E6
BE3807C6
BC7F26BA
3D45EFD9
BC859768
BD86E17F
3E0C0985
3E2BD9B3
3D61DEB3
3DDD5788
BE1E2DE7
BE060C00
BD8CB4C8
BCFBD12A
BE0A0F4E
BE1A66B3
3E27F1BD
BE0690E6
BDF6A0FA
3D2F043D
BDF29F33
BDB99F91
3CC41D5F
3E29973E
BE2909DA
BCC2E018
BD25AE35
BC27084D
3D2A9EC9
BE1807B7
BD17C010
BDB36085
BD7AC7C7
BDF1A5C3
3E252B61
BE137D82
3E0831B1
3E268DEA
3C7C8675
3DB64CA7
3DC4A774
3C5E54DA
BE2289AC
3DC094B0
3E05ACFB
BE114A71
3DC464CA
3DA0AC4F
3D9450B3
3C47142C
BCA976AB
BE1B096C
BE308AD6
BDACCC1C
BE0EB234
3D32AE0E
BC98D8FE
3DBD9C91
BE3B8A52
BDD1D615
BDBE6AFE
BD62E5A0
BD31D636
BD8692F1
3E2F7B13
3CB833D4
3DFB333C
3DBF9E97
BE27E041
3D3C008E
3E08407E
BE12818A
BC535363
BCFDABB8
BE122221
BE19D9AB
3DF9A2A8
BE21CEB8
BC74AD20
3DF0AA8B
BDA122F0
BDD65497
3D8C92AF
BDE3AF12
BE0BC746
BD365505
3DCDB931
BC5599F8
BDAD9265
BD9F075D
BE298BC1
BD0CCDC1
BE246C95
BD3CEE9B
3D87ECC1
3E12629E
3DB4A55E
BCFA1932
BCFEB117
3E0EEC72
3D338150
BDA3CC86
BDD9A901
3D8B416D
3D773479
BDC88B21
3E20F474
3E025C65
BE0995AE
BE0F440B
3E05FA34
3E239EBF
BDE033E8
3E1A9087
3E2C1651
3DACAF61
3E1C4C6E
BD7B5193
3D6343C4
BDF3021A
BC3ED335
BD4C68A2
3C284E20
3D5522DC
BDEA8AA1
BDDB42E5
BD748CCA
BD86FF7A
BE0493A6
3DEF0BBF
3E139B37
394A0989
3DA5C389
3DCC3A6C
BD36F5AD
BC9185E8
3E07C92D
3DB6BA09
3DC65364
BD89F94E
3C607C8F
3CA0FD28
3CF0D1E9
3E2687BC
BAF636EC
3E175255
3C48A219
3C9D9FA8
3E087B96
BE1C6C59
3E04A54E
3DB865FE
BCCE2189
BDDC478F
BCAECB8C
3E049884
BE14C71B
3D9ACC1E
BE2D48EC
BD69E325
3D88F4B1
BDDEEB3F
BDD25A4F
BE0DB934
BE24668C
3D866C47
BDA26642
BD70E0F9
BE222C32
3DA688C9
3DF0B76B
3D5A8459
3DF63EC3
BBAF3189
3DA4BD44
BC976060
3D013012
BDFD3AD7
BC8DFF76
BE226999
BD979712
BDAE984D
BD8FCAC0
3DA1A337
3D6682D0
3DAD0B0E
3E19A9CD
BD373138
3D60B2D6
BA5B8764
3D919234
3D7C1252
3CC11BA6
BE22EA3F
BE2A7774
3BB23820
BE2280F0
3E068B8B
3D10E809
3D6BB3D3
3E057235
3E20FD24
BE10BE16
3C48C0C6
3DD3AF98
BDE40A7A
3DFBAF49
BE0CFD38
3D8A5DC2
3DC919C3
BDDA4961
3E005DE3
BE05590A
3E01E534
3E048460
BDA07003
BD226E01
BE12493D
3D5A8769
BD8C6073
3D346E0F
BD431A64
3D506E7D
3D79DFE6
BD854880
BDB1B6E3
BD9277F3
BDFB7DD2
3DEC8223
BE2E6734
BDF98116
3C01DAE3
B9099226
3DB890EA
BDFC4E0D
BE0DA7E8
3DB889B5
BE0BBDAB
BCE28064
3C0F3037
BE0D5B4E
3DC96D27
3DB46B15
BE0F0ABD
3DED819E
3D1CB241
BD9CE44D
BD2848C4
3E2ADA1C
3E070386
3E05B24B
3DBD5838
BC53D081
3D5FDC16
BE1F2D44
BE1668AD
BDDE2E2E
3DA08793
BB0B7396
3E09C18C
BCD58ED8
3AC81D34
3DF1F969
3E0D17B5
3D35BC45
3BB2613B
3AE5EC5E
3D05A8E1
BD0377A0
BDB79504
BE1BFEF8
BDCED7D8
3DEAAEC0
BCFFF1D3
3DF8E6D1
BE1AAF58
3E1D2073
BCC57FF0
3DC24637
3E150F84
BC02D671
3C37FDF5
BDCDC228
3DDDF8B8
3DF8A54F
3D986F1E
BE1B4616
3DECDC1A
3D5066D4
BD2EEA87
BD362F36
3A12C3F1
3E008C33
BE140F61
3D96B9ED
3CE3BEEB
3C37C34C
BC41CFDD
3D40F5A6
BCA65F82
3E31511F
BE1B71F4
BE05588A
BE22B815
3D6FF74B
BE21DD73
BDC26DEB
3D980E1A
BE0E1F89
3CC38CDC
BE45A6B0
BCBA7653
3DD5F1EE
BD57E5E0
3D6AC66E
BDB8B0B7
3E008FBD
3DD02299
BD24F084
3BBA269C
BD18C23F
3DE8B0BA
BDC5D1AB
BE434DD8
BD27106C
3D6081B2
3DAA69C5
3C4654BA
3DFDB64A
3D918372
BCF8EFFC
3CDCD11F
3E0826E7
BD6B346E
3E06F311
BDE3D6DA
BE076E93
3D7D0877
BCC9C620
3BF47BB6
3E201ABD
BE24F4BA
BE05A6DA
3DF97F95
3E370E04
3D6252EB
BD15FD4A
3E026E93
BE2606BB
3DDCB42D
3D97A050
3CCA9EE9
BDE76463
BE103DDB
BDE037AA
BDC73BFC
BDA0CA88
3D96268A
3E19EF59
BD59CD1F
3E2C41D9
BDE61A5A
BDDBFC1B
3DAC9651
3DE4E222
BD57051B
BE23D873
3B9D498E
3D88A1F3
BCD30505
3D483671
BD3C622E
BB610E77
3DB081EC
3C8B03A3
3E1954DD
3D89686E
BD6B8CF5
3E2B547A
BE16938E
3C8C2593
BDC345AC
3D2F3881
BD9DE02A
BD82CBF1
3D84D2EB
BDA1E6AC
BE231597
BD9992BD
BD6DFED7
BC9C2418
BD7A6B79
BE3D52AE
BBA9E667
BE128087
BC058B5D
BD2D8CE5
BD421A0F
3D2161CF
3E0C30FD
3E25CCA6
3D2D653A
3D136AEB
BDAB6F17
BC27DD3F
BCA65188
3DA73F5E
3D8FF012
3DDC92B1
3E25ACA3
3E123D51
3E007B4F
3D8F05EC
3D540E02
BC9C96F5
3B19EB9F
3C958605
BDB32877
3E1FE78E
BE1CD610
BD071A50
3DCD11B6
BD33F452
3E247986
BCC5AFEE
BE2DB43E
3DFFE3FC
3D7F8D7F
3D99D1BC
BE42983A
3CEADEC7
BD10C089
BE0919B9
3DD9BC36
3D188AE4
3D19DF2C
3DD0470B
BDF7B2D4
BB2C9C2B
3E0BCF3D
3D09AF59
BBEA4DA7
BD949762
3DDFE500
3BF5AF28
BD9BB0AD
3C630332
3DDF5E93
BCA58E9B
BCEC23F9
3DD93106
3E194C19
3DB5CF3A
BE0260E1
3DCF917C
BD47C91A
3D48F47C
3CE0CDBF
BD355942
3E0279A6
3D2134C6
BE2F7A23
3DDB362E
BDDA3B7B
3D1B69C2
3D8F51B4
3DBF8D9B
BDC44BEC
BE1783F4
BE148F58
BCD3B178
BD4A7071
3DEBBF78
BE13DD79
BD94A71D
BD875BA4
3E23F385
BD282A06
BE0445ED
3D69DDCF
BE3F9C2C
BE25E81F
3E041A4C
3DAB621A
3DD5AD53
3E293F26
BDB6FE34
3E4AD9AA
BB95DB98
BE250D86
3CBDA815
BE29A2CC
3DDE3F3C
3E258B59
3DFE4D49
BE44A1E4
3E02784C
BE12B649
3C6D0B2B
3E61B9FB
3DF3CEBB
BE27F523
3D79DD46
3DCDDBE1
BE1A30E1
3E0D4868
BABC1827
3E17A1F4
3D460678
3DEF0E41
BE3EC6B4
BD9B893A
3DE2F23E
3D471CB6
3DD67A65
3DDAFB77
BE26C7F6
3DCC6676
BE10BFF2
3E0172FC
BE1869EC
BC286738
3E137479
BE04992B
BD8D002F
BCAE5A4A
3E24405A
3D130A0C
3E13EAB0
3E29A9AD
BE26CC4F
BDBF7091
BE1FD779
3DDD25CB
BE0D3B33
BE11AA4A
3DD3BC77
BCCB3BBF
3D51D002
3C060B7B
BDAAD076
BCDB8E99
3DD01DA0
BD20372C
BDB37455
3DF59F0A
3D03AA2D
BDBC3AAF
3DA5C7A1
BE0C8000
3DA3BBF3
BD260937
BDC425D6
3CBAC6CC
3E0A009E
BDE89033
3C739E1A
3B710064
3DF97B0A
3CB92956
3DF162F5
BD943D77
3DA0C3D0
3CA31A24
BD88671C
BDD1617E
3C988FF3
3D20AC31
3E125312
BDE04316
BD9B6379
3BDAED28
3CEBD50E
3CCE54E7
BE2717FD
BCEE9D2D
3D90804E
3B020E48
3D4A43A5
3D9C9A06
3D80B5BA
BD6B696A
3D865E18
BD875782
BDAAE9F5
BC6581FB
3D9CCB54
3D94148C
3E0947A4
3C1DD4E7
3DD1013B
3E2A09A5
3C1C55A2
BDAE6EE9
BDA88E06
3D479A72
3DDC459A
BC84F9D5
3D92AC15
3E05469B
3CAF0B96
BE00E8C0
3BBD28F1
BD534FDD
BB86D558
3D2EA82C
BE04FBB6
3C91AABB
BE179CC2
BD78C0D0
BD91067E
BE0B62A4
3D1C26DD
3D648634
BD6C1C51
3D7D3087
BE22DFAE
BC830886
3DF09E5E
3E1DBB91
3DA54C22
3DF76E77
3C863F02
BDE8B794
BE17A84C
BD8591F1
BE09AB05
BE07CF02
3C4B5E57
BDBFD0B7
3C184A65
3CAB534A
BDDC274A
BDEA270D
BD68A0A2
3E277B6F
3DCF110D
BDFF53B3
BD9B8660
3B98B1AF
BC58E3F3
BE158943
3D08C208
BD56EDD3
3E0096FB
3D0BB639
BDC3ACA6
3DE93539
3E19347B
3DF659F6
3E0417C4
3D50EBB7
3E19F7D2
3DAA783A
BDA4EECD
BE1FF00B
3DD235E5
BDBEFC4E
BDF985BF
3D71F620
3DD00BD1
BE196F0B
3E0AE812
BDDA9048
BE448BDD
3DF906B2
BD631425
BCF9318A
BE0A1F8D
BDF59026
3E39D5C3
3E064EF0
3E24F82D
3E1C056D
BE12327D
3CEF4956
BDA0CC99
3E31676E
BE2E7807
BDEF6373
3D6E879A
3DF2D536
BC608864
BE3CE80A
BE1F83C0
3DE0F5BF
BD9A555F
BDE3C27F
3E0625A2
3DA3B769
BD243780
BCE10AF4
3A697CD5
3DFE3AD1
3E0B8240
BCA200DD
BC33DD00
BD871EF7
3E13AF5E
3BB70743
3C5FB4C7
3D9D0430
3D8313B3
BE0EB454
BC747FEF
3CB11930
3BB65D76
3DA7B949
BD01AD5C
3DA14A10
BE29B705
BDF22018
3D0E772E
3DA574D0
3D2481F3
BD6E37D4
BBF05DB2
3D855489
3E08D9D6
BE008CA4
BE07764F
BDA2B19C
3D2BA57F
3DC81BEA
BC83805B
BE2482F3
BD774BDD
3DAB0486
3DFF054B
BD5B7022
BCD79928
3C1E57A6
3E148E8D
B9829E00
3D0CFEDC
BD997682
3CD25AD9
BDF90248
BE2EEAAF
3DE1C157
3C114F90
3E2F29E4
BDB0E8D7
3C673F1E
BDABA92D
BE220096
BD2AF2AF
3CF15F00
3D1E7633
BDCAA3FC
BC540220
3D3A7A70
3DF213D8
BC2FF7E0
3E1BAACE
3D892C40
BDEFB0D8
BE11B6DD
3ACB78B6
3C0D2E2A
BD538923
3E2F3FEF
3E221987
BD2C90F8
BDB21C49
BE16DEBE
BCE95851
BD05C649
BE00E8E6
BE1E1A14
3DE90936
3E19E62B
BDFE0C6E
BC8BF8B7
BDB67D02
3E25FE65
3D12FD2A
3DF64042
3E1817AD
BC9AFCA9
BC1D6610
BE2739B1
BE01B42B
3E19960B
BD82396E
BDB3EBCE
3D23EEE0
BD42FFA5
BCEB0E31
BC833A0F
3E1935DC
BBD2BA7C
BDB1ADDB
3DC0BAFC
BD812EC2
BD6A2509
BD3A1835
BDAF51D7
BDC345EE
3B90780E
3D78B990
BE2D8539
3C71B400
BDC7663E
BE14D4A8
BD8176D0
BD9FE074
3C0D95F3
3DB04901
3D87D198
BDFF2CF6
3E1D5FC0
BDA0894F
BE2B425A
3CCC8801
3D20F4D1
3E0D983B
BE0EAA31
BD6CF67F
BCED7C3C
3DE52866
3E08EA08
3D1DB243
BD70C597
3E1EF821
BD6F2977
BBB1454E
3E35ABB3
3E213BCF
BD90D9BE
3E2CB642
3CACC22D
3D8AB18C
3D846F99
3DD986BA
3E12081C
3DA2D154
BDB8D127
3D8768FE
BD12DC7E
3DC1D7F3
BE2851FA
3E31812B
3E063908
3CD47203
BCFCFFEA
BE1391BC
BD07CFA1
3D36BBFB
BD8591F7
BE2698A4
3CB4E270
BCB4FB39
BE28576D
3D67D0E3
3E0AF0EE
BE0B6D9C
BCD5C6B3
3DDB796B
BD96C09A
3E09A8ED
BE22C5F7
3D86B8D9
3DE8396A
3DF346ED
BBB8ABA0
3BB09805
3CB7172B
3D90090B
3C83D715
BD412E07
3D26EE6C
BD9479F6
3DF4308C
BDBC0492
BDA8392E
BCA6475D
3BCC5C90
3E2973C5
3CFCEB2E
3D45D5A6
BE2E4BB9
3D944057
BDECE03C
3DA7C7B8
BD32CADF
3E181D1D
3D2CDD94
BE141A5A
3E0C127C
BDFEA88E
BD0DB95F
BDD760BC
3C4776F2
BABF6DA7
BD7A1AAA
BCC5AE74
3E2B138D
3D88C526
BDB1F38E
BE3AC54B
BCFA9555
BD83D3A6
3D32E4BD
3D7BD790
3E29EBF5
BE2A6A43
3C8C7046
BE314DDC
3CC61DEB
3DEBE4EC
BDD83426
3DBE51E3
3D9196EE
BDCB0B45
3E1CD069
3E7E8DF5
3C54281C
3D464B63
3E37D8D2
3E195E3A
BD441627
3E15ADF9
3E0F3D83
BDDB3B1C
3DE718C2
3DB48154
3B5CE7A1
BDE13138
BE0B6C1E
3D0EC2C7
BDB68C6E
3D9870B2
BD58C7A3
3E2766B6
38F07BE4
3E09D3F3
3D8D32E0
3DF5B1E6
BC767602
3CC1159F
3D3585D2
BE2CC88B
3D640185
3DD9FEE2
BD00D638
3D9EA44D
BE0937B2
3DA16FAA
3D8B7FEC
BE28F90E
BC6DFD48
BE12BE47
BE0A2742
BDA9FF63
BD8AD567
BCE412F3
3E020039
BE2D380D
BE07739E
BD729D4F
BDB87B2E
3E0B8F55
3D7F2BE5
BE064EEA
3E267EE6
BDEA2AE5
3E2E8FCD
BD17333F
BC891FFE
BCF01F51
3D5A553C
BDA02DE3
3E037153
BD6D5CD1
3C9D7ABE
3E01ACDF
BD672A85
3D0F4228
3D8E2929
3CC2F857
BCA1751A
3E0C7B11
3E129459
BC94CB96
BE0830A2
3D8CA299
3D63DE83
BDC1CF52
BE0E4DDC
BE16D657
3E420EFB
3DC46CB5
BC7DCD8F
BE3A6A02
3DC6AF0D
BD3C4AA3
3E1DBEEB
BCB6510D
BDC8F3E8
3E500D88
BD6C32FD
3CCF8ADE
BDE705EA
BD89E4B0
BD5E23E5
3BCB2D7A
3D863227
3D871852
3BEF7286
3D60EFD5
3E16280D
BD451315
BE159FA8
BD826B94
3B656D0A
3DC64901
BDE8374D
3DEC3FF8
BE1255A8
3D52F2E3
3DD436A1
BDE28B1C
3CBF9E0A
BD59D43A
BDB16F3B
BD49DD0D
BD8C060F
3E294A99
3C4380E9
BE1313E4
BCE72A89
BDD48F86
3B152100
BE336658
3CF27166
3C5ABA43
BE0593A1
3DB5A9DB
3D6AF269
BD2F3A7F
3E303181
BA7E14E0
3D22FB09
3CB74686
BD8E7042
BD09FE75
BD529A29
BE14B6BF
BD15D94F
BDFBDF45
3E07B21B
BDCA4529
BDC5EAA8
BE1BD5A4
BC9A66C5
BDCF9DC5
3E16D29F
3E152C80
3E1B6237
3D1D30C3
BE00AC58
3E015797
BDD47064
3E5B3F64
3E18C934
3C3AEFF7
3E299767
3D57E2AF
BE19EC78
3DDBE569
BC733C13
3DCD4654
BE311856
3DBC1BA5
3DB76E04
3E29D409
BCA56242
3C81B118
BE1AFFEA
BDF2D025
BDD0610D
3E246086
3E272375
3D699B08
BD1BA91C
BC2E914C
BD9876DE
3E1B699A
BAB39BAC
3DACBA40
3DA3897E
BCBE586A
3E108D01
3D2C3D7C
3C941767
BBEDE22F
3D7799E1
BE097AFA
BDF10A58
BE2FD69F
3E402708
3DFCCCEA
BD677F58
BCCF9800
3DECCF6F
3DB8BC4B
BDEF09F5
BDAA97E1
BDE4CEC2
3E0CBC6A
BDA68FD2
3D2D2B5B
BCBDC9D3
3DF73861
BDEAEACB
3C57D286
BD3E70CC
BDFFBE3D
BDAEB63E
BD8F4790
3D650076
3B35CF5B
3E08C1C7
BD51A422
3E233A6D
BE21C9CF
3D3C7F8B
BE088D9F
BDBFB1B7
3E131483
3E2924DE
BDD70F91
3E0C72A2
BD35792B
BD258B56
BDD4EE6F
3C869F6F
BE168C24
BDFEAFB1
BDA2F9D0
BD597076
3C65DD7B
BDAA8D3D
3DF9C793
3E27ABAE
BC4FFEC3
BD795D13
3DC81BE8
BE0FBF8A
3DC8EB32
3E245901
3E11C20B
BDF2D30C
BD0363F8
BDC7C75D
BE3FB4FE
3DDACA6C
BE222695
3C53B1EA
BDFDEAA4
BBDDC475
BD768E8F
3D36A0F4
BE45BF76
BC02C6DD
39F209D4
BD895C72
3E112D52
BA0D59F4
BE0B99B3
3D68569F
BD825265
BE12B3DC
BDFBCF95
3CD853CB
3D7BD4AF
BE2FB66E
3AEF6BC6
3DEAA863
BDBEB031
BE08DBCE
BE0837EC
3E230203
BE3C977B
3DEB8B32
3D6C951A
3D37B4A4
BC633216
3DDA676E
BE4F217C
BE07AD07
3D74EDB2
BE155814
3E067EE4
3B6CC4BE
BE2C98B1
3DADD00F
BD2BED81
BD765733
BCF5DA4D
3CD5F2A8
3DE53EE1
BDFC03B1
BD81EDA9
3E1B5234
BD63760F
BD591980
BE1A5519
BE1D0F68
3DAC98F3
BE31A66D
3DE5C326
3D125CCB
BDBB54B3
BDC4CB2F
BD3223DD
BD1BC0C0
3E06D6F3
BDCE4424
BD8BBB29
3DDA4013
3E15669B
3D47159D
3E43CF58
BDB241E6
BD39C72E
BE3C9124
BD2B2B92
BD1D04A2
3E120A55
3D4B269A
3D02C5A6
BDF3D755
3C959D3A
BDD9BE66
3D8FB2CC
BC6FFA60
BE09C7F2
3E13D863
BD7E4FB7
BDB93AD7
BE1F6617
BC022219
BDFE400E
BE1FE284
3E0B7F82
3DD17DDB
BE2A3FC4
3E484CDB
3DF41345
3E154637
3D2B0054
BD460BF1
BDEB439B
BE24EB43
3E08405D
3D56B31B
3E13CE68
BD544D1A
BDA7AC88
BD2C4C0B
BDFC9BEF
BE11E3C8
3C8A9831
3E2F9983
3DDEF109
BC8FC3DF
BDBABA81
3DE6CC10
BD2492DA
3DB1B1B4
3DBD0D06
BDEE5817
BDEEF1CA
BD87974D
3D012E21
BDB7985F
BE24C1B7
3DEB5C4B
3E0E3DF7
3E02BCA4
BE29D2F0
BD2FA29F
BD237BD0
BDC46A2A
BE1FCC2C
3D920070
3DA93ABF
3DB14965
3D961471
BD971D0A
BD8C0785
3DA16B70
BD07D3A2
BD13C16C
BD913010
3E23A52B
3D888B9D
BD7A1E7C
3E279829
BD0DD983
BD927A28
BDC84F30
3D4CA535
3DECD8BD
BE28E697
BE0B87B6
3DCA2FDD
3DA47B37
3C75525E
3E2AE321
BD52ED95
3E09FE4B
3DEB40FA
BE39706D
BD0AE50D
3E2E425E
3E0A2807
BDC51E3E
3DFDEC85
3CBC2BEE
3D96FAA8
BCFDD004
BDFC7AA4
BE0BE6EE
3DB9AD93
3E220F10
BD966F9B
BE173C45
3E0D23E6
3D50D2C0
3D00F51B
3C47846E
3E1D78EC
BD827091
BDD7FB3B
BE1B7F7D
3DB22A2B
BDB193CD
3D22BB51
3E1E1A05
BCC26137
BDCCA698
3E2277B0
BD3EB16D
BDEC4403
BDAC2354
BDEC31BA
BE2906E4
BDFA8B88
3D65DDC8
BE2A3723
3BB5639E
BDE8394B
3D19D359
BD64545F
BA87B0A2
BE086541
3CEF4F87
3E344AF7
BD72D9FC
BD953F97
3E293802
BD0A15A8
BE1BD6CD
3D651D83
BE16E534
BD0C3053
3DD5F05A
3D2C6A5C
BDD057F3
BD004CE5
BABA808C
BE13B746
3E2D0C5E
3E0F64EC
3C153CA6
3DB189D0
3E221F9B
3D9E186D
BDBB9365
BE13B4A5
3D3D0952
BD812A63
3C9542FD
3DF2A766
3CC2DDBB
3D803C70
3CF5D84B
BC465787
3D934EDC
BD5E57FC
3E17D833
BE06DAF6
BD0A00E5
BDCB8240
3D971EAE
BD89248A
BDBF16AA
BDC099A7
BD3DFF7F
3E14489B
3E1C7B1B
BD99C36F
3D52BA78
BE2AF67B
3E0A191F
BD1304D6
3D37B335
BD330A05
3DE64800
BE21A995
BDE50CDE
3B42AC05
BE0FBF22
3DA99022
3E1467B9
BC1E778D
3E03A8ED
BDF4DD8E
3C5E04B0
BDF4CA17
BBA02761
BDDCCF61
BCFD466C
BE29A591
3D93DCE2
3DC395DE
BD2F9F86
BE02AEE3
3D8967B3
3DF40288
3D69FB0A
3DD667E0
3D9646AF
BE183D21
3E02749D
3E063BC4
BDBC0AF3
BCDEA9CC
BCD11B2D
BE340324
BE27B52C
BDCCAE7A
BD2A1CB0
3CEB3C35
384F16AA
BE042AB6
3CCAC4CB
BD1A8DE2
BE048BD2
3DA6115B
3D819E56
BE0927F9
3E1FC38B
3BED0D63
BD09CDE9
BDCC381C
BE289D20
3DE79FBD
BDBDB29C
3DF8AA02
BD8452D3
BD07191B
BD540EA1
BCC050B5
3D77D4B0
3DF7F25C
3C45744A
BCA6A98D
3DF1D715
3E2D983B
BDDC6551
BD7B8735
BCC6C63D
3D8C7386
BC983D5C
BD8905BA
3CB410C1
BC03C4E0
BD5507A5
3E17C058
3E19A876
BDB4AC37
BE067BD2
3CEDA335
BBD29BB7
BE2869E6
BD9ABB84
3DB5F664
3D851F6A
BE18FDF3
BDF98962
3E066790
BCCE96F7
BE086CA7
BD4751B9
3C167431
3D807906
3DE71630
3DA89079
3DAC1CC9
3B2E83AE
3E4534C5
BE0361A5
3D06F7D7
BC2D3E35
3DD995DC
BE2A42EA
BB442718
BDAD8BD0
BDAECD65
BDAB1B51
3D7257A5
BD3F79F8
3CA051B4
BDCF40A6
3D9082C8
3E0FDC92
BE1F7123
3D4B2EAF
BD2FAC1B
BE25E8E2
BBA76293
BD0EB155
BE47659B
3E4BB326
3E18DD11
3D7C54FC
3E1DD29E
3E044C3D
3C8E044F
BD3A6842
3DF53744
3D3E5D70
BDE95C49
BDADF77B
BDB3B7A4
3D6DC33B
BDC08335
3D591792
3C58140B
BD6F9F15
3CC30C46
BC13E362
BDDFB174
BE28AB28
3E06CCEC
3E0F5FFF
3A7DB99C
3CA441EB
3E15C837
3D0A8CA6
BE26BE5E
3C9F8CBD
3DDDFD1B
3DB1C9B3
3B8D057F
3C495480
3D033563
BE0DFBAC
BE15338F
3B4390BC
3DDF1A1A
BDB93752
BBB0BB53
BE0AA9F1
3BE30399
BD9355A8
3DD6B2B9
3DD1AAAE
3DEC0433
BD89192A
3DAB14DC
3D864A81
3C980340
3D963E9B
3E11D3C9
BC076537
BDC82258
BDB3AA85
3DEA5A1E
3DAAC982
BDD02DC6
BC288476
3D9BB148
3E23467F
BDB9EBC6
BDE0E2D4
3E223339
3D3E9CB6
3D09E423
BDE6988D
3DD71919
3D9DED37
BD713E83
BD2F4590
3DE16DA8
BE0F7796
3DBD57FF
3C03336A
3E0FDFB5
3CB8F0D0
3E229A9E
3B2378DB
3DB1EAD8
BC1ECC56
BE0D7B97
BDFE23D3
3D472894
3DF74B32
3E036D24
3E1E63C6
3D43137E
3E266731
3D585B4D
BE10C749
3DF3B0B8
3CD36415
BCC0BC8F
3CD07BB8
BD397138
39EE0C1E
BD959EFA
BD52F967
BE0913A1
BDED823B
BD5C051C
3D905732
BE43D57C
3D4F359C
3D3730AC
BE0B0FE7
BE156E61
3E171E77
BE048FF6
3DE60379
BD5B44D2
BDCD07B9
3E2A29DA
3DAB7490
BDA800B2
BE0E8289
3D8DF019
3DEB88C9
3DA00025
3DC8595A
3E0AB315
3D54EE83
3CDB06CD
BE10C76D
BE25C9B2
3DF0D13C
BDDF8BE8
3DF68867
3E15314E
3C00EE20
3E17FE89
BDF7DFF6
BE1C9C9C
BCCA1404
BE029D15
BDE3B3C4
3D73BDBA
BE1E2BCC
BCAC650A
3D847AD2
BD55A5C8
3DEBF224
BCE61F4D
BDB529D7
BA042534
BD970671
3E184AD7
BE1200CF
BD3FB810
BE1B7876
3E35E2C3
BAF6C5CB
BD6ED7D9
BE34D3CC
BDA0593A
BDF7D1A4
3C130BFB
3DAB3D3C
BD999B7F
3E5145F0
3DF4EB76
3E0F8490
BE273AEE
3D944723
BE2B7B1C
3E12C7DD
BC140397
BB52C839
3E32741B
3DA08F5A
3E03F7C6
BE32B922
BE0C8C8F
3D9D066D
3E34A334
BDAE32F5
BC6D21DA
BD80CD95
3E06DFFA
BE290F44
3D282D1E
BDD62A03
3DF5D23F
BDF704E3
3D8CCEF9
3DD90ADE
BDD9EA55
3D85EEBB
3D4AF221
BCF56837
BC7692C5
BE00D1E9
3E221AD1
3D60F787
BE12F1DD
3D86A31C
3BA6A03F
BE183422
3CA3804C
3DF1E7E9
3CE48130
BD1D57EC
BE0EFDA8
3E192DB3
BDAEC27D
BE184B12
BDEC3B0B
BDD3771B
BDB3701A
3DB2F660
BD9D5562
BC570801
3E01BBE4
BDE6A876
BD58E925
3D2B05F8
BD8E3391
BE001295
3DC69C71
3C6D6558
3E074F02
BDD161C9
3E0B4D7A
BC0CBB34
BDF08CC8
BC938464
BD91E094
BE03C57D
BE1EA342
BD80ED78
BC8DA774
3C4F5195
BE219512
3E1C1A13
3DECB3B3
3D6C1735
BE188EC6
BD8F6411
BE202F04
3DF964A1
35192C00
3E2F2672
BDBC3D9E
3D67C347
3D066860
3DAA84A0
BBEF4FD6
BCD3021B
3DC47BE5
BD93990A
BDF11BB9
BC152214
3DFBF464
3DBF6543
BD1C8CED
BDDBBECF
BD8F2CAE
3E13C1EC
3DE16C22
3BFDFA06
3E16D919
3DFA0972
BDCD651A
BD96167F
BE2D5283
BDDDDD8A
3DA575FF
3D4A3F4C
3DE6A727
3D2224F2
BDEE6C5E
3DFE880C
3C84209D
3D53B334
BE26CF5F
3C9AE04C
BD98854C
3CCE517B
3DF6613C
BE1BF115
3E25182D
3E2C1371
BE0CBECA
3E1FCDB1
3DA0CFE2
3E345D53
BDF4C5DA
3E2B16EC
BC2DE7AA
BD7A00C6
3E1CAB5C
BD0963D2
3D2C6B00
BD3D7C3E
BA84F66A
3DF75DB0
3DB153F2
BB4E34C0
BE134672
BD8BC075
3D90A811
3D6138CF
BD6973FD
3DBD0C95
3E0EE06F
3DF2E983
BE29E61E
3DC80AF5
3E058FAA
BDD6AB43
BA87DFCB
BE2A8DCD
3DEAE8C3
BD0662D4
3D013BF8
BDE300BC
3D4965AD
BD662E70
BE158F52
BC7D74C7
BCDA0FD0
BD943612
3E25B989
BDD3F2D6
BD2C77E5
3E244817
3E27DD3F
BE111705
BD97548A
BD24FE55
3CCE083A
3DAA91AA
3D1FDBE1
3D3F83E4
3CF597F2
3D31EF01
3DE970E6
3D66579B
3DAB3662
3DAB703A
BDE49CC5
3E1BD1EE
BDD9032C
3E270F27
3C8BE989
BD5573B2
BE281661
3D1F1742
3E1835F7
3DE375DA
BDD71714
3D4BD3C1
BC3D8CFA
3D6A352E
BD90FC1B
BE298495
3D9280A0
3DAFC4A6
BCA4D748
3DAD0156
BD42215B
BC637281
3DD0880E
BE2D9F82
BDB9DC62
BE14AB08
BD5AC843
3D21377B
3E20BA68
BD2DD4FB
3E1DED0D
3CF90824
BDADD753
3D15844E
3DC405B2
BE15729E
BD0DFDC7
BCD50F40
BE0C683A
BDBFD4F5
3DB8F688
BE288A46
3E1C2290
BADA7C1B
BC38F55F
3E048773
BDB10ADB
3DE70953
BD0C11EA
BC13A136
3E197038
3D1494B9
3DF370FA
BCF83208
3CAC7758
BB709103
BE25A563
3DD2EACE
BDEA9553
3D8B0462
3DCAF11B
BE190992
BDE65D9F
BD38990E
BDB0C7DA
BDF2B8C2
BE0588A5
BDC55401
BD7FDFC4
BDD5952C
3C54BD2E
BE2899FE
BD88CF75
3E189015
BD80F3FC
3D48F05F
3DAA6095
3DE9841C
BE3CB2AC
3DAC8BC0
BD9FA933
3BD39AB9
3CFBAD23
3C02218C
3D5086BE
3C02CE2E
3D8893AD
3C54EFB8
3D91A53E
BD82CCDD
BE14B4CA
3E1E124A
3E33D954
3D6B9C90
BCD30B17
BD36B4D2
BC3EC8C1
BDEFF834
3E04AC98
BCD37EA8
BD93FC09
3DB17705
BD6D2B70
BE15E361
BD80DD3D
3DED94AD
BB82184A
BE1B0031
3D3D0172
3CBCA4B2
BDDF5754
BBA70FF2
3D15D494
BCCA869F
3C98CD1B
BE17970C
3E4019EF
3E25E8D5
3C85BC5C
BD427ED7
BE1EC7E2
3DA9F604
BE17656E
BDA6E2CD
BD78581B
3DE82E2D
3DFA0AD4
BCDF9BCC
3DBBB93B
3D3181C8
3E058DCB
BDBD64CC
BDC8FE84
BD03794B
3E07638A
BD90BEC3
BBE9BCF4
BE1A2C9A
3E1CEFE3
BD9421FA
3E57C793
3DAD4E59
3DA788D1
BE17242A
BD174F26
3E302AF6
3C8C8754
3D3A0223
3DFE4240
3D9E6848
BDC34942
3E0F6406
3D3447ED
3CC5A409
BE2CEDB2
3DE8C450
BD373817
BC19DA96
3E0B18C2
BDEF2C1B
3D9FE153
3DE49AA1
BDD70267
BDF2F904
BD9A7B21
BE1BFD1F
BE101CD9
3B635D24
BE1FB420
3DB793FD
BDCC69E4
3D61F82C
BDF1BBD4
BDD02EBA
3DEFD89A
BE2974FE
BB2F9DE5
3D75DE3A
3DBA8519
3DB34961
BE19B972
BD8810D7
3D9E0C6A
BD2B5450
3CA88CBC
3D2041A2
BD217A6A
BDF87372
3DA79E45
BE1049A5
3D6A4879
BDFB4509
3D9D13F5
BE090118
BE1F6ABB
3CBC6F9F
3E2C50A1
3E1E59BE
3D1123A5
3D250198
BE4A9B19
BDA9F70F
3D079577
3D242EEF
BDC1A330
BE074ED8
3D20AB4F
BE23E1D8
BC2811FD
BE008B1E
BE624A30
3C854FCC
BCD9D629
3DCA1635
BA2F8167
3E274F51
3DE672C3
3CE8D7FB
3DF4D945
BE142991
BE0942FC
BBCF8DC0
3BB1782B
BD8AB8B4
3E532E2D
3E243EC6
BD7EE1D9
BDC9AC42
BD8A5BDA
BCBF9DA0
BE19A2CD
3E32C8CD
BD4258F5
BD76EAEA
3DB00F23
BE1353B3
3D3ACAD5
BE1EA720
3CEC7F42
3CC795FA
BD92528A
BE12D287
BBF578F7
3DC7B32B
3E1C226D
3C0D6E4D
BE37C6A9
3DAF6DC4
3E5E3B69
3C7F68C4
3E1BE216
3DFC3129
3E249E96
3B5C7DF9
3CA1C7AB
3E014466
BDA8E919
3E128EB1
3D6C9994
3D263965
3E052E26
BDE08FBE
3D02DFAE
BD8D38EE
3DBCE8E5
3D611C78
3CAD3582
BE1F13AD
3E18A311
3D134077
3DED1210
BE246934
BC931E7D
BDDCA1E4
BC387A7B
BDA21223
3D8ED91E
3D429EC9
BD1C93D5
3DFA2CCB
3D8A912A
3D2A2C6D
BC8504A8
3E18438E
3D51E361
BCF4B23D
BDAA4A6D
BDD782C7
BD891A6C
BD9A7CD6
BE1FA4E5
BD12004E
3D84DA67
BE25B3CF
BDF1D545
BDBDD08C
3D0B4BB7
3DA5C2A2
BCFC7CD9
BC5108B4
BDAB4076
BE0A7CCB
BD98CED0
3E0DE779
3E1FAB4C
BDAD2793
3D762698
BD271CBE
BE226159
3D9C36A3
3E28D014
3D675DAB
BC211417
BDAB62B1
BE205A6B
3D9167FD
BD28731D
3D8E4B22
3E3DCE0B
BC26FA75
BC45A212
BDA51949
BB6C2CBD
BDE07D22
BD11A88C
BE24A153
BCC7CB16
3DC8824A
BE1EAB12
3D208925
3C8F2ADC
3D94AA4F
BE1B3C4B
3D4CBB9C
BDF683F5
3D5B5893
BDF909C3
BD0DC014
3E085CB6
BCC677DC
BE188F5F
BD253B44
3E28BA9B
3C7F142B
BE1DD002
3D857A51
3D858402
BD36BE58
BDE23842
BDAA7195
3B496F82
BDF5E7F7
BC1D930A
BDD1E5F3
3DADDBDD
3DF368E8
BE002F97
BE3196D4
3D96DBC6
BDC2FBBC
BD698127
3E201049
BDAEB5FB
3D77F051
BC45E1E9
3E074E5E
3CAA0385
3E32A760
3DD69A0F
3D9509D2
3C591585
3C60D10A
BE1CF208
BE2FD553
3E1ADC1F
3D74F80D
3DB5219E
BDF07D89
3DB35204
BE22F442
BD92FEA3
BE0FDB1B
BD07515E
BE084360
BD87D6DE
BC0AC649
BE274542
3DBDE0F3
BD723CDD
3E2EAE70
BDC8428D
3E0EAB56
3E222E98
3D1DA80B
3D90BBF0
BD199CD7
BE06B422
3DD1646E
BE0EAF2F
3C88193B
BCC1FF06
BDA72221
BD1CE8D2
3D3A801C
BD0FEB92
3DC55FC5
3E480A45
BDD8F801
3CD6E3BD
BC1B0F90
BD73F220
3C01D60E
3C62496E
3B4DC004
BE0307D3
3DBA2344
BDEDC44C
BD78201C
BE1D89E3
3C98B962
3CB51820
3D81AFEC
BE3DB30C
3D6F7563
BDE0CB88
3C43F4E0
BBC94C86
BDCE9BCD
3E1F87D3
3DA13213
BE1B4EE0
3DF34A59
3D8FBBA0
3E21C416
3E079762
3D06B88C
BDF416B6
BE0B3695
BDE5F3CD
3D84B3A4
BE2731CC
BD2CD00E
BDDFF28F
3E3FC22F
3E375FA0
3C1FA056
BD5751B4
3DEB0402
3E0B3BFC
BE071C35
3DA4288D
3DCFD08C
3E2F6C10
3E0E9286
BE02B19B
3E0B50BB
BCB84692
3CC239BF
3CF6795F
BC5AED9B
BE2531BC
BDB76BE0
BCE7F003
BE1F5CD6
3E1091C1
BE14A2D1
3D535FB0
3DF83224
BE05F49C
BE1E1AAF
3CED3FC8
BD7D08C4
BD0F917F
3C607D3F
BDC9D616
BDC0B50A
3DCFD21B
BDB44B55
BCBE3AA4
BDAD1F05
BE12ADE1
BDA2FDCF
3D825F27
3E43B72C
BC99BE55
BB33F1F9
3CE97BE0
BDE47EE6
BD2A8590
3D888526
3DFB2CBA
3CE67AC6
BE26715E
3DC47028
BE089B02
3E063A7F
3DBD70E1
BD05B6D1
BD8ACD40
BD67C2D7
BD45FD8E
3D4149E7
BE1655A7
BDA715F2
3D8965FF
BDEF475C
BD4C33EF
BE075D16
3DB16D67
3DF34682
3DCB1FCA
3DFA935C
BD6E21C2
BDDE0630
3DC3E603
3E44164B
3D9AF89C
3E226D83
3DBE5592
BC9E7C4C
BE37844D
3D83D95B
BD81178F
BDC49F26
3D442CE8
3D700356
3DDC97AB
BE3BBB54
BDF3E5AD
3E10FEA1
BCBEAA62
BE128254
BD8CD1DD
BD66E07A
BDFFE7CF
3E0E04F1
3D9BDD6B
3C0B2388
3B18195B
BDA32EB7
BD8D800C
3AD975A8
BDD47854
BE685FE3
3CB23F90
BBBB6E85
3CB06FF3
BDA5AFC9
BC762680
3C2EDB5D
BD929E64
3DFA5D28
3D0B1209
BD95C710
BD9AF404
3C302FA9
BE13B063
BD83201E
3E1F5FDE
3E3470A7
3D9B1207
3BD31B09
BDFFCC45
BCBC601F
BB835355
BE0005C0
3D779D20
BD937EE1
BE05373E
3DD4C660
BD24040C
BD9B564B
BE219214
BDEC9ED4
3D64A838
3E22B3A9
3E1A0AEF
BA84B304
3C2C9033
BD5E8918
BDC78E57
3E317F0F
3E102292
BE11F5BE
BD3C89AA
3D0B65DC
BD50AFD9
3E0E8032
BD97360C
3D49E517
3D1C223A
BD2CEC24
BD82D749
BDD37C74
BD30FFB9
BE086E12
BE2A6719
3D69B09E
3DF6103A
3ACC5A7E
BC130ADF
BE2F6D85
BDA24E1B
3DA71BA8
3E005B20
3E14BBE0
BDAE5D4E
BDC9907D
BBE7C378
BDFE06C2
BE19E5E9
3E0D7AC6
BD901F4E
3E31A5A7
3D6E7CC2
3E39C341
BDFBCA70
BD541B65
BE3014D5
3DC2CF56
3D9C195B
BD060A17
BE31BC80
3E1B743D
3C8F18FF
BDDB753A
3E3325AE
3B3F8A2E
BD9E468B
BE0175E3
3D806791
3E15183E
3CD86573
3E0A6377
BDEF7465
BDA0F72C
3C49E310
3E31065F
3D2692BA
BE2555CE
3E2BB14F
3D8EC98B
3E387A27
BE228A14
BE15688F
3D626E58
BD2CEDBD
BE1DD7A1
BD06A55E
BD15BC8A
BCC4C486
BDA562A1
3DC0E140
BD80E030
BE1B461A
3DDFE377
3D8C068F
3D2226EA
BDA22B17
3CF428BE
3E13D47D
BD936A6E
3D921110
BDEE8CFA
BD598363
BC2B77AF
BDD1C2FF
BD4D20E3
3D5ED611
BD68DB18
3DBE4BAD
BD884BDB
BDEEDBF5
BE0C29B9
BCC68EB9
BDE43F85
BDA9E3CA
BD226DF0
3DDBF642
3CF72D93
3CCC54B1
BCB09996
3C8EAC29
BCBCEB77
3E038014
3C62E749
BE13FB6C
BDD999E8
3E2B489C
3E26DE38
BE139519
BDB5A96E
BD85C177
BE3A6F64
3BEE24C5
3B528AD8
BD00F2DD
3DF1D0A3
3C790883
3DC39D4C
3DA14384
BE1FE971
BDA172C9
BE0CE16E
3D2CE447
3D983029
3B5B9C96
3CF0E014
BD1BA10F
BD785C1C
BDF55D22
3E05391C
BE1F0382
BD95452F
3DA9DC7A
BB41C9F0
3E1BDECB
3D805598
BB6C723A
3E085CA4
BDF473E1
3DD1799A
BD2F9A95
3DAE7692
3DE55AC8
BE0A1DE3
BDF4F49C
3E050AF5
3E663712
BCAD7ADE
3C23F7CD
3CB4C8E3
3C79ECFE
BD8670D9
BCC1FCE5
3DFB1321
3E0B1BAC
BDB2609A
3E34FBB5
3DDF662F
BD6503D8
BDCCC388
3E191731
3CD233AD
BB96339F
BDF38FDC
BE1D42B9
3E0F7554
BC93D875
BD0DA03B
3E2F3FC8
3E3BC711
3DCEBDC3
BDF27C3D
BE2B4D36
BE1539BA
3C8FC02B
3E00BF2D
BD26FE66
BE2D3ED1
3D943E37
BD536A20
BB6F7EB7
BDF3B9E5
BE23D221
3E158F31
BD1030E9
3D37F3EE
3DFC99AA
BDDCF665
BD7EEB3C
BDB163BF
3E07DE7C
3D82B2B0
BC9206F7
BD5E0CF2
BC4C5CC9
BE196DE2
BDC02C8A
BD91A38F
3E287F7D
3DBD8F33
BE0FCB69
BD0D4020
3DDE95A9
3D81795E
BE1697B9
3E42E3BB
BAEEB88C
BDEA54B6
BDAC069D
3CC7DB47
3E20E39A
BE225B1E
3E4EB571
3DFA7EC0
BCFD689B
3CFD096F
3C361A08
3E313F88
BE117623
3D0EAFD1
BDC2D39B
BE319550
BE1E38EF
3BAD32B1
BD1A9C8A
BE034D44
3E081E73
3E4AE0DC
3DC4E899
BD2EBCE0
BE21B142
BD9FDB62
3C9F0061
3E161973
3DE8384B
BDFF24DC
BD8F470B
BE44444C
3E23934D
BCB760A6
3DED8ED1
3DFB2339
BB54E897
BDDCC803
3E034D34
3B555F3C
3D49AAD1
3C0FB3F5
BE2F0759
BD0F741A
3DBC742F
BE3BC5CA
BE123A14
BD540E7E
3DC1990A
3D93D489
BBE28933
3D955A28
BE3F5DE4
3E140E48
3E35D23B
3D2E264B
BDC9968D
BD144404
BE3A0E03
3E299AB9
BDFFC666
3D38803F
3E286B76
BD2986FD
BDEDB6AC
BC4BC910
3CD93187
3D2AF7AB
3D2AB257
3E262CAB
BE1A4541
BE201634
3DA45FFF
BCD2C7AC
BDE53626
BE0A8760
3D0B343A
BD7B2E49
BD59F521
BD32FF02
BDCF126F
3BE047E5
3C7D4BFD
BDD448DA
3C4B20D2
BDC52854
BD8059E0
BDE09CCA
3DF18D38
BDE9A1A4
3DB9C27C
3E3D6C16
BCC8B0BE
3DD42D54
BDF28AE7
3D2FE0C4
3DCB0C84
3DDBEE65
BDE343F4
BE28B806
BCAB706F
BE02FA66
BDFD57C1
3D350370
BD9F8EA8
BE23EFFF
3D24CBBB
BAEFE2AD
3D561267
3C6FF271
BDBF7E49
3B9FDBB2
3C451D80
BE29B0AC
BD584044
BE1DDAA7
3E1C9B40
3D9DCB4A
BD756985
3E29531B
3D810FED
BDC82127
BD5B6A20
BDCD190E
BCDB21BF
3B0E0DB5
BE1F7542
3E16C213
BDD28DF8
3B9A5D23
3CFB8B8B
BD009ACE
BDF51A69
BBB3FAC7
BC07D97A
3E26D239
3DA50388
BDF2CD2B
BD228BD1
BDEAD1BA
BE01FB9E
3DD43072
BDB77E11
3D2F7ADF
3E2A2311
BDCD4CAD
3C962183
BE2D4481
BD2978AD
BD00AEE3
3E2BB958
3D80793D
BE15AB66
BD533BAA
BDBDD4B7
3C2B666E
BDDB287B
3DA38D47
3D86F134
3D72B315
3D07947C
3C386942
BDF87ED0
BDA92BEE
3E0F0A90
BD5FD8AA
BE26C771
BD54B39E
3C1A161E
3E1A8BFD
3DD01F67
BE1539E8
BD58E2BA
BE2340C3
3BD4C19C
3CA3C6F1
BD81BD48
3D2A0078
BE4D9BD5
3C6BBE55
3E44525B
3D917B57
3DBFA641
BE3BCF1B
BDE9C037
3E054DC2
BD281395
BD9E2618
BDC16E97
BE3763FC
BCE2173F
BC94EB65
BDDB6FD3
BD979643
BC8B5999
3D60A22D
3D89B6B8
BDE9902F
BD99F772
BC26DB42
BC751276
3E30AA23
3E14B880
BC32BA15
3E1BFA57
BDBD7B7A
BCA420D4
BDEEAB99
BCC55FCF
BE085237
3B61A469
3D9C1EFC
3DCB5D8C
BC02E48A
3ABB17CE
3E28EBCB
BE2508CA
3DB46C0B
3DF524C3
3C608014
3CBD0B2C
BD302BD7
3DCB324B
BE29CF70
BE352DFA
3DC5E8D6
3DB80DC6
BE2A2C4C
3C96B72C
BCD521B8
BE0968E9
BD9FA882
3DA571B5
3DE9E829
BC7AB918
BD37D4B1
3DE3C4F8
BE1832E4
BD804696
3DCAEB6E
3D94490E
BDAF6FF7
BAE7712D
BC1CBDEC
BC6A3BE1
BE2B1F56
3B8E6B59
BE0F0B25
3E59A42A
3D1D5290
3E003160
3DECCBB3
BD4D8B19
BD9A045B
3BF1F449
BCE4B54A
BD8001A0
3D8DED85
BD893EAF
BDC4C423
3DBE1E39
3DA09A0F
3DB0A912
BDC28048
BD1C7B13
3CA7F997
3E2B4E15
BDFF5BBD
BDA521A1
BCACBAC0
BE18588E
3D06AD0F
BCA6CAFB
3D450F9A
BD58BE92
3D1772C7
3B022A7A
3C77CD00
3D945B5D
3CAD3E29
BBDA9E44
BD631FDA
3DA8EE98
BE23E9A7
BDBBD1AA
BC944279
3E1FFD46
3E12927A
3E010F40
3E05FAD3
3E2FE4CE
BE186588
3E083755
BCB1166B
BE1A3A93
BDFFCAB7
BE0B37C0
BD801296
BE450A9E
3E20D6A8
BD3E2273
3C901C8B
BDC126E4
3DA6369A
3D76DAF9
BDEF1489
3CAF8040
BE1F1F21
BDC2F375
BC695160
3DB8F316
BDDF8E00
BE01A757
BD9AB976
BD588727
3DFDA522
3DE57389
3CA7ACB2
BDF30AB7
3D37295D
3E058131
BE19B924
3DC4A21C
BD3A8EE2
BD85ADD3
3BC69E31
BD7D8135
BDE82ADA
BE0DAB63
3E079DD8
BD81F2DD
BE162BAE
BDF85335
BE1B3C13
3C8CA09F
3E3BB691
3C25FE15
BD8FC994
BDD8B68D
3DDA2E71
3D036051
BD922889
3DDA7ED4
BD625FB3
3E22E3D2
BE1D8F96
BD11A163
BDB714C9
BDE2E6B3
BDE77D24
3E109D52
BD047B6E
BD7D05E0
3DA9EF53
3E13BC74
3D721885
3DC0A7E9
3DC22C8C
3DC7449A
3E2E24C9
BBBFE074
BDF21950
BE0CD224
3D656791
BE19A721
3E10D484
3E0C29BD
3DD5C1FE
BDD5134C
BAC77782
3E317328
BE1384BB
BD80CA6B
3DDF1CF6
BCD466AE
3DC55810
3DD84891
BCD8525C
3D6550BB
3D26F79F
3D9DB090
3CB63E42
3E17D2BB
3D63E65E
BD57C949
BC6E8A93
BDB24178
BDE66185
3D6CE7CD
BC7CA567
BD7AA39A
3B1FB91D
BE0AFACF
3DC09CD6
3BB8B031
BD007E16
3E2108A1
3E05684A
3D7BC4E5
BE2690E6
3E23B6B6
BDF5BC70
3CF1B41A
BE037507
BE01CA2B
BDAA6222
3C8FFCAD
3E2AE60C
3D373BF7
3E04EA15
3D307349
BE33D2F6
3D8B05EC
3E0B5F30
BD8D3EE8
3E289955
BC689A9F
BE168138
3DAEFA58
BDBEB989
BDB433D8
BDE70C08
3E051CE7
3E269A3B
3E3369EA
3E255B6D
BD96EC0C
BE0B4EA4
BDEF35A3
3DD41370
395B4463
3DA52D7B
BDF381CA
BE193056
3D497550
BE2776A1
3E271E69
3DA16599
3DA8A00A
BDC59F38
BE020F89
BD0F1A0A
BD87092E
BCE712A7
3DA573D0
BDE6CDA8
3D96F414
3DA3303E
BB29FAE1
3C227411
3D8DA3F4
BD875D72
3E212ED9
BE0135A2
BCD56619
BE255079
BE0C7F6C
BDD9ECDD
3DD461F4
BD9DD614
BD911DCE
BBCBE9CD
3DD678D8
BD8C7A58
3DE23E61
BC1E9802
3CE8467A
3DBB7465
3DE0A800
3D8D6EB7
3E26874F
3C44CD6D
BDF214F8
3D2B30B9
3CF4F78A
BE1E5DE2
BDC9AF5B
3D9BFCE4
BDBA59C5
3D15CE60
3D5DADF6
BD427A7B
3D9C6AA8
3E121FF1
BD9F4B6F
BDC69D6C
3C2EE94A
BD161213
3D919A83
BD2036A6
3D45E20E
BD22784B
BD806C07
3D14166F
3E0F6750
3DF26FE8
BD0426E6
3DE2313F
BDD3C90E
3CD496B8
3DD78F40
3E23A055
3DF128A9
BD79AD69
3CA867F1
BE221270
BCC178DF
3DFF2C12
3C846B72
3DD1ADE2
BD13FCA0
3D186D02
3E139708
BDCC43BD
BD98AA0F
3CF3CD85
BAF10728
3DF3ADBC
3C4C5B8B
BD71E286
BE2B7B59
BDFC9FB0
3DF47AC0
3D296679
BDFD2F65
3DCEA875
BDB7B922
3DE4F8FC
BAB00AD6
3D9CD858
B8FD44CB
3CA7168F
BDBBE16C
BDF4BF27
BDFAFCCC
BDEEC93B
3A982BF4
3D22224D
BDC6D9DC
3D2EA918
3D027E89
3DB0E0DD
BD81CD89
3D3D0132
BD82AEB7
3DABD50F
BCFE4839
BD986CDF
BDBB103C
BE11C316
3DD44F56
3D94A30A
3C093634
3E22D8E4
3D1ED9E5
3E03375D
BDF041C4
BE1A5ACE
3D6B7094
3E2543BF
BB7DBA77
3D634E08
3D4F524E
3C2B893D
BDA2C844
BB2E5809
3DE11702
BD6FFF0E
BC89B027
BCD73BB3
BDA01797
3D22791D
BDCF5497
3C9794E4
BE155DD6
3DDF0E34
BDA74E8D
3DAFFB7B
BDB42EF4
3E1CDB5C
BE15FD6D
3C561A27
BE10329B
3D0416D2
BD503FDF
3CB7F750
BE3149FD
3D32CE18
3DD307D3
3BAEC3F3
BE2846E4
BC79FBB3
BDBC919B
3D707C0A
3E1AC90A
BDF78B6D

