014
1FF
03F
022
01D
1B2
1FC
03A
1EC
1F0
1DA
003
1C7
04A
002
005
061
000
1FC
1C6
1FD
1FB
024
1D8
1FE
1F0
1FA
1F7
1FC
006
032
1E2
17F
074
1FB
045
00C
016
1AE
1F9
026
1C7
1FF
033
1EB
1F5
1E8
1ED
1FB
000
1C2
1FF
001
000
004
1EB
1FB
019
1CF
1C2
015
1FA
1FF
013
1FE
1D2
1F9
01D
19E
1FB
1F8
00B
1C0
02C
058
1F3
1F8
000
006
005
1DB
1FF
1FA
030

