228
FA6
D01
E1E
C75
F44
B37
0EA
B14
310
2EA
235
119
FFD
398
27E
E47
2B6
3D4
E78
B8B
2FA
BEE
D8A
C70
4AB
2DE
203
051
DDB
D59
391
E32
199
DD6
11C
028
3B6
2BE
340
B70
EE1
26C
D09
301
3BC
D34
C17
11A
D49
29E
EAC
068
25B
175
EAD
167
BAB
297
F8E
ED4
C4C
E97
E39
CED
1F3
071
08C
25B
36C
EC8
276
2A3
E02
FB5
1BB
409
23E
B14
0DF
3FB
092
C49
FFF
07F
F05
3DD
D2D
CC5
D4C
D91
FA2
FDE
215
C2D
16C
EC4
ED6
21A
177
1EE
28B
2DD
E7B
29A
F0A
020
C99
327
203
C53
DFE
0DF
316
F80
E03
D33
43C
0FA
40F
E76
B82
480
4B4
F1D
3B7
E9C
CA2
0C7
EF6
489
F82
175
585
3D8
3A5
FE6
071
B83
1F1
FDF
F5B
2E3
25C
CE8
187
F3A
DA5
C4F
160
DDB
F68
FEA
238
1A3
157
BA2
0DC
22D
18A
13C
560
526
FA0
E74
BFD
3F1
297
D23
AF2
257
209
08B
37E
C4C
C0D
C26
237
D18
F8F
2C4
DBA
F24
C63
F38
177
179
D84
E0A
BF8
10F
CAF
DFB
076
3DE
DC6
519
EE7
2DF
D84
C58
3FB
C08
2A2
FFB
37E
F8A
015
021
2C7
D8C
DA9
3C5
E22
291
07B
D9E
19D
368
D54
CC6
291
C48
1DC
10E
0C2
3A8
F1C
F2A
1BC
273
D32
42D
BE3
E6F
C3D
E87
DA5
0DB
C95
E93
DE6
D87
D87
2CD
320
E4F
DA5
0CC
F37
2B2
EC9
2BB
24A
2D7
28C
E35
0A7
137
41C
118
E10
2C6
25C
D73
14B
BCB
331
0B5
400
DA0
D15
0C1
C34
E34
F16
D7B
D90
0D1
C8F
2E5
05D
BCE
265
CD2
FF9
03D
34F
2D5
FC5
EB5
F54
3A5
161
FFC
C4E
2B6
3CC
E93
23A
EAE
053
D2C
D4E
3CB
E22
0CF
55D
F8C
C0B
4CA
E19
16E
162
00A
10B
46A
F93
122
1DE
EDC
BC4
A90
13F
F2D
EED
36C
D90
283
1FD
F43
49E
00C
A9C
560
255
116
1A2
F09
F5E
361
D3F
D3F
05C
1AE
0D1
C43
F6E
30C
C7F
4C4
06C
234
BFB
E18
C6E
CEC
3C2
C77
3CD
FBE
D30
FFB
0EB
BB5
ED5
BE9
14F
DD2
062
F7F
3BD
34A
F1E
DE0
EF2
0FD
D83
2CC
DF3
CE5
B06
12F
E7B
CB3
B56
F54
115
32D
47C
1D4
346
3EF
3AB
003
B6E
F21
05A
0EB
AA4
367
2B2
FA3
12D
FF2
DF9
D23
00C
D9F
EFD
1B9
E7A
F79
4C2
275
407
301
C3C
365
1F3
333
312
F38
E9C
3C6
DF9
F64
1DF
138
048
F42
4A1
163
D0E
39B
0E4
CD0
E0B
B4E
4B1
226
3B3
3E7
E7F
1B2
B30
1AF
061
13F
2A7
D8F
1F1
179
E5A
1A5
E51
D77
DFC
3D7
406
F62
D11
F6A
281
3BE
501
476
B86
B7B
26A
C7C
0CC
C0A
099
EC4
CBD
C67
D38
20F
357
F06
05C
F60
CE1
1BB
107
2B9
D69
535
ED1
362
DF9
2D1
1A7
0DE
149
C66
3B4
0DB
EBD
2D2
C73
F6E
162
E24
E5D
DFB
D28
320
26E
F4A
370
14B
3F9
FF1
184
FE3
D1B
0DC
1BB
39F
21A
437
17A
F9E
0AF
F8E
F7E
2F7
C18
DFF
0D4
0E6
19C
CD5
2B7
357
CE7
E5F
1BC
009
124
19B
EC2
CE2
D7B
E61
D41
0FB
107
21A
FC3
208
CCB
377
D36
25E
E5F
F88
C2E
11D
1D3
D8E
322
EAF
D2A
4DE
20E
08B
04A
E6E
2E4
319
F00
437
B26
242
537
F97
DD8
C41
1B2
F98
E34
EB5
233
DC3
B6F
32E
13C
1FE
04F
FE0
C9D
13A
243
E56
DF4
33B
C29
44D
EE2
F21
0B7
DAB
0D6
B7A
308
045
0D5
1A7
EC1
DED
E18
DE7
C80
3DC
1AF
C20
20B
D02
DF4
FF1
CB2
2EE
F65
176
CF8
334
188
DA1
411
0C4
E3C
00B
E93
07C
B3C
024
440
CC1
BF7
06D
DFB
EF2
F0A
E4A
3F7
D79
240
250
E90
B2B
C46
EA4
494
355
02A
29D
187
FF7
CDB
33C
220
1F4
1FA
178
FC3
253
F9F
EA2
25F
EC6
E46
1BC
DAD
B84
D20
1CF
F17
D64
B43
315
E94
E36
D44
16C
088
075
E2A
2ED
18C
189
CD5
304
38F
177
BB3
EB0
CA6
C46
C08
D5C
F55
2A1
C2C
F1D
2E2
CC3
402
2EA
1D7
F8F
D69
FD9
C67
EE7
D78
2F1
F38
361
BE0
249
C08
451
BB3
19E
386
FDA
23F
FE9
F7B
EF6
074
DD3
381
E45
33A
1EF
B88
FFC
2F7
BB4
039
560
E33
0AD
22B
C58
ED2
0B8
388
2AC
3EB
E9A
C45
E7B
FA6
3F8
E9C
20C
FB4
C13
2E6
DCE
BFE
B8B
05C
051
2C8
E8D
EF5
C60
0B7
31A
C6D
DCE
EBA
024
00B
181
2A8
CB6
02C
CC4
48B
33C
EF0
191
07B
342
FD4
08B
C18
27A
108
FB7
E70
1FC
15E
F20
BE2
B6F
12A
059
143
F97
582
D0D
B47
C07
083
074
3A1
C04
2DE
2A4
C89
202
C34
1A7
BB8
FB2
FBF
B01
501
E8E
ECB
345
B5A
C8B
4AB
E87
444
1A3
409
EC9
1E4
293
2D7

