3BCC8648
BE22A131
BE0D0672
BD8B11AA
BDF2813F
3DEC6745
3B936521
BE541654
BDC9F7A5
3E14A01B
3E368055
BDF95A62
3D052794
3EAD8706
3E819400
BE55A782
BE2E7B93
BDDFB9AB
3C29F3F4
3E60A92C
BDDA4DCB
BE1DF126
BDA37A08
3E38A3D2
3D22658E
3DC94093
3D7D3E6D
BCB4B830
3DE38AEB
3D25D6D8
BE3CD88E
3E2C3EF8
3E57ACCB
3E0B3D31
BE124146
3E318B99
BE4A8AD8
BD8D8DCD
BDA3EE55
3E44C5A4
3E89A2EE
BDF750FD
BE1CE0AC
3ED01792
BD8C02FD
BE6DD865
BD8B307C
3E80BC9D
BC8C8A38
BE0C45FC
3E0A775E
3E202839
3E10CB39
BE9F7B42
3D2C186D
3D112A01
BCF9104A
BD91B49E
3D3B7650
3E8BE62D
BED17859
BEA22537
3E1677DC
3E246D60
3E693AEB
3EC475AC
BE63E982
3E5BFA9E
3DC2927D
BE394D9D
3E5CE1D8
BE35A2B7
BE20C12C
3DEC840B
3E23A623
BE72E064
3E3740E7
3DF14E27
BE21D42F
BE527D1B
BD242E7B
3EADC1EB
BD06BFB3
3E885BFD
BE315291
BDA142ED
BE1D2ABB
3D8932C5
BE7A3E48
3D3BD28A
3E1699F8
BE130C76
3E95FC0E
3DAFAE1D
BE0544E9
3E3A8BE8
BD3DB668
BE51F111
3E18FA6F
BD09C73B
BEA44F0D
BE3831EF
BDF6EDCE
BE23B899
BCA8DA34
3E2BB122
BE55A180
3E35F712
BD533069
3E39910D
BD4CE769
BE4E26AE
3E214CB7
37DB6B9C
3D0C0238
3E0D7528
BE684190
BE89585E
3D98CE54
BD589775
3E63BC11
BDD76E56
BDD29396
3ECF916F
BD0E8EA1
3D8620FE
BE4FB0D0
3E852988
BDA8C98D
3E765276
3E5F5783
BBC801F3
3DDDD490
BD6484C6
BD3C2CCF
3DB62344
BEA1CC96
BE8CD32D
BDA547A0
BE3F59C3
3D6801DB
BD000E18
BCAD2D3C
3E64B391
BE81FE7D
3CC91E1E
3CA4B96C
3E3E02C0
BDE5730B
3E573C4D
3E7AD552
BD4530F0
BD8C05AF
3E0EEE2D
BD9FD75A
3E8AC626
3C82281F
3A85F374
3E13BBCB
3CDB6707
BD95620B
3ECD0924
3CA21957
BE06FC53
3EE2F4A2
3E93AC81
3E0C0028
BCAF6740
3E842A4E
3E9BDF15
3E1F8CD7
BDC4D7A9
3EE9BB5E
3E8142DD
3E07C9DE
BD4B1C91
BDC94D34
BD07C4DD
3E8A17C6
BEBDD093
3E5F1CA6
3E835A07
3C04B2D0
3E2F3503
3EC4E18D
3E484361
BD3C1665
BEABF023
3E38AD17
3E3EA401
3E3F4259
BD834C5C
BE57B924
BE50FA5B
BE5A8264
BDB86999
3D382AF0
BE17C4F4
3E506B00
BE4642FC
3E5BF3BC
3D42CAB2
3DA816E9
3DEF6D17
3E42C7C8
BE5D1504
BD8C7529
BDA789FC
BE82453B
3CCF8DC4
3D9EE583
BE4F57AD
3DC0C4CB
BD5619CE
3DB65878
BD47EE33
BE6004B9
BE51C383
3E1F9A93
BCB9C7E7
BDFDCB7C
3E24F49A
BD343AFB
3C0DE744
BE759C4A
3CB34AE9
BD0EBA10
BE0BD1DC
3D9D70B8
BE3BF49C
3E80CA2C
3E465840
BDC4B69D
3DCF2B18
3E76C043
BE4CC846
3EAC6E44
BE42DBC3
BD948451
3D8E501B
3D44641C
BE0850D5
BE203D38
3D4E0EA5
BE2042B8
3E8EEF00
BC543C7C
BE170C48
BD0F3060
3E0D790C
3E309E5F
BB1D2384
3E9BF4C8
3E9299FF
3E8F6B9F
BE3A11DE
BDD3D727
BC4B0C7B
BCF7F050
3E7B8F5B
3E0433DF
BE3C4A23
BE59EAF7
BD3A4B4A
BE5B5EBC
3E8C3C01
3D0FA6BA
3B7CA8C6
3DA9DADB
BDD0904E
3DFB6838
BDBAD1B7
BE44CE95
3E0A6F9F
3E59E0BD
3E98ACB9
3E59B453
3E0EBF6C
BE9964A2
3C1DEDA3
BE860A0D
3E603303
BCB8D230
3E4543A9
BE4ADF24
3DE7D3FE
BE83DE31
BE37246E
BDCAF314
3D99F266
3E1A3DC5
BE30A809
3DB0724D
3E5DBD60
3E9C87D9
3E69CC9B
3E4879DA
BD4C1C30
BE16DB8B
BE95355B
3E255445
3EB72EC4
3D115FFA
BDF5D780
BD627399
BE18F34F
3E31F10F
3AD1F060
BE28B0F9
BE6BE896
BDE052FC
3E264E1F
BDEE6E03
3E8F1122
3E1D4DB7
3E873739
3CB241D9
BDF0DD41
BE0CDF9A
BE0C898E
3D0B656B
3E07114B
3B23960E
BC6F7AE0
BCF8B23F
BE026525
3E574AB6
BC1EAD6A
3E6A10C1
BE6F96C4
BDE721B8
BE4351F5
BE187DF3
BDD87EFB
3D8AC330
3D8F40F8
3E2B5CC0
BE61956C
BD7266BE
BE291ED4
3E191E3E
BE5BC15D
3E45D2D0
BD44E17C
BE55E02A
BE50C42C
BDE68AF9
BE185BF8
3D5D6677
BBC91DA6
3DD091CD
3E79700E
3E8ADA0F
3E2819C8
3E51CE77
BCD40101
BE785210
BD2D8A84
3E8A0C2D
BE54D1B3
3E5598C4
3E956ADD
BD7B260C
3E160134
3E03FEC6
BE4C66D0
3E91AF9A
3E2461FE
BE0E92C6
BCA0B8C3
3E4643DB
BD84E912
BE64D524
3DE08238
BD586A24
3D9059B3
3E3F6E59
3EAAE1A9
3E63169E
3E57DCBC
3DF45F8B
BE999ADE
3E693620
BC91E92B
3E62471B
3E0A96A4
BE32E013
BE7AEC6C
3D202A1A
BE306CD4
BE779550
BE24C9C6
BC9060E7
BDAE8DA0
3E05AC6E
BE57F9A9
3DE1A067
BE6334F6
3D1AA6E5
3E4633F0
3C9EBC09
BD3915E3
BE110C76
BE104296
BE31935C
3DF02AF7
BCB06369
BDA78C00
BD876136
BE69BFF0
BDA22C80
3D571D19
BD76D9DD
BDF8C48B
BCBAA773
3D39AAF5
3D809EE8
3D60817D
3E82EE91
3EBB0A10
3D9614A6
BE9A48AB
BD9D2767
BE5DF020
3D70A997
3E82F539
3C9B8CD6
3ED90741
BDC02A15
BE837356
3E197D07
3D74E8C1
3E8075F2
3E105CF6
BE0701CD
3DE497B4
BE18C1E0
3D86CF60
BE240EE6
BE53C87D
3E9BF308
3DABC041
BE73004B
BDABEB25
BD1423AC
3DA39BF3
BEA50C45
BB0FF3D2
3DC3BA6D
BD4A9E70
3D7CA068
3D3DD451
BE4AF987
BDB81144
BE612359
BE64B12F
BDAB9123
BE46213B
3DAD2130
3E08848A
3E1BC4A6
BDB77753
BDAD3C53
3E3D6B10
3E124970
3E2EAB53
BE6674AC
BE77DF58
3EAA2E7A
3E3BB398
3E5B6318
3DEAD8E8
BE132AF3
BDD1C05D
BD8852F5
3D35A419
BE294575
3D970098
3D9E4950
3E0ED058
BE7CF8EF
3EA1AF48
BE0721F2
BD956F08
BD84E068
BE62DF9D
BE4050C4
BDC7086C
3E26CDFC
3B4814C1
BE479D00
BE4D56E6
BDE0E126
BE0FE84B
BDD4A9B4
BE6FCD3F
BE114C43
3EBE6723
3E666500
BD69F312
3EC89421
BC488FBB
BC801847
3D2D6ACF
BDFF166B
3EB260F0
BD0ACAB6
3DD4E4AC
3D8F36D0
BD6037FF
3E5632D3
BE119938

