3A2
7D5
7D5
0F5
4F5
77A
194
70B
3FF
0D6
6D5
29D
7C7
3FF
2BF
179
256
0AA
6FB
438
4B1
143
68F
24E
3FF
664
7B4
7FE
5CC
400
71E
5F0
6D5
1C5
308
3FF
45E
5AB
12D
591
05C
094
0D3
2A9
10E
519
7D4
069
7A4
1CE
104
546
5E6
4EA
75E
5FC
7B6
282
683
006
0EE
59F
098
0EE
6F2
7CA
6A6
057
764
5E3
038
6CB
524
544
398
42C
01F
65B
549
1A4
07F
1C5
790
0B4
318
131
691
0B9
5AB
400
382
007
01F
257
04D
674
7C2
7D7
7FC
32E
7F2
6B6
0F8
08F
735
02F
188
7B8
793
3AF
7AD
68C
72C
73D
409
59A
062
1EF
165
03F
3D5
1D3
387
116
0CF
5E6
48A
1F8
09A
698
0FF
471
2EA
5D7
5C6
168
4C2
09A
734
0B1
6A8
3EA
081
7FC
210
5A4
1EA
01F
3FF
237
043
437
147
650
109
302
057
0F3
7CB
6FF
6B8
6C7
21D
265
5FB
0B8
67C
7D7
76A
39B
6B1
725
321
40D
604
025
0C3
586
4CC
34B
161
083
0F4
1EC
27D
5F8
5D7
097
700
1F1
400
5A4
2D6
155
0EE
518
6AE
380
7D3
714
022
086
349
2C8
327
05C
7A4
215
022
554
157
154
074
7A4
74D
400
2C8
383
778
7C7
61D
219
479
0ED
6BF
3E3
30A
400
739
0CC
10C
5FD
5FC
3FF
79A
4F8
109
272
675
529
3EC
22D
097
6A0
6AE
6E7
04D
798
52D
057
0B3
1E0
792
144
2A7
359
257
253
62C
0A5
0B3
755
5D6
231
1DD
720
4EA
32F
12B
372
738
688
1FA
738
40F
527
307
68D
73A
7A7
350
681
6B9
557
191
213
553
24F
772
5A1
3FF
69A
114
3BE
2FA
4F0
061
653
62F
3E5
08A
356
16D
708
01B
2AA
6C4
16C
7D4
689
758
087
5B0
76F
056
6F8
267
501
059
3D2
714
0A1
4A8
7EB
710
16D
241
18E
0DC
262
73A
50E
5A4
236
0D3
77C
5AD
164
2D9
0F4
072
34E
0FE
569
154
674
134
7FE
042
295
704
050
1F5
146
55B
12A
6EE
7E9
4B5
5DD
666
027
0F4
497
7F7
11A
400
778
1F3
519
6F8
086
182
1C0
37F
3C0
781
0B8
271
737
711
36D
5D2
21F
78B
03F
0AC
0CF
0AD
77B
535
694
0C6
13C
6EE
0C2
0EA
6E2
601
33C
5AB
670
7B7
3D7
79E
755
177
289
517
5ED
653
505
648
5B8
4C5
0BA
7CD
0EF
7CB
7E4
168
68A
023
5F2
000
655
22A
1C0
1D3
60B
6BE
19C
167
7C1
67C
153
70B
65E
072
774
573
71A
0CC
1DD
0C2
723
613
3DF
666
381
07A
6DF
6A1
150
024
77D
3D2
0AC
6E6
2D2
0EF
79D
214
4A8
234
156
3FF
266
62B
588
3FF
6DF
72B
157
0BE
165
5D0
600
21B
77D
253
2CB
7C1
7CB
003
2E3
76F
07E
294
400
103
222
0D8
11C
6E1
34A
07F
5A0
744
41E
63D
0DA
5C3
23E
0D2
012
11E
071
6CC
400
08F
02B

