DEB
F7B
07C
35E
300
C00
095
0CF
C38
2C3
0E6
1FF
D4A
CE5
FEF
ECD
D01
ACA
CDA
F1F
022
12D
3F5
AA5
1C0
9D2
01A
CC7
DE1
E47
693
11B
E7B
DA2
AFD
310
B4E
262
01D
118
179
DF5
E26
0B4
538
1BA
3F6
132
122
3C7
124
D7B
E5A
F4D
3FF
16B
098
ECD
E8F
29A
C80
F10
3C3
05D
AC8
2BD
443
646
043
0D5
E52
DDF
E58
BB1
0F2
38D
E08
F1B
B8A
C87
F31
E1F
EA8
0C2
C00
EA7
E0A
CD2
DBA
28A
012
C00
09A
3FF
084
07E
294
C00
179
232
CE6
D6A
129
F83
FDB
0C4
2C3
F7F
E9F
E6C
E33
249
072
EFB
EA4
DD1
E14
1D4
3FF
2AC
C00
FA2
FBB
0EF
CFF
ECA
078
2A0

