3C8A9B83
BD20A71F
3BE362E1
3D184875
BC94DBFE
3DBCDDD9
BD9DE2BC
BD94E313
3CC40F80
3D8D6A22
BBED234D
BD36695D
BB91CB46
3D26C9E4
BCFBC23B
BCDF39EB
BD64DB2C
BDADE88E
BDBD6C73
3CE7AC00
3CFA81E6
3DAFC8E9
3DAF274C
BD110EEB
3D06EF21
3D17CD28
BD06052F
BD7AC86C
3DA95831
BCA3AFD3
3D5E3FA1
3DA239CB
BDB9AEA4
BD5CB466
3D5D8412
BB69207F
BD8AB81D
BD3A0812
3D4D2A16
3CC5BFD4
BCDF1284
3D6B6E61
BD6D6D5A
3CBECB43
3D468182
BCE4C90E
3CBD18B8
BDBC388B
3D6E32F7
3D5F2FD6
BDABAF2C
3D3B493E
3A367B46
BD11C8DC
3D17718A
3BD4B12B
3BAE0FDC
BD6CD00C
3DAAD75E
3D436E06
3D8B88E8
BDBC2758
BD23D45B
3CA4CB31
3D29FB7C
3C3B7312
3A8AADA0
3D630390
3DB95033
BDA7B24C
3D8B3BC7
3AABD047
BD89589B
BB3D2120
BC1D308C
BB744BF2
BC315DA1
3DADD4DA
BDA3DA83
BD9C272B
BD51D90C
3DBCBD4C
3CD67237
3DB83587
39FA8B69
3CFA4280
3DB90A6D
BDABEE04
BAEB6A79
3D823C44
BD169D56
3C3CFBCC
3D4A3C25
3DAF7135
BD736E16
3C8E96BA
BCE7305F
BD19D437
BC7063AD
BD9B9716
3D360EE9
BBB00FE3
BCBD1887
BD1A6FA4
BD930617
3D0B17F8
BC845D1D
BD32CDBC
BD889776
3D86442D
BD2FC668
BB9EA2AE
3B36971B
BD734AE9
3D0DA1D5
BCFEF5EC
BC8441F0
3BCBBC7E
3D02E591
BC37A728
BCFFCE62
BD57FBAF
3D5BAF61
BCAEDABE
3ACCD411
3D125A01
BD7E8C77
3D98A914
BD0B419B
3D395FB1
3DA78BB7
BD536AED
3D492EC8
3D2FBF8A
BD84E3DC
3D1DD003
3DBD3416
3D0902DB
BD9462E7
BD8D5799
3DADD2F8
3D957AE0
BD25C279
3DA8CAF8
BD8A0369
3D0837C9
3C094AE5
3CDFFD8A
BD76D549
3DB4FF01
3BA640F4
BD7451BF
3C84E749
3D99F1D6
BD091F53
BD41216B
BD70F49E
BD85609C
3D44B0D7
3D7275AC
3D4E1E9F
3CCE0C50
3D01C84A
3CCB5224
3D032169
BDAD9186
BC636188
BDA0F005
BD27786D
3C2662D6
BCD5E7FA
3D4CDF52
3DB2F466
BD36F2BE
BB42F815
3D61E46C
BDA887AA
BCC84750
3D7DC161
3B461BCE
3D18BC98
BB8EE9BA
BD4F191E
BBEC3C8F
BCBB82E8
3C960AA0
BD9BFE69
3D25B656
3D899F6E
3B3C5E9F
BD965627
3DB31092
BD1EA6F8
3DAAD20B
BCE23AB7
3DB7795D
3CD6DEC6
3D86E831
BDA65012
BD8049D7
3DA392A8
3D2CB48E
BD606C50
BD9CA9A9
BDA2B093
BD94C912
3C84BB0D
BC4EC878
BBA27749
BDA8D53B
3CB7958A
BDB565BC
3D0CF079
3D3E5913
3D683C58
3D6AE875
3C93F4ED
3C87C991
3DADC20F
BD500867
3D15F8C1
BC9288C7
BD5A4D59
BC92D36D
BD51E2A9
BDA6B451
3D5F0800
3C9834E8
3D9199CA
BD7EAE62
BD67E997
3DB6B874
BD1B2C76
3D902DD0
BD2AB78D
3D23E36D
BD04C3D0
BC25057B
BDB191DD
BD25DD4F
BCFF95AB
BCCCF35D
3D68F324
3C4A9868
BD4F68CB
3D193234
BDB25750
3DAA82CF
BD3AFA53
3AB5DED1
3DBD1411
BD41088C
3CAF0BD8
BD1DF352
BCA8B3E5
3CCD991B
3D027007
BCB792F1
3DA65171
3D906FB1
3D49CAA1
3D4A7CDD
BBEEC0EC
BAC56D81
BCD47FA9
BD89F857
3D9F80DE
BD5BF029
3D12E9F5
3B8ED6EE
BD97A5C6
3D1A72B4
BD1A9B15
BCB1B475
BD5E0840
3C96A652
3B4AF509
BCAAFFC3
3D477AC2
BB9BF810
3CA2EA0C
BC72150F
3CA50841
BD4D3E6E
BD266294
3D0EC031
3CFF9976
3D262811
3C61498A
3D3C4327
BDA81778
3DA4F723
3CEC2F64
3D8BB765
BD967327
BC3FAD37
3C8D52A4
3A663C4E
3C7B4435
BD8932EC
BCDF56C5
BD177940
39E41062
3D718D58
3D33A3AE
391EEBBA
3CDF242D
3D9C8CC1
3C875072
3D5835C0
BBB6A8B3
3DB7B0AB
3D9FC9D6
3D69197F
3C11B823
3D1E19CC
3D8BCF66
BD723EA5
BD2A3586
BDB05C3D
BD06374D
BDBB2279
3D58508C
3CB88D8F
BD98BEE8
BD46FC66
BAB73530
3D1F76ED
3CDE0EAF
BDBC75EE
3DB0DDCE
3C822880
3CB66C51
3DA3F97A
BDB36898
3DB1E5AB
BD742110
3B8A12A8
BD269C47
BDA9D166
BD3A72A7
3D976E53
3D8F3DD9
BB80AA9F
3D955433
3DA74FD4
3D7F5C01
3CCE3A4A
BD4B51CE
BD27ED1E
3D0C0D23
3AC82BBF
3D8E412E
BCD6E8F5
3D1AD2AB
BBACFA4E
BD213D7D
BD5AB8A2
BCFC279A
BC3507CA
3D483F02
3CED06A3
3D417472
3D219A95
BD388082
3CE07D0C
BD929819
B96469B1
3BD7866B
BD446376
3D0CE23D
BD5DC6F5
BD8106B0
3C6B7C39
3BBA6C94
BD472338
BCE4AAEE
3D896DBB
BD3C85DF
3D0459C1
3D3633C4
BD827999
3D601F8F
3CA0C92F
3D514B5C
3D5F63A8
3C132CEB
BD158227
3CC62791
3D200AE7
BD0E996C
3C7B5C2C
BCBC8AEC
BDAA02D8
BD426E84
3D057F8F
3C0BB01D
BD9DB219
3DAC09C5
BBDC9B72
3D563E18
BD61EB3B
3DAD1548
BA5EDB3E
3D87894D
BD77D47F
BD30AB19
3C9212B5
3C11B44E
BD5E6AC7
BCE93C29
BDA43981
BD881307
BCD221ED
3DA2DD76
BCA20A2A
BD87BD06
BDA9271C
3DBD80FD
BD99684F
BC05DD9F
BDA9DD59
3D8C3952
BD10F67A
BD75FC85
BD5DF70F
BD91FB57
BD911976
BDA4927F
3BF60BE4
3D6DEC5E
3D2C492E
3D627C60
BD96D14D
BD5297BA
BD888A45
BDB77970
BD2D374C
BD3EBB8E
BD539C71
BD516E11
3D8170A5
3ADEE16F
3D405322
3CD7BC54
BC5240E6
3D9DAD4E
BC335EF8
BD97CC53
3D4380C7
BD8889FB
3DA9F704
3D049AD4
BD56D42C
3D5C8280
3DADE47B
3D9A7DB2
3BA11937
3D4D6F9E
3D9A6472
3CD58037
3D5DF25B
BCAFFB35
BD289BA1
3D610DB4
3D4D9436
BC94AE41
3D9BEC89
BCB93165
3C4CC5C9
3BB9C46C
BD3DE1A0
3D49549D
3CE338EF
3CA6ADFD
BD431F94
BD3377BD
3D84BC47
BB740A68
3D9A0BEF
3D3F8B60
BD8DD8FC
BBDA254F
BBAB15C0
3D654E00
3DB0C31C
BD120D1E
3DBD21C2
3DA4C083
3D7CBEF0
3CE0BA2A
3D362A53
388B9C90
BD98DECA
3D23EEA4
3C5481EF
BD57F184
BD3F300F
BDB90152
BB9FA156
BD222192
3B94626B
BDBDB90E
3D8AD8DB
3D013746
3C02E4C7
3D27374E
3CC9E942
3D02DDF3
BDA64A15
3DABACE3
3D7FC726
3D5A4C1B
3D553E30
BC99C432
3CC94453
3DA37B10
BC67D5EF
3D9CA5C1
BA99FA16
3D341CC2
BD84EB11
BD241A3B
BADEFCC5
3BDAEE0F
BDA80A3F
3D6CF075
BD9F35C5
3D54CF12
3DB5B470
BAB7DBDB
3D8258DB
3D24D06E
BBBA6AAE
3C0FE07E
BD8CCA8E
3DB48B60
3DA018CC
BC7A593C
BBAFAB69
3CEFE5BE
3D7767AD
3D9FF4B8
BD51A919
BD373DBF
3C8C5A3F
3D53BECF
3B1662E5
3D63870D
3D293752
BC9983D5
3DB193C7
B9E26424
BD22E0A3
BD234F0E
3C83344E
3D10D117
BBAA7DF3
3B20AD8C
3BD98A2E
BC11AC33
3D3E31D8
3D4E8786
BCCAA844
BD59B349
BD8EAA50
3D1B9585
3C953076
BC93FF35
3D9D3389
BD187BB2
BD97E3F9
3C8C297D
BDB9752E
3C1A5CDA
BC2E6A94
BDA249C8
BD212325
3D889C26
3D805B84
3D4C98BD
BD9DE1B5
BD8F69A1
3C9BBC4D
3CE2A7AF
3DA04601
BD94EE12
BD24537C
3DB58C5C
3DAE8126
BCE5A9A2
3D8B789D
3D9AA74A
BD94058D
3C4519A5
3D138671
3D1B11E4
3D53F316
3CC33A74
3DB46AF8
3C8ED044
BD9FA0B2
3B48AA48
BD9C22D3
3D498B9D
BDA74E1F
BD45295F
BDAD1B83
3D9B9E50
BD6BAA32
BD4DE0B0
3D27F866
BC0B4CA8
BD1B86FE
BD0C273C
3C06AB16
3D71414C
BC73069C
3D87441A
BB4645AB
3D95D6F0
3D2F944A
BD3FB71B
BC37973F
BD2655A8
BD19745A
BD80AFA6
3C985B7A
BDA1C909
3B5B77D4
3D73CB4C
3CD71081
BCB8E8F2
BD26F34A
BBB64D13
3B343F99
3A40BC88
BDB50D3B
BD01E31D
3BD4FEB4
BD10BF65
BD5079EE
BD689A08
BD8E7052
BCC457F5
3C301EC2
3C8B257B
BD8DB9E3
3C88A9B7
3D9B99C7
BCEB0DF1
BDAFB7F1
BD90C2CF
3C4E963D
BD31EC74
BC4D49E2
3D92E35D
BDA156E8
BD2F160C
3D69A5E5
3D1DA3C9
3D9B468F
3D8192FA
BD9C4A17
BDA548CE
3D5A73EA
3D0BD56B
BD5CF4A3
3D144F35
3D360ED6
3D0DE8EB
3D01FB8E
3D5AD7DA
BDAFD3BE
BDBF0C1F
3CDE5D18
BC62F6B1
BC3EE8F6
BD9B2A34
BDB44797
BBAE523F
BBBE309A
BBAB0453
3C9142F3
BD6A679E
3B67A640
BDA6C28E
3D90E02E
3D8C61D1
3CC098CD
3C1F523C
BBA12C97
3DBE8B3E
3BC60F22
3D52BEEF
BD9593FD
BC1F1D5E
BDB732A3
3C4BB4FF
BD406744
BBCACD57
3CCA3699
BDB65530
BD788013
BD901E3A
3DB304D7
BCCF9EB2
3C86F517
BD297B45
BCE8D142
BD0FC417
BCAA46CC
BD3C3860
39294220
3C884868
BB8E5AFA
BD82173B
BD68DB3B
3DA6E6AA
BDB26BE3
BD529308
BCE6711E
3D342989
3D7E80A0
3D4CC6C0
BD746539
3D6C51C7
3CDE068A
BCD7E372
BD16E9E0
3ABED769
3C917D6C
BD05ED47
BBEE78F0
3DB6C8DE
BD14C6E4
3D1D810C
3CAB01F0
BD9737F2
BCA69E73
BD21ADDC
BC84D5E1
3D53DAE8
BC0AD110
BC084711
BDA9643A
BB4AEB1B
3D206CB6
BD7FBAF6
BDB62CFA
3BC26798
39BD456A
3CC8B62C
3CA48D76
BC15A06E
3DA22AD2
BD0E1CB0
3D82B75B
BCFB5AEA
3D9F2AEC
BBB13CAB
3D2D2077
BD76EEA4
3D5B38D8
3D27C1FF
BDBB9EE2
3C51A68B
BD23CB52
3D3CF38A
3D984A1B
BC2D96F1
3CE622D2
3C34A897
3D470918
BD87ED68
3D37E95D
3DB28A54
3CE8C132
BBEF4E28
BD6668DC
BDB43948
3AC913DE
3B0723B7
BD744602
3DB925B5
3DA9750E
3C66370C
BC379E86
3D108CB9
3DBC22C4
BD07F59D
BD0623B6
3D96207F
3CF22D63
BD2919B8
3D8E80EC
BD84C5FA
BDB08149
BCD758CE
BD7448E9
BDAFE8C8
3B29FA4F
3BF21300
3C7742C8
3D472C81
3D265DCD
BDAE6585
BD640383
BD2666EA
BD1207E5
BDABC475
3D7080F5
BD86FA26
3DA43907
BD550A6D
3CCC66FA
3DB850B5
BC3ABDD1
BD1680B4
3D30D7B3
3D09BA1C
3C818720
3D97A760
3CADF8D8
BCD8A95E
BD687F12
BD8697F5
3DAFAE4F
3C9C8422
3DAEAAA4
3D928E70
3D02397C
BD74BD4C
3D330059
BD9E6B67
BAE5E755
BA7A81E1
BC5C4984
BD4A2E0C
BCA0824A
BD660CCC
3DA4A3FB
BC4E7EBB
3D0ADA52
3D679E5E
3D489AEE
3D7D40D0
BCA2C55D
3B285037
BCBACBDD
3CA3EAEA
BD8FF2F9
BCFECF97
BD4F1A5D
BD9C7444
3D31C4D5
BDABB4E4
3ABF4387
BD93068B
3D8D9D6A
3C66E077
BD0FD441
BDAA9AEB
BCB19EBB
3CA04760
BD8D8564
3D9B41A1
BDB0B4A7
BD2CC7DB
BD495AB3
3B2653F3
BB593AF4
3DAA54A3
3DAF12BF
BD869B95
BDB20FBE
3D89B7DB
3B1E2C8B
BD294E45
BD37D0CC
BD808ACD
BD2A6695
BD93D062
BD6DCD4C
3C9EF5E0
BD0B8207
3D65C729
3BC164CF
BD1CF84F
3CCE0B05
3D1A2E88
BD65D7D8
3D8D69DE
3D10C95E
3D79422E
BD9A496B
3D52C4C9
BD89F33B
BD812464
BC8922F0
BC6D2CF6
BD89B963
3B607CA4
BDA93044
BD92A929
BD0719A5
3D825828
3D905B96
3DB0C3DC
3CC48469
3CDE69FA
3D95332C
BDBC6E50
BC6EC853
3C20AF87
BC4F1ABF
BD86113F
3DA39C7E
3C9D5999
BD2DF855
BD4B16F1
BD91BA83
3C0AFAB2
BD0A4E92
3D500607
3D90D01F
BD292AB1
BC91CE45
BC4AAEC7
3C8003F1
BDA9ACAF
BD808800
3D916044
BDB0E64C
BD8BED4D
3D9126AC
3D5CB9BF
3D6B97B6
BD4D70AD
BD947E13
3D8F6732
BCDC8DC5
BD8D137E
BCA75145
3C5D45EA
3D21A44B
3CC057D4
BD0A0E65
BCE9D0F9
BD898300
3D2544E1
3DB0C194
BDA91886
3D770274
3CAF43F2
3CC5D350
3D0CE71B
BD89B831
BD89E8C0
3D8E2EA2
BCF93490
3CF1DFB2
BD6339F4
BBF3ADCC
BD34DF8D
3D39762D
BD929A09
3D586CAD
BD855A47
BD226AAD
BD3866E8
3BA458D0
BB809712
BD8E2556
BCEB6CBA
3DB09E4F
BCCDDCAA
BDC0E2E3
3CA83C72
3DA8339F
BDADF478
BCCC9DC9
BC413E13
3DB9E362
BD4FBDEC
3D36366E
BD248FC6
3D1ED328
BC0A721A
3C945660
3D44540E
39A29E2F
BD84A585
3DB8CD39
3CAA5FD0
3D108F3C
BD0C9A72
3DA5D52A
3C8CAAD8
BD8817AB
3D60AF10
BD8CE2FE
3DAADA99
3BFE30F1
BD7C15F6
BDA894F8
3CD535A7
3DA7336C
BD224727
3D87B78E
3CD6ECDC
3D425EA9
BD879A33
BD6733B6
3D00F6E2
3C53842A
3D11E705
3DBA3184
BD993305
BBA62E69
3AD1C895
BD8C5799
3D3B90A0
BD94D1F4
3C6474F8
BD9D2326
BDB54C98
3D9575E2
BD22061F
BD54B5AC
3A26B101
BD645111
BCF9EBA4
3D93858E
BCA068BF
BCCF1778
BD92FE3F
BD877718
BC02BE93
3D38DB45
3CCE9D23
BD2678DD
3D496C70
3CC445D6
3DBC386D
BDAF260D
3CA7D24F
BD7FB4FD
BD7FDA47
3C75D874
BD944601
BD83E8B5
BD5906D0
BCEA38B5
3D318AA5
3C6EA9F4
BD631A9F
3D9D0EEA
BC72E351
3CE9B293
3D8FA463
3D861BFD
3D792381
BD02C1E4
3CB9465C
3DA96BE9
BDB5ECE1
BD97F6B0
BCF9DCC8
BDA2D8EC
3D476460
3D76B0FF
3B225E62
3DA4FF56
BC0F3E0A
3DB3A5DF
BD80B818
3CD8C15C
BAC676D1
3B24DA86
3D8115B5
BB06856D
BDBDE7C5
BCCBD6EC
BDAE3926
3C95BAC9
BD1805BD
3D987F54
BB2851A7
BD2E20FD
BDA9FF00
BDB2D5B8
BCFB7BB8
BD270722
BDAE878D
BD78BCF8
BDA65E5A
3C1C7533
BDA129B5
BD97CFEE
3D8D8A65
BC8656B8
3D81E6F2
BD8BC1BD
BBDA7B6C
BDB03129
BD85EA0E
BD562E8B
BD8068DF
BC891591
3CC94E63
BD18B322
BB476176
BD072F49
BD40CD02
BD303C65
3B77E845
3DBD5E6A
BD8A94BD
BDADD9C9
BCA45286
BD611611
3D4063CD
3D8FE6FE
3D210E89
BDAFB7C1
BCA230DF
3BECF6C6
3DBD5091
3CFBB0E7
3A89EFED
3D1E2B94
3DB4AB33
BD4A5024
BB645F7D
BD3B0A77
3D434A09
3D164ACB
BC333398
3C35FA56
3CCC870B
BD714AF5
BCE453B0
3D3752FB
BD220643
3DBA02A8
BD62873A
BDA34B6C
BC5AE728
BD6EBCCE
3DA14749
3D599034
BDB43998
3BE75D4F
BC6D9463
BB103D3F
3DB7F64F
BD7E5F85
BCE86205
BD5B43CD
3D8C46CE
3D3A1D4D
BCB25B90
BC0BD10F
3D2457D8
BC288D8E
BD316844
3D78C800
BCDF9183
3DB0FB01
3CBADC35
3D9DE62B
3CA6AC15
BDBBC8BC
3BE8A4F3
BD40FE94
3D85090D
BCA03BD5
3CC13469
BD61D946
3D2E56AB
BD81E2FF
BD9F7B2B
3DA78131
38372FF1
BDB1E7A3
BDA35113
3D9ED127
3CB3AA9F
3D882AF5
3D27C2BA
3B2830EA
BD644706
3D037F0E
BCDED41E
3D714182
3D36B88D
3D993386
BCA31472
BD689DCE
3D3DB3EE
BD2925D7
BD5F1A54
BD1FB7D0
3CD50B3E
3D9D904F
3C8A7A85
3C86FCC9
3D3D8230
3DAB74AF
3B04A481
3D3F240A
3D52152C
3CBF4061
3D1D9C07
BD3AEBCD
BD6005F5
3DA09557
3C9C5656
BD96B2B7
BDAE97FA
3D9614C7
BD709093
3C7DC815
393B3ADB
BD7E891F
3DA5CC5F
3CCA42D4
3D43C9DE
3BEA8B3D
BCC8EC1E
BD32CC02
BD9F9E7A
BD8A4AF8
3DA1CECA
3D19AEB1
3D7EFDAD
3C8A7606
3D8468CD
BC2ECC14
BD7120DD
BD4E6EB7
3D7F9F3E
3D83D32B
BD24D2C0
3D7F3351
3CB04FBD
3AC98620
BD07F454
BD03DAA7
BB0BD125
BC79FBA4
BB4C9B57
BC83C479
BC5C2AC7
BA28FEB2
BD80E802
BD55E7D0
BDB0E4C2
3D153902
BC4EDAB1
3D888CAA
3D308844
BD35C092
3D75EB80
3D7948D3
3D520A6D
3DAA50D7
BD478460
3CD8E6A3
3D8ADB35
3D3B9832
BD05B09F
BD9B5BDA
3D0F341B
3D19173E
BCB7717E
BD8B8D48
BD48691E
3DAF1470
3D247A7D
3CF370A9
BDAA0000
BB4DACA0
BDA4A8A0
BD27F1CA
BD78067A
3DAADEEA
BD278E20
3CEBC558
BD1AEA17
3DA26AAC
BD4DF9FA
3D5F831E
3D0598DA
BD1BC304
3D82D2A7
BD31DAED
3B401F95
3BCFDE35
BD9F6FE1
3D7FB308
3DA3794A
BD67811C
BD101F31
BD98F991
BD4FE6B3
BCB4EE97
BD7B4E35
BDB08029
BD84E576
BCDBF915
BD8171FB
3DA1DA09
3DB683EC
3A145481
3DA2BD2A
3CE42DF1
3D6A227A
3DB7E8DC
BD4B676A
BDA5D04B
3C3255B2
3B1497A0
3D166708
BD8CA908
3D1200BC
3CDFAFA9
BCA7E325
BC91DFFC
BC41C0F7
BD96FBF0
3DA5CE8F
3D63FC7B
3D036197
BD78A086
BD8008A0
BD8540D8
3C593110
BD9A0B6E
3DA2D7E7
BCFCE6C6
3D822476
BB2C5FFD
BDA2C23B
BB450DF2
BC739206
BD97CB4E
3DA7BD5B
3D81B180
BD7FC4E6
3D289962
3DA12391
BD1FBEED
BD6F2666
3984CCC5
3D7E01F0
BDA754A3
3D964437
BDAC81C7
3D9D1758
BCE800E4
BD159BCB
BDAB8459
BD84F298
3C938E4F
3DA7E693
BDB4C739
BAD61EA9
3CF238F8
BDB9D7B9
3BFCFC55
3BE9F371
3D073166
3D7FAD75
3D3EF634
3D0928FF
3CEA0F19
3D7C4135
3BE99DA3
BD391B2C
BDB1F773
3DB6FA2A
BD78C2D3
BD3018C7
BB88CAAB
BD857483
3D5ECBD6
BDB3F2FB
3D3F56F2
BDA5247B
3D8D0244
BD412B01
BD9FBC55
3D374734
BDB4B3D1
BD6CB0DA
BD74A854
BCED4E59
BD73A565
BD335F5F
BC838414
3DBCD384
3D94534A
3D824785
3D5FD563
BDB54D8F
3D554CB9
3CC89E29
3CB57B95
BDAE76B0
3D9B82AD
BD2D9017
3D682CA3
BD4B5634
3D3783EC
3D992438
3D6E2300
3D81F3F2
BD65CB23
3CBB2775
3D8A10C7
3D3868BB
3D886F27
3BF2AF26
3D54C89F
3D68F3FD
3D57D84D
BDC022C8
3BB4B511
BD1550EB
BD120A36
BDADF825
BCDE2BE2
3D5B2F4D
3DAA4782
BCF9047C
3C6AE158
3CC22CBF
3D4F967E
3CB1165C
3D4E1958
BD8FCFB5
BDBCBA13
3D08838F
3DB2A718
BD01B662
BD846AB8
3D57E00A
BD28B07B
3CDA3E04
BD454AED
3D6DB71A
3D9E8931
3CBA6B1B
3C93B72E
BD495161
BBB1642C
3D3A3C0B
BC82F934
BD47F426
3C5909A1
BD14F1B3
3D7DAEE6
BCA2D429
3D632592
BDB108BF
BA7B90A7
3D522559
3D8216F0
3D19E127
BD28D69F
BDB5D882
3D7E63A5
3D6D594E
3DA4D979
BCC407B9
3CF335C0
3C21DC7C
3CF6CCC6
BC977885
BD81782B
BD8877F6
BD2EA88D
3D8737EF
BCBD6F6B
3D16E15A
BD8245BD
BD43AC05
3D32211E
3DA7201E
3CB5115B
3D7777AB
3DADD81D
BD4E798E
BDB42C81
3BD57827
BC0339E0
BD87C3CE
BC97B613
BD13FF89
BD91F257
BD922FEC
3D7F9C0D
BC1EB342
BDBBA9A4
BD424F77
3D311D13
BD06D22A
3CEF3D83
3D3B7E16
BD8A148E
BD46FA64
BD010E9C
BD8FD53B
BD98A241
BC1AD552
3D7A2DE6
3D82CE09
BD013EEE
3D2E7C5E
BDA86845
BD4384E7
3DBA97CB
3CB446C4
BD63D212
3DA01F12
BD81A78A
3DB6127B
BC4686F0
3DB7D6E7
BD02A046
3D65DA86
BDA51E7B
BD8AD28C
BD902E94
3CF72285
3D65A4FE
B9FE969E
3DAC6B37
BD43ECE5
3D9057C9
3CEA6EDB
BC7FA0E8
3C897306
3DACD8C3
BD8EE88B
3DA3F521
BC451AA4
BBB8FB09
BD019CFF
BD907A7A
3C77B858
BD9D5176
BAC5B7B4
3D57BEC4
3D765166
BD8C38A0
BD918239
3D47CFA2
3B5AA260
BD998733
BD82D580
BD163D2F
3DACB48D
3D6B4362
BD85DBD5
BD1BF88F
BCD577E0
BC8C32E8
BCBF8F2A
BDB6EF69
3C8B1F03
BC478D1E
BC2E1922
BCA08B9E
BD3A7ED4
BD98404A
BDBBBCEC
BB1C9049
3DBC3C0B
BD6BD94D
3C09DE55
BD9FE7FF
BD79D329
BD568F46
3D84F96E
3C9FACCC
3D3ED41B
3CBDA618
BDA3CE90
BDBBEEBA
BCECFB42
BD6C4BD3
3C7A43D3
3D79F20C
BD3D91D5
3D0BDAEE
BD9FCC12
3C9627C4
3D8E592B
BD0CD7E8
3CB23B4F
BD532F7B
BD88A172
3D3B51D1
BCCFF5B3
BB824519
BD8E972C
3C0C2BF0
BD09C2D2
3CE216ED
3D7568AE
3D642BF1
3D47873D
3BBEC3DC
BD86AD93
BD947A8C
3D52226B
3D96015A
BDB14FC0
3D3D3672
BC7A221E
BCA8DC2A
3D785A28
BCD5B4BF
3CA06573
3D8BD943
3D46FC78
3CD9180F
3C9A6EA8
BDB8A4AF
BCF49966
3D5DB748
3D5A42F7
3D0EACF7
3D96B075
BD0ED23B
BDAC6EEA
BD9F0B68
3D50F920
BD4B6246
BD8E85C8
3D02DD88
BD9716D4
BD2281D7
3DB518A4
BD3E7012
BCB283B9
BD791BDD
BBDB5733
BDB5F636
3D878CAC
3CA51D1D
3D7B9637
BDB0F444
BD8A439E
3D525591
3D31A9BB
BD83A3FC
3D43DA61
BD830845
BDB9E484
BD3B5505
BB752CA4
3C213C8B
3D37C8CC
BD66E924
BD8CD5DF
BD595CD5
BDB2936D
BDBA8F82
BDA8AE15
3DB18117
3D1BF8A0
BD34CFE5
BD1A9BA8
BB938049
3D6C089C
BD74DA2B
3DB5F6C2
BD937CB3
BD921221
BC95219A
3D5CF05D
BC928C82
3DB85569
BD121A1D
3D070644
BC5E4EC5
BCB43842
BD08DD38
3DB6BE87
BD8630F7
BDB3019C
3BD9F297
BD0791FF
3D6464D5
BD8A2D1D
3C1492E7
3D26CE76
3CCDFF2B
3D4F59D8
BCC712DE
3D8DBBC5
BDB8AEAD
BD5FBB6E
BD63F745
BD3715C8
3CC73111
3D22CF9F
3D833DD5
BC1CCD1B
3D41507C
3D648921
BC74810E
BD898720
3DADA897
3C774782
BDA658C5
3D8EF3DF
3D8828B3
BC6BE32A
3DA8BF7E
3D099EBB
3DAE8F64
3DAE0F66
BCD01D0D
3D7FB001
3CDA17F8
3DAE57A1
BD9188E3
BD813301
BD25F3D8
BC9452E4
BC42DCC1
3D00A7A9
BD107252
BCDDEFED
3D96B30F
3CFE8351
BD7A7959
BDA432F6
BC35E3C2
BDAD557F
3CA63523
BD0158E5
3D7D2182
BD3AA894
3C367041
BD2DDE4B
3B846DB1
BCD464C8
BDBA2D5D
BDB81F41
BB75EE10
BD68E064
BD5CB729
BDB630B2
3D1CD927
3DBCC83B
3CB8263C
3D36F1DD
3C8B0244
3D9110AF
BD5BA27A
BD12067A
3D2B6E5C
BD801FE1
3D144BA1
3D86F278
BDBB3FB5
BDBE131B
BDBC1A65
BD79D0C8
BC585CB1
3CFE917A
3C96CAAB
3DA907E0
BC4D799B
BB0888E8
3DB8F633
BCC01B21
3DB6CEF0
3D95A7FE
BD2708E5
3D9F6495
BD3B17AA
BD847CEA
BD984382
BD820FEB
3DA18C71
3DB084D5
BD4C8B49
BCFFD2AC
3DA6023E
BC299D7C
BDB38930
BCA4B24C
BD82C81A
BDA05FE4
3C12E710
BDC0EF33
3DA3AA6A
3DB82F30
3D850E20
3B2A0AAB
BD311A14
3DB95997
BD9178BF
BD9D5167
3CB26034
3DA8C328
3D464C9B
3DA26D93
3DA13BA2
3A2EC99C
BD918479
BCB858B3
BD2EA7DA
3CF75576
3B2BCA9D
3DAADD67
BCDF021A
3B3C52B6
3BB40263
3B53B99B
BD5636D6
BD746C3F
3AAF13EE
3D7555B8
BD87CADE
3D58760B
BCDB010A
3D228DD6
BCDE67C0
3C0D8F93
3AD6C30E
3D9102E3
3BB52817
3D841E1A
3D2B46D5
BD792257
BD482B55
3D6429C3
BB5BB50C
3DAA47D2
BD2BA2F1
3D3333C3
BC9DE6C9
3CB785FA
3DA994DA
3D61150D
B9BBC7D4
3D57E4AB
BD992F59
BD1C0180
BD01540A
3DADC30B
BD89F80F
3AF65B55
BCBEBEFE
BD8B402C
3D8638C6
3C9B24C9
3D6B3D2C
3D91597C
BDB50BDD
BD9D7997
BDB56FF1
BD98A2E3
BD4C05D4
BD257EA4
BD8B0664
BC5E195F
3D974A35
BD1C715B
3D25157C
BD317D94
3C416207
BD34431A
BDAE3946
BC074F08
3DB56AD0
3DA6117D
BD83F838
3D94D1DD
BD83EE93
BD8CBD33
3D510E52
BD84F295
BCECFCF6
3C0426C1
3D75E21C
BC8F79DA
3CCD9D0D
3D4CCB70
BD11BF2D
BD24E8C5
3DB10F04
3C38B9FF
3D26398B
3D94C04E
3BCD9AE6
3C2A7741
3D1ED4BE
3D6A2D00
3D8BAB22
3CF96E6C
3B7E6672
BD4C1C44
3C7FA4C9
BD56A5E4
BCA7771D
3C8F36C7
3C7262BB
BD8AC364
BCDF1E9E
BC2CFBAD
3D877AA6
BB91C953
3D0C0439
BDB59F63
BC80CB06
BC8FB96C
BCA77FE6
3D01861B
BD3F11F3
3C76DB3C
3DB6AE27
3D04F9D8
3D8216E4
BD5F3E0B
3DB3E6BC
3D6847DB
BD75680F
BD4DD28A
BD5563D8
3D6D8C86
BCDDDDA4
3D347640
3DA3B464
3D646948
3D9441B8
3D98FE41
3D775764
3D9C26B7
BD7A9217
3DA8648A
3DB57751
3D34C2F2
3D35FB5B
BCA39A91
3B8026E0
BC609056
3D3560EC
BC89CABC
3B3CCB9A
3D8476DD
BD9B63E4
3D7331B5
BDADE006
3D9AB9C2
BD1D1C66
BD3F511C
BD8773A4
BD8C1C5A
3D7A344D
3C87286F
3D33BD0F
3D8D9695
3C886C2D
BD7F06B5
BD8217A8
BBD360FD
BBFB0785
BD5B1691
BD0C9BC1
3DB8DFA9
BB66F8B4
3DA8DFD6
BC7BA039
3DA2C913
BD441F0E
39C3551D
BD2C4CA9
3D0B4B1C
BC1067EC
BD226664
BD221AC0
3C9DF662
BD8149B1
3D8F7030
BD3A3703
3D3ABCD2
BDB67DDA
3D53165F
3D4BF9E2
BD38C749
3D90D6BB
BCECAD09
BDBA32D5
3BD848C8
BD2D51EA
3D374178
3CBBAB80
3D5867AB
BCBFB8BD
BD42D0FF
BC884007
3D986B24
3D5E6630
BB4E2114
BDBD5FDA
3CB2D203
3D2E3FDA
3D245B14
BD3D636D
BCAE4431
BD4C3AC2
BCF1834D
BC5847C0
3D92538F
3D8F066B
BC11B781
3D9AB877
BDB04FFA
BD224D71
BD7F2A81
BC4B48CD
BBD66596
3DB3538B
BD2E38E0
3D08677B
BC908DE8
BDB811ED
3D968F0A
BD777812
3DA2BE70
BCB7EAA0
BCA8AC63
3D146A94
BD963DA3
BDAF2467
BD6FC2FE
BC9A155B
BD5126DE
BDAAC616
3D952B9D
3B61EC1A
BD47CD8E
3C9D25E0
3D48D515
BDA77938
BD3F19C7
BC949C07
3C8489C2
BD94180B
BD104B33
BC31A321
BD7088C2
BC80D126
3D86FE8C
BC52DF8E
BC400CA7
BD34B699
BD036E40
3CF6A4B5
BCF3015A
BB929BF8
BD987C78
BD8C5026
BDB3AAB1
3CE50DCF
3DA04825
3D3EE413
3D054520
3D9E8B90
BD6EA35F
3D9BE9FB
BD40D957
BB4AE99A
BC071FAE
3BF37057
3D4201E3
3DA1D31B
3C60946E
BD27093D
3C0923F7
BD6EAB96
BAA8B2DB
3CD10E44
3D83900F
3DB5175E
3CAC997C
3C297CB7
BD6B5E51
3DB72523
BC9093EF
BD17F903
BCDA4249
BDA65EF6
BDA68334
3D9CCB31
3B1AE972
BD4D0ED1
BD05C55F
BC980C39
3D45B54E
3D75B0A7
BDBFBB4B
3CDF3946
3D588D97
BD6054E9
BD694DF8
3B98AB93
3D5019BE
BD6DC469
3D115959
BD2C451F
3D84EAD4
3D574B36
3CDF85B4
BD7DE7E5
3C178461
B8EE7F61
3D0010B4
BCB806F4
3CED7A2F
BC9496EB
3D969B9E
BC2FDBE6
3D935E7E
BD66AEAC
BDB4CE44
BD7F62F3
BD769621
BCEA1704
BDBA1CBA
3D23CC8D
3D2BBCEC
BC251AC8
3DB1380D
BD8F4C57
3D9C055B
BD86E189
BCCA5270
BDB47EDA
BDAFD2AA
3D9A91ED
BCBDE595
BD2D24D8
BD63CA64
BBDC0C7E
3C97AC63
3DAF74FE
BBC1387F
3D5492AA
BDB07E4C
BCA562CA
BD61D9AA
3D540642
3C9EC363
BD47DE65
3D90EA10
BD0156A8
3DB1C2B7
BD98CE0A
BD0C0698
BD5501D3
BD775DCD
3B5E26A0
BAC3127B
B9D2E977
3D3DA9D2
BD979C96
BD61C421
3D8E1B16
3D4D3203
3CF8A2CF
3BBB9AC3
3B8E5096
3C9020B2
BCA1FC7C
3C665A5E
BD801383
3DA76494
BC068CE5
BCFAB893
3D18DA71
3AF4BEAA
BDAB8D45
BDA3C1CA
3D38BEDA
3B27C76D
3D3C370D
3DB00081
BCEE31EE
BAA90201
3BD9D643
3D133DEC
3D43EA47
BCD950EC
BD869C2A
3CB8865E
BD017A2C
BD450209
BD2A447C
3DAEFF75
3CBD6366
3D1A6E97
BD2C1909
BD75E04E
BD87275D
3B2B0172
3C64A1D0
3CCB3B5F
3BF272A7
BDA65926
3DAA2879
3D9CA4A9
BD862312
BD94A242
3D228019
3D485ABF
BD62E0D0
3D2D4356
BC050D14
BC926B87
3CAF098D
3D5381F1
3C769611
3D3635D7
3D8F33C0
BD22CA92
BD80CFA7
3DB34D18
3CDD1B11
3D32ACB3
BD491796
3DA51E8F
3CB03B95
BC9D0261
BAF3B696
3CCDDA49
3C76ED74
3AD2D58B
3CA4DF0D
BD77EA73
BD6D563F
BD974348
3D379022
BCDBB61A
BC873C24
BD5722B4
BD05C682
3CF63DDE
BB069A72
BD3A35F5
3D9E6252
BC9C2C09
BCBBD392
BD1B2BE7
BC8F5A08
3D9F7C05
3CF13A99
3D8A4890
3CC4C7FF
3A541CC2
3BF10E45
3DA5597A
3D849509
BBBC4E09
BB8CC864
3DA806B7
BDB71E6C
3D837BBB
3D3915D1
BD872100
3D1B7FC6
3CD5454D
BDB3C313
3D6ECBB6
BCD5B78A
3D6B6F06
BDA055BC
3D8FA546
BC60ED8D
3C2D3A74
BAD4FA6A
BABD7F27
BD995AE8
3C26BF43
BDA4FC6D
3DA134E9
3CF05AD3
BDADA5D2
3CE8443F
3B6F808C
BDB581CC
3DA39315
3C6FA1B0
3D8E0DAE
3B66C233
BC803E2E
BB3EF437
3BDD1131
BD997285
3DA26154
3DAAD6AE
BD9C58AC
BD8E8878
BD68DDB5
BD4F30B0
BD571DC9
3D2C216A
BD1E594A
3DAEBB8C
BDA48239
BCD9835A
BD3AD3DD
BD1A93FB
3DB195FD
3DB1D97E
BBB9E89A
BDAAF09D
3C5259DE
BD0338F6
3C89BABE
BD04A03D
BB9DEA4C
BCFFDE32
3C4D89F0
3D30E18F
3D8781C9
BD6A89B7
3D499FEB
3C92EA47
3D65E687
BD266D3A
3CF7D3D4
3DA40D43
3D6A745B
3D83956B
39F3F8EE
BCE122B0
3D30AECD
BDB67935
BD86BA24
BDA1A55F
3D4F4D08
3922BF70
BBD45AE8
BD718443
3C3A3934
BCD59507
3C162E85
BCC0A4C8
3D23FBAD
3C9FF461
3D523888
BD064457
3D71BD0D
3C8707D8
BC43F390
3D9CAF9A
BD8B7D52
BC9FDE5D
3C93DA3A
BDB1C506
BD9F9456
BD18465B
3D9CADBC
BD48F1F6
BB0D4831
BCD2A896
3D04D494
3D02BF7A
BD88107E
3DB46D25
3D1DDC81
3DBBB28A
BCEE578D
BD5CF6D7
BDB8959B
BD82D58A
BD43E453
3DBA9A19
BD4C82AA
3C7F4D9F
3D95F40D
3B37629A
3CE211B3
BCA07554
BD2602A2
BD3A4F42
BD943145
BD1BB698
BD93E08A
3D2FB9BB
BDB0CAA7
BDA509DC
3D80B3CB
BC9BF112
3D17D726
3D6758DD
BD3B7082
BD8A318C
3DA7AA97
BCC0B9D4
BDB1669B
3DAE95A6
BD9C1EB7
3DA1841B
3DB29115
3DA673FC
BCED18F2
BBE46DF7
BDA77915
BC9C3DDA
BD25B4AC
3C517817
3DA4D9C4
BDA639AF
BDB1D0F0
BD12D976
BD4520B0
3DBB30E6
3DAAC30A
BC8F346E
BDA15606
BB777389
3B681E43
BD60E77A
BD27D755
3D021D71
3D95430D
3D34C93C
3B910C86
3CFA0405
3D64FD4F
BDB06572
3D37FA0E
BC8D4AE1
3DA4A817
BDB190A7
3DAF4DA7
3B230338
BD2BAA74
3C1988AF
BD7BDA81
BCD37D05
BCBCB524
BCBCA032
BC2E1D72
BD5F4889
BD1EF5B3
3D96E934
3CFAF00C
3D874887
BC815805
BD7B53D0
BDB670EA
BD989F51
3C92B937
3D9759F3
BD9EDA53
3D87EBE6
BDC1FC18
BC28C16C
BB7E8130
BCB29B18
3D8D8BBC
3D7AFB9A
3D9557E5
BCAC1D43
3D28CBD1
BC654AE7
3D337830
BD9EEB87
BD4C5778
3CDFBEAC
3D3CA055
BC8F178D
3CB14693
3C8DD502
3D53E751
3C88D910
BD95CBFF
3DC21F6B
3D839A96
3D189F34
BDA28E75
BDBB0DCF
BDB3C225
BD9165B4
BDBC016C
3D61DC7F
BB305407
BDB2BDBF
3DA75E22
BB889495
BD081828
3D6A1660
BD451179
BDA4497A
BD9A20DF
3C9703F4
3D3A3B6C
3DA51E57
3DAD66C6
3C3F211D
3D75D1F9
3DAB1262
BD5A484B
3DBC85AF
3D0E1722
BDAA4723
BD3DA42C
BCC8155B
3D379554
3CD39FAF
BD8DAA82
BD89B9E6
3D3FFBCE
BDB42E9A
3D3C4980
BD161C2B
3D9795F4
3B49431E
3D9C1842
BD4244B7
3DA95409
BD2F0CC3
3B1C727A
BDA52006
3D25A41E
3CD94CC8
BD9DEE2A
3CDC665F
BD8E26CC
BD47014A
BD3C9806
BD282801
BD842623
BD97F1DD
BD9C7675
BD287A59
BD8D050D
BDA1F3E9
BD06443C
3BA4282E
3C4925A3
3C15A3CF
BD99FE9B
3DB1A7DF
BD7AE26D
BC82703F
3D14E2CD
3D05E743
3DA56F5E
3D3525F0
3D8AB4A7
3A50D059
BDB1705F
3CC20C4F
BD16DA3A
BD9BCA24
3C304987
BCD7DD78
BD8959BD
3D2CC49E
BD8E5F71
3CD852DC
BD9C0240
3DB62977
3C1907E2
BD20E87F
3DAF5789
BD6C9DEA
3D2690CF
BDA9B6D7
BDBC6EB4
BC86E7C4
3AE95E33
3D9B9453
BC8633EB
3C2E11B8
BCB29B92
3BC5D8E0
3D983B57
BD7C540B
BD10CA87
3CD21BE9
3CE12004
3D7855F1
BD51058D
3D447F59
3CAEE2BD
3DBAE0FC
BDBB2C85
BD5AEF99
3D3B61CE
3DA78293
3D891C15
BD2377FD
3AE86B4F
3AE710A2
BD3B90C5
BCB95430
BD705BE5
3DBE1BCC
3C8BE4BB
3CAC0E67
BDA2B1A4
BD554EAC
BD618A96
3CD79C1F
BD307108
3CB71CB1
3D16E470
BC1179F3
3C9C8DF1
BC771C40
3CF4C0B5
3D7D3D8F
BB062C0E
3DA31D50
3D2DAB98
3D9B88C8
3D1A5038
BD97D6A0
BC9574BE
39F3DCF0
3D484BAE
3D608DE9
3D93ABC0
3C922690
BDAD2DFE
BD8C2A32
39EC4F00
BDA1AE55
BD10835E
3D82A120
BBC65DFF
3D7972FB
3C252212
BBAC4EB0
3C8B14A0
3D662143
3D42A4B6
BDB6548E
BDBE00D7
BD6FE33C
3C1C791B
3D1BE3E9
BD606631
BD4C5519
BD05E185
3D6BC9D3
3DB2C1B3
3D4E5CB2
3C24609C
3C4E9AEF
BBB3EC1F
BD44150F
3D2F52F9
BDA84D67
BD57FEB2
BDAAB611
3D4F3360
BACF20A9
3D8427CE
3CA21A12
BD014D15
BD0B5F9C
BD4EE3F9
B9191774
BD52ECDE
BCA5139D
BBE8AEE7
3C840A5D
BD87205D
3BD8B7C1
3D96DC6C
BD07063B
3DB2658C
BC719DC0
BD85D5D8
BD6367D0
3CC0F091
BC5FC5DE
BD512549
BD720A80
BC5FA7DB
BDBB66D2
3D8C6406
BC23CF9A
3D89149B
3CEBD2D5
3CC2B4D0
BD933B0A
3C3F6AD3
3D27B68A
BD47AB07
BDB71EA9
3D8B9612
3CFC9F6C
3D189252
3CC5D486
3DB8FE99
3D7DAD59
3C767C20
BD7E1FBF
BD09F4F7
3D844EDE
BD0059F7
BDB0F25A
3CF2F38F
3C65E021
3DADB195
BD87D46E
BD1C5776
3DB7A572
BC121C01
3DBCCC1B
3C2F48BC
BD624057
3D77B853
BD846C99
BDA29739
3D80C851
3CE35AC3
3B4287A3
BD14EA2B
BC46987F
3D672828
BD336A7D
3D3CA95E
3CD1F46A
3D53451D
BD1DD28B
3D9FE212
3B56470F
BD940F1E
BDA05007
3D26D7BF
3D2A97C0
BDAD6880
3D988374
3BED4F5B
3C322228
BCCCA9E9
3CE3AF0F
BC809FED
3CC8E8BC
3DBA9BEB
3D999648
BD623F0C
3D241CF7
BD33745E
BD99759E
3DA61FD0
3D7BB0D3
BC5346E7
BD434533
3D5CE77A
BDA7EBFC
BDA3EC33
3C5E8913
BD80705C
BD9E3A18
3D8A637B
3C0A30B8
BC72055D
BDB681E2
BA6BF7C1
BD2C4E14
BD405B5C
3DB99F87
BD8B46DA
BD96DBD5
3D1552E4
BD75DD10
BDB35A1A
BDA598C4
3D96EAC7
BD539DCC
BC925D12
BC02C455
BDAF73C9
3D417836
BD9C9BAC
BB906617
BD08795B
BD4E4F3C
3CE25C3A
3D80E6B0
BD4EF8F4
BD5495B3
BD3E58D1
3DB5F55D
BD757C3B
BB01AE84
3CBBA80A
3DA6B57A
3D1752E0
BD15165B
3C5A88BA
3CF1D6CA
3D7A568A
BD9D6F3B
3DB93F89
3DA60FBA
3DBE7205
3C246880
BD14838E
3D84B46D
3D0F1D02
BC1728FA
BC9213B9
BD433B87
3CDD4122
3D80B55E
3D5F8163
3C57CD3D
BBF40F72
BD90DF69
BCB778B7
3D12A87F
BD838B0B
BD902717
BBC9FFAC
BCD1ED91
BD81C60E
3DA5B1A9
BDA0863F
BD939E9C
3DAE70C7
BD816AAE
BDA76489
BD5213E3
BD6F92EB
3D9FA6FA
BB2B62D6
BD4B4334
3CE10375
BD7C8F1B
BA19EEAD
BD11ECCA
3C39F242
3CD28ADB
BCF36944
BD31E384
3D730959
3D99779D
3D77439B
3D666492
BAB1F20C
BDA0D386
3D8F9E4E
BD683DA6
BD68C806
BDA0A3E9
3CE17F59
BBC153A7
3C563E20
BD85F5DE
3D0A8310
BDB5F1DF
BDA006C6
3D106406
3C19B251
3D41A1C1
3D29EBC8
3D24BE2A
BCA7A894
BB87081F
3CF4408C
3C31D228
BD62F52F
BBA4B29F
BBDE0C81
3D9A2699
BC48F162
3D872083
3CB95D72
3D90DE24
BD574023
BD148B26
BDBB7DAD
3DB3BB83
3CAFFD2D
3D8FFF3D
3C1D697B
3DAC4B96
3DACBB0C
BD63904B
BD927584
3D8CA54B
BD8E4B97
BD0AE966
3DC32293
BDA9B919
3C109C6E
3DB4EFF6
3D689A64
3CA01C7B
BCEAA4E1
3C170010
BD9290C3
BC98989A
3DAA8E4B
BD50405B
3C0463B2
3B23E4BF
BC1532D2
3D92B660
BD83B158
BCDDD358
BD61C163
3C34517F
BDA249E0
BC012EC0
BDB3977E
BD210E3D
BC8C1C7D
3DA5BC7D
BD7B93DB
3D8ED83F
BD2B1376
3D559067
BCE6FF32
BD82C3CF
BC8109E1
3CB2973D
BD909270
3C819E0F
3C6F42DD
BD93FABF
3CA17870
BDB48697
3D4CA8EE
BD9C6DF5
BD82821A
3DACA9AC
3CFA1A37
BDA0B196
BDBDF63E
BDAEBC1F
BD97EBF9
3A15E3BA
BD54096B
3C9A9F96
3DA01B95
BDB170BD
3D7820F2
3D6EC326
3C4F9D88
BCBC3803
BCB1394B
BD88471A
BD6BD672
BC5A3EFE
3C68C6F0
BAA19DCA
3D2E3FD8
3D84EFDD
3CF59205
BC0555E6
BD67D960
BD13E285
BBC8F7C0
3C190A0D
3DA8F339
BCA3A26A
3DA28C01
3D603ECE
3D2C975B
3D5B1D71
3C78FAF0
BCE0C21C
BBEB6C33
BCC9FEAB
BDB0AE64
3D83F8AC
3DB73520
BD694B72
3D379537
BDBC183F
3CA77938
3D1A3BE4
BD98BAEE
BD6AE0F1
3D4AD109
39EA0CFE
BD394DEF
BBCAE635
3C17F5B7
BCC5305B
BCF173C2
BD98BF56
3D6184C8
3D11F434
BCBD2CC3
3DAC4F5A
BD429F2D
3D38A9CE
BDBD3BDA
3D5056BA
BD54D66C
BDAD51C6
BC4790D4
BD43A2DF
BD76E3F8
BCE74C2F
3C3E4D65
3D4999A4
3D6AB9EF
BDB73C28
BD278DD2
3DB0FCD4
BD36C208
BCB4B4F2
3C3BB8C6
BD1E16F2
BBB3F97D
BCF524FE
BDB7F2CF
3C97EF53
BD6AE92A
BD0DD012
3D985556
BD688B0B
3D46A899
BD5E1281
3C87DF36
BD97C5FF
BD965F0C
BB2977FA
3D7D63A3
3D15541D
BDBCACBC
BD9CBCA8
BC8FA6FE
BC04D6FB
BDB5D456
BB7CFB92
3CD043C3
BCD944A4
BC70ED4F
3C8C6B14
3D8D7D8A
BDA1B29C
3D1E6DEE
BDAB5F14
3D8D7CB2
BC770331
3D2D5DA0
BD734DA7
BCFDD9FA
BC0C0B92
BDADFC93
3D26562B
3D738F10
BCFDCFB1
BD41B590
BD883420
3918149C
3C4D1E86
3D009F11
BCAF80A9
3D943AD0
BD640B19
BD4C5193
3C8D877D
BCC85AD9
BD85BC68
3D93D34D
BBA6E70D
3D32B0B6
3D6F1861
BCF7A830
BD4165E1
3DB605AE
BD017ED9
BD6EF99C
3C77005B
3DAB4EAE
BD6DBE09
3DB24B6E
BD1319C8
3DBD3A01
BCA23571
BD980B80
3DA3DC9B
3D4BB139
3DA13667
BD43B7B9
3CDB12FD
3D1441A6
BDA39A5F
BD4A0A50
BD7EADE6
3CE09566
3D3FD30C
BA7D4C97
3D8927FA
BD9E4C6A
BC52E2CC
BC60753A
BD2B6C4B
BD669BAB
BB85D5CB
3CC7B571
BD8F7212
3CB927E8
BDA44E6C
3C682C8C
3C0E4A65
3D82DD5F
BD9F7B19
BDA59B93
3DBC36D9
3CD3E904
3D373487
BD978A8E
BDAC0993
BAD7B05B
3CBA9D3D
3DA3E78A
BBA7CB80
BCD3AF86
39563F21
3D8E86CB
BDAC576D
3D032FF2
3D83353A
3D3C1147
BD060A09
BD06A75C
3CB687FD
BC8AECB0
3BE73E0A
3D522127
3DA92739
BD26ACA3
BD87B585
3CCDB9CA
BD7F7E16
3D753137
BDA074DD
BC99919D
BD07055B
BD97B012
BD93B440
3B836A1E
3DBAEC85
BD36C06F
3DA53F99
3D93C0C1
BDBA845D
BDA4077D
BCD7F489
BD23A9CC
BD22CFEC
3D287090
BB484157
BD348569
BCACB487
3D3A8279
3D8B351E
BB0BABD7
BD244A73
BD5DEFF0
BD9AE793
3D9E85D2
3D52CD84
BD3999DD
3DB535CB
3DAC6139
3D0DDA78
3D95CCBD
BCC7AD6D
3D5D0964
3D960C61
BCAFB186
3D47C323
3D998956
BD688AFD
3CED9CCE
3DA040C1
BD51B1A3
BDACB1AC
BCE8B1F7
BD938BC1
BB0252EE
3D478FC3
3DB2A77E
3DAE0257
BCF86EB2
BA354221
BC8FA230
3C7E6908
BD8189BB
3D5992DE
3C3DD967
3D87304F
3DA97CD6
BC531E26
3D2C33D0
BCD395AC
BD18ABD7
3DA19B4F
3CC82F94
3D02955C
BB1035F0
3DA5EC47
BC277969
BC3CEE5D
3D4CA458
BDA300DD
3D83C865
BDBA2C81
3B81ED1C
3D56BCA7
BD59B31C
BAF01FA5
BD88C3D2
BDABB698
BC18530C
BCA909CF
BD11E418
BD811631
3D2A78FF
3CA5B0BD
BCDC14C4
BC452F15
BDA5D6EA
3D099537
3DA8B23A
BD0F4EE2
3D743399
3D4DD578
BDB28407
3CA7470D
BD80C1C7
3D95D5DE
BCA71885
BD8D3B67
BD6EE14D
BD2BC9C3
3D8AD340
BD6DE333
BD89F4DE
BD0B797D
BCA9FAB0
BD145824
BDC67F32
3D84D7AD
BC3300B9
BD90BE3B
3D7FAF74
BD1332E8
3D9429AA
BC7958EE
BDCA7602
BD94FDEF
3D5561E5
3D95B1A7
3D6FD5B6
3D771989
BC026526
3C5F7278
3C4B93A7
3D57F736
BD624937
BC97908E
3C9577E1
BD864774
BCD9BCB4
BD217C43
BDB36C71
BD8F47EE
BB8DBD93
BD135C00
3DB98F07
3D1AFF0B
BDB3298A
3D8B7EF5
BC7A6B6B
3D7DED69
3D35E450
BBABF7CD
3CB976D2
3AA525E4
BD6E8692
BD30AC36
B9B3F2A5
BD8231A1
3CB0B678
3D3C3038
BC8CEEB5
BC8E52D9
BD5CDF4D
3CB870EF
BD926E7D
3DAD1079
BDE229B3
BCB53A89
BDA0F585
BD7602BD
3BFC31F4
BD1C1EFC
3C6F3DE0
3C882404
BD6D06D6
BD8D0E8E
3C12DDD7
3CC58C9F
BD946C77
3BD5CAC6
3D3694FD
BD9CFDCA
BD92E1C3
BD30832B
BDB33217
BD841FE5
3D440C55
BDA017B3
3D6ED9C0
37ADF651
BD83B740
3D45E0D1
3C68C22A
BDA1C43A
BDC831A5
BC815A89
3DB71F2A
BD810D09
BDBE56DB
BCA9E067
BB2C6BA0
3C195113
3D950CD9
BD6F225B
3D514238
3D48C203
BDC1D41F
3DA1646A
BD711DAC
BB72912D
BD63A3C7
BDA9C062
3DC28282
3BA9B4A7
3C810DC0
BD17ECA0
BC342076
BD873C71
BCF55804
3DB1D873
3BA3531C
BDA60E0D
3DB7929C
BD8AFFE6
BAD86502
BD4A312F
BC2A2D90
3D9E660D
3D9DE799
3D114E82
3B9747E0
BCB2B576
BCFF8709
3D743688
BD03C5FC
3D8871CB
3CEE7F78
BD957E1D
BD3AF4C0
3D4FBB2A
3D1A2372
BD996C21
3D6EE40D
BD2B45DD
3D9C2092
3D02E839
BD18179D
BD3DD69B
BDB6026D
3D1C5BA2
3D09A27A
BDAA67C2
3C3FBC48
BD244FCD
3C3757C1
BCC01C34
BD655279
3BB532EA
BCB0256A
BD6A9C88
BB33B1B5
BBB3B784
BD9A6DCC
BD0BEED3
3BE93325
3DAA8C04
3A4F922B
3D9E64EB
3BCAD61D
3D0BD78E
B9C97820
3DB91C79
3C223911
BCACCD6A
3D853F7B
BD1A1AD3
BC8A5ED4
3D6D2BAC
3C774A68
3CC3582D
3D37F22E
BD5C666C
BD5AC2A7
BD8D023E
BD26A176
BDB52C4E
3D986F0E
3DAEEB86
BDAAD740
3B4B30F5
BD93CA14
3D7660ED
3D259530
BD9276DC
BD06ECB0
BD7B3110
BCA9CD23
3D78765F
BD7B9B9B
BDB19B27
3C8E7A84
BCC75BDC
BD8983FD
BDA30C4F
3B7A9E5F
BD618041
BCFB413E
BD97E8D5
BD8F2C3E
BD3911D0
3B48A806
3D56267B
3DA3C71B
3D83D1A4
3D7B1B09
BCA209CE
3D3DE587
3D003C7A
BD0F5407
3DA182EF
BCACE842
BC89822C
3D804E20
3D293E40
BD5A528E
BAF10792
3AC160A8
3CFD3033
BD777432
3CB3F886
3CDED4E3
BC971FA0
3D82EF4B
3CFBB9AE
BD9054D4
BD2C61A4
3C2123B4
3DA08AC7
BDB9BBFF
3D1FF481
3D2BA486
BCD99B60
3D1521D9
3D836B6E
BD5724FE
3CCF569A
BD444283
3C8AD68D
3CE5BD4C
BD12FF47
3D96D282
BCB19E9E
BDA33EC1
3DAC5F56
3D393C66
BDC96525
3D885DBB
3CC1AC05
3D1323E4
BD3A9A21
B9A23A47
BDB9296A
BD56DC69
3CCE5646
BDB361DA
3D407365
BD998878
BD9CF129
BD7E903E
BD8A0639
3C958EF2
BC17AB16
BDB19806
BCDAE6A5
3DBC43FC
BD48DD93
BDA0132D
3D7168B9
3D169C1F
BD385EF5
BD878229
3D6C6151
3C8ABE47
3DBCFDB1
BCE864BF
BD9A4DD7
3DAA910E
BCA1CEE6
BC8DE22D
BD66DA7C
3D65F0A1
BD61BA86
3D17B1BD
3DA71237
BD9AC7CA
3C9E95A3
3C12C706
BDB01261
BDA5F72C
BDAAEAF8
3CEE8DA2
BD2BA803
3D360B1A
BD53F048
3CBC1956
BD6D7D83
BC89D934
BDA58705
3D46EA8C
BD129825
BDAEDFF4
3D296FC7
3D0D006F
3C98DADD
BD33485E
3CCADD43
BDB2F3A2
3D95BF30
3D1F1C27
3DA82B85
3D6ACB1F
3D744048
3BF144C7
3C6CC0A4
3D937F31
BD9DDB5E
BDBBB439
BD04B2C5
3D8CD060
3DB8E64B
3D30766A
B95F4C24
BD0BC07E
3A62E7F1
3CF5D17A
3C58EFAC
BD9290C1
BCCEFBEA
3D202A71
BD55FB87
BD44AF0F
3DB24716
BCEC2539
3DA32103
3D8E9BFC
BC5A3937
3D7F1100
BDBB58C1
BCEFA5E0
3D97BE0E
BBCAAC15
3D817055
BD9D2242
3D4EBCD0
BCD3F017
3D4C0391
BDAEFE7A
3BC8CB9A
BDA8D70F
BD80BE0C
BD87905B
BDA4DB84
3C8E2FA8
3D9533A2
3CEC97F5
BD935F68
3D7442DD
3D491D63
BD670331
BC772790
3D8388BD
BD97F29C
3D7578C2
BCD7C140
BC22C58F
3D334CAF
BC86D1A2
3B71EC0C
3D6E7552
3CCE466F
BD8189BA
3C9EF2BB
3DA8A5A6
BD7B3C05
3C3EE9CC
3D9BDEAB
BDB4F33C
BDA697F7
BD6581AC
3DA18C50
BD1D05F5
3C3CF3D6
3CCDEA3A
BD6F02E5
3D76E855
BD78DD1C
BD9C00D3
3D4B9773
3D2FE497
BDABECE3
3D80147D
3D89E030
3D6BC20D
3D091392
3D8D578F
3D5AB2CA
3DA3B3F5
BD4A4E53
3DADB565
3DA5FAC3
BB65B31E
BD64CE2C
BBD5D0A6
3B3E07E1
3D8618FA
3DB67599
3D69BC47
BC077569
3D2D6742
BD976E81
3D06340A
BD12D509
BC851395
3C926CDB
BD45EF23
3D64437D
3D386CD7
3DADF4E0
BCC24C40
BD37670B
3D748DBB
3D9B999F
3C7BD1CE
3CD380EF
BD81B746
BA9DD1D2
3D1B78B3
3C6BE100
BD539043
3D834A47
BD99AE14
3D8C074E
3DBA8DAE
3DA656A9
3B100CF0
BC9D19ED
3CAF435E
BBC537AB
3C698E72
3D817A80
BD295396
3D8B1F5B
3D91EEF2
3D818A87
BC53CD25
39AC6DF7
BD8AD113
BD969AB9
3C0A7E85
3D7ACACD
3C97EE53
BD501B12
BC290300
BD3596CC
3D509DCA
B9E39C5E
BD8B1048
BD60C28D
BD80C33E
3D893963
3CC05582
BD2B24E6
BDA4CA64
3D4BE41A
BD459D05
3D9FD5E0
3B86F715
BB7F0FE5
3D3C0932
3D1038C6
3D051AA1
BDAFEAE4
3D6DA2A1
BC3E2E16
3CF766CA
3B7F5731
3D818A8D
3DAD1BE2
3BC96840
BD91043F
BD88B055
BD86F238
3D59CBE2
3DADA0FC
BCA09EA7
BDB284E6
3B631136
3C1033BA
3D240A3B
3D66104C
3D202C98
3D230DD4
BD7E60F7
3D4F0146
BDAB8151
3D86A8DD
3D18A21B
3D54CE38
BD812DE3
BD84A1A0
3D323BCF
BD90FBBC
3C6714A7
BDB5E3B1
BDAD607F
BDA18D2C
3D3BA4B6
BCED3E0E
BC7DD5AA
3D971FBD
3D19ED7D
BD584815
3CB3CAC3
BDA7A03E
3C02FE6B
3CD4B3F0
3D15914D
3D386708
BD803E5E
BD572193
3D5F029D
3D4777DA
3DB919C1
3D25AF3F
BD537A68
BD31652A
3A31AB79
3D739516
BD38B5D4
3D280221
BD4B2A86
BDBFC080
3DB97839
BD317239
BD67B922
BD0BEE2E
BDA3199D
3B9A5C90
BB07204C
3DBA9BAF
3CA54561
3CF8E786
BD86B6CE
3D5D10CA
3D8C238B
BD51D4D6
3C3E559F
BD4F9036
3D3C3AF1
3D7AF132
BD91E0C3
3D12BE54
BC77791E
3DAB3A86
3AE3706C
3DA5512B
3C885C1A
BD5C34C0
3CE0013A
3C77B5A8
3DA144DC
BD28F74A
3D7359D6
3D8A7459
BC18B0E4
3D3D617E
BDA9AC18
BD99C863
3BCAA732
3CCF9D73
BD4E4C46
BD334913
3C6FE6AE
3D57D81A
BD59EF5E
3D8C9D6D
3DBA8446
BDB4A1D1
3D7BEEAB
BCBD3849
BD9E149D
BC0F6426
3DA95063
3D902A93
3DACC320
BBABFAAA
3A9CB5D6
3D8201B8
3D59FC48
BD19FA5F
3DAF5778
BD48F278
BDAB9450
BC90E9E6
BC564498
BCCD0338
3D9FE406
3CFA8FAD
3DAF7074
BD5C89ED
3CC29CDE
3BD42C35
3CED21EC
BB86FE4B
BD8CBCB9
3D57FCEB
3D36F797
3B123E00
BD10D712
BD98E609
BD857C79
BCC25989
BD433B7E
3CB3F862
BDB5EA31
BD95658E
3D427E3B
BD61B387
BD08D834
3C0D1E25
BCC07B29
3DBA3296
BC08AFF8
BCC9EFFE
BCD9462C
3BEA375F
3CCA295B
BD6D2A49
3CBCD89E
BD5B1FF1
3AEEA3FB
BDA12993
BD3713AF
BD17C304
BDB4CE0C
BD8439DD
3C6E1D28
3D974B69
3DA3B47D
BA9936E4
BD6C8C0D
3D27C8DE
BB422F24
3C0C2DA9
BD613F2E
BD8A74AE
BDA04B92
BC0F24B3
BD8DB6B8
3D45B4D5
3DBBC8EA
3C980826
3DA35A33
3C857B34
3C1E2C66
3C34FCAE
3D47EBAA
BD2BBFD0
3DB0CEDB
3DB6DBC7
BD4493CB
BCA370D9
3DA266F5
3D174827
3DB1AE92
BD735BB0
BD275799
BD87B87E
3D4B816E
BD26FC20
BD53E169
3D802EC3
BD130D43
BCA3EA9F
3B84770B
BDAECC92
3C8D0F3F
BD78C00E
3D64247A
BCCDA7DC
BC28EE67
3CF17697
3D9DD7DF
3C506601
3BE44893
3D651A4C
BD018211
3D826250
BDB8D0E5
BD3E7729
3D58EC76
3D2CE3C2
BCAD8A19
BD162142
3DA45728
BC68CB77
BDB456D0
BD4E8736
3D6AA3D7
3D8FE293
3B5726A2
BCB1918D
BD0DC180
BDAFB674
BD83A3AF
BD239964
3D6060C3
3D1176AB
3D3A89FD
BCD1C3BB
3D327C76
BD72B04D
BD518E44
BDA31008
BD481BD1
3DA51A77
BBFA3B36
BDA7FA32
3D1B8EC9
3D03066E
BCF45315
3CCD20DD
3D639A4D
BCFDF287
3CD5F9E6
BD0DBFDA
BCB05394
BD4799A3
3D73FCC6
3CA7F173
BD647ACF
BDA54906
3C223C01
3D983A4D
3D30BE45
3D0B4B18
BD523394
BDA97DCD
3CEC1950
BD342AF3
3D8C899F
BDABC499
BC953A22
3C1CCBB1
BDA2FDEB
3D8FE86C
3D716BF2
BCFF5853
3D0EC3F2
BD198DD0
BD9F1835
3DA2D888
3BE0E8AE
3CF33998
BD91BBC3
BD93DF2A
3C542B11
3BFB68CD
BDBE2CC6
3D7C8330
3D5105BA
BD14C3B6
BD262479
3D9D3FA4
3D6DB388
3DAD4C7C
3D0FAB8B
3DB3F503
BD936A22
3D798EE7
BDA799A8
3D4107BD
BD45133F
BDC4F02F
3CEBFA46
3D21C717
BC1C17C8
BD224386
BC579F9D
BAB49DDD
3DB4CC2B
3D03B780
BC90A48C
BD239180
BD815E8B
BD9555D2
BCC648A7
BD647EE7
BA6872A7
3CC46EBF
3D12CD6A
3D3055E1
BDA26778
BDA8AB24
BBE6DBA4
BCCDD3F7
3D243E85
BBB3E127
3D88B94C
3D6E1D0F
BD1D5DC6
BDA318EE
BD2769D9
BDB51EE6
3D883A35
BD9BEC78
BD955AE1
3DD1BD81
BD21A45C
3D0B8FCD
3DC65A51
3D575AF4
3D2C8CFF
3D86FE38
BD6E43D3
3DA476C0
BDB73948
3DB73465
BCBCB30A
3CF8E165
3D837930
BDAB99E0
BCAF8D14
3D260521
BD8FA804
3D99B7F2
3C88AC9C
3D6A3447
BD0CF189
3D49D273
3D408CB5
3D0196EE
3DAAD8FD
BD6BB28B
3C93ACF7
3CC6C6DB
3D52B833
3D0CBE15
3CE6434E
BD6AEB15
BDBD6914
3DCD74E5
3D899E6E
3CE2C709
BD94CD08
BBF2E568
BBA12C33
BDB64E5D
3D13425E
BD24174B
3C2F0C56
BCE4A0E5
BC697F77
3B100632
3C5C89B9
3D8391D6
3C5949B2
BDA81D60
BCCEB856
3DADC1A4
BC677286
3D3D22E6
BD7DF74F
BD9E198D
BDADF4AC
BDBD445E
3D2E65D7
BD22C48D
3DC81789
3D6E469B
BCBBE562
3CD9905F
BD5611B1
BDB78F7A
3D898F9C
BDC82F5E
3C82B9D4
3C4A15E4
BCCF9448
BD538494
3DB40A8A
3D84F49C
BCC84407
BD536DF4
3CA8398E
3CDB7F11
BD72C093
BD962037
BD7DB058
BCBE35EF
BDA7E107
BCE7C995
BDA35929
3D7E40D2
3D36147D
BD35C088
BDE948F7
3D8A6798
BCC42880
BD433E91
BCC9EF33
BD4A0845
BD337991
3D30C2AF
3DB2DDB9
BD9E6453
3978D86E
BDA0CDE1
BB32CEFE
BCDD01BF
398931E6
3DAF77F9
BD2A5B28
3D22D3D1
3D6C5228
BCC15BDB
3D9A72A1
3D2CF25C
381B3C26
BD1BE852
3D909C7A
3D7F9366
BD8F0D3C
BDBA45D9
3D9D5F65
BD5845D0
3D395DB4
BC3F32C9
3D63554B
3D180798
BDB23FB1
3CA3E785
BCA197E8
3C395DB5
BD782F8B
BDBE1265
BBD248BD
BD941A08
BD96E4C7
BBDC7AEF
BDA94ACC
BD484DA2
3C8BBA52
BCFEAC0E
3D80AABE
3CD76732
BD1463A8
3C285561
BD977FAE
BDB10CDC
3D6BBB2F
BDADADFC
3C965DE2
BDAA8067
BD844745
BD2DEABE
BCF15BF8
3CBE04D2
3D579213
3D16A79E
BDA1A2AD
BC09C431
BC7AED99
BDBC30FE
BC4617E5
3D9C20D6
BD98AD56
3D9320F5
BD282A5A
BD9D2BB9
3D5FDCC2
BD83EBFA
3C405BBC
3D9E0440
3CABC0F3
BC34502B
BD1C2F65
3D9301CC
BD46A86D
3CB533BD
3BA35524
BD9F57D8
3C61F8C3
3B9299FE
3D3DB643
3DB5243F
3DB3A6C7
3D8BDE67
BD6A9BEB
BD2ACEBC
BD6C8C78
BD6CF390
BD89F3C2
3D3E4CBE
BCA7FAD2
3D426932
3D8929A4
3C34B4C0
3CD603B8
BD5DA78F
3C060345
3DB414C5
3A413171
3DA8815F
BCAFAC7B
BDB1DCC7
BD3501B9
BD98FE1C
BD5CA9DA
3D7E0B5B
3C94017A
3CAB8210
BC7B27B3
3D202B6A
3D22A0E3
3D9DBDB2
BDD0009E
3D12B221
BD22E5BF
BD31DB09
3D782968
BD865565
3CD58374
3C916FB3
3CA82C6C
3C9B8BA8
BD80BD6A
BC2B3AB3
BDB2822B
BCCE5823
3D43FDD4
BC56ED45
BD0979C1
3B017484
BD605E2F
3C2F7A82
BDBC908E
BD5572E2
3AE134CB
3CA08D65
BD9100BA
3D8B1357
3D4DFF26
3D38BD6A
BD122660
3D85BA20
BDA8CE8D
BC3DFE77
3D781F75
3D8E48AA
3C637F91
BDB77C3D
BD303240
3CDE7AEF
BC5F5A86
BD7186C4
3D586D76
BD67F106
BD1C1A59
BD0174E7
BCD1695E
BCADEF7F
3D9CA2EC
3B7A91BB
BD2075AB
BD1C068D
3DA329D9
BDB4F393
3C38DB53
BBB46438
3C20F52D
3DA1A538
3D7E390A
3BE5252E
3C40B1E2
3D46FDB5
3DA2B97C
BB294C39
3DA5AA5D
BD806816
BD48AA8C
3CEE5CA3
BDB154ED
BC3E1458
3D5F3325
BDA08663
3D76D7CC
BCA5F951
BD9E8BEE
BD993617
BD75F82A
BD83BEFD
BD05C13B
3D055A46
BB3AFF9C
3D8FF7A6
BCF5CA8A
3CB4E78F
3D01F41B
3DB95BAC
BD86F98E
3DB14C8C
BD097A91
3DA4E7D3
BDA2E481
BD341241
BCE44988
3C0166FF
BD30CCD3
3CD0DC0E
BDAE4FC2
BD59C8C1
BCCE72AC
3DB4C2BA
BD4FEA3B
3D9B4FD1
BD8491CA
3CCE46A9
3D935552
BDB09EC9
3D9591BC
BD3F8212
BD9EDFD2
3D89FE9F
BBFBA12B
3DB584CC
3B5136F8
BD359435
3D987361
BDA687E4
BCF827D9
3D7BE83B
BCA777AF
3DA9ECEC
3D37A282
BC8A9349
BC96A069
BAC60072
3D8BC046
BD9BAC36
3D1731B1
3CD08EED
BDB36CCF
BCD0B5DD
3D2818E7
3DA650CE
3D7F70E1
BB3C603B
BD8E2D3B
BD830E3A
3DA1463D
3DBD7E56
3DA7273F
3C250032
BD13AEA5
3D8E4DDF
3CEF9549
BCFA4790
BD50B99D
BD640A65
BBA954E2
3D8CC08F
BD0A835C
BDA651CD
BC924925
3D613322
3D4E106F
3DA9D4A1
BD9EE921
3D7F1EB7
3D4392A6
3D9B3E6F
BBDEAD34
3D2DC175
3D016A5E
BBDD8E5E
BC88E45C
3D13C339
BD3215C0
BBEE8F5C
3DB94CD7
BD9C6D11
BC96248F
3D928B4A
BC2FD875
BDB3203F
BD45E31C
BD0E4E6A
BDAFE6C2
3CBE03D6
3D8A3683
3C670CD0
BD3C0EAD
3DB3F470
BDC6D93A
BD6B6937
3D8176D2
BD8AA523
3CB07165
BD80D8A2
BDBACC3C
3D973E5B
3D08FF0E
3CA1CC9C
3D19A24A
BDA32AD4
3D944CB1
3B798EE4
3D832351
3D172B18
BD4D869D
3CCD34D6
3CA53486
BCC589A1
BDE3DA34
3DB6E66F
BD8317A3
BAF4EB8A
BC51F0FE
BD68F867
3D978CA1
3D2E2ADE
BD7D5E14
3C34BA79
BD9EDA8A
3D491A8D
3DC008DA
3C013A7E
3AE8C309
BD07A40C
3C9B814C
3DAA7A59
3DA7C014
3D4B2966
BCE05C8D
BC95FDEE
3C3BEFB5
3AEE577B
BD81D7CD
BDB7B79B
3CDD43F4
3D8D3871
3C8349DD
BBF7BC28
BDB0DD8F
BD72E80C
BD42318B
3D41EF48
3D88DE83
3C4C8B06
3C6A1EE9
3D02D58C
BC6EFCD6
3D75F19C
3C940B17
3D6AEBDD
3C9B3CE8
BD9E4C72
3D0C4CFC
BD843086
3B924127
3D1F79E2
BC943E56
BA93FA92
BCEBA2C1
BD86F55B
BD2FB456
BD77EFB3
3CA8F087
3CC5E6A8
BD1710DE
BD8C56C2
BD0CFABC
BD40E92C
3CE0FEB5
3D3159C7
3CE88A4B
3D68E425
3D171B2A
BCC2C54F
3C8D94C8
BD648E2F
3C337899
3B8B0F63
BD61BE9F
BDB585DD
BDAAC8C7
3D5C32F6
3D989954
3C5D36C1
3CAAD4D8
BDB00DFD
BD1F3132
3D661975
3D3AEA05
3D89026B
3DA0175E
BC96901E
BD9204BF
3DACB63C
3CA27EA1
BD4A9F4B
BDA33404
3D058816
BD1E066F
BB449533
BDAE254E
BD6037F2
3DA81BF7
BD8C24F3
3C80849E
3D2CD4EB
3DB776BD
3D22C5B1
3D456EB1
BCE62ADC
3D9D7AFF
BD9CE2DC
BCFB11BD
3B791880
BD949EF3
BD07BA01
BC92BF83
3D0166FF
3D0295C5
BDA5B194
3B9D0E1F
BD6E2BCB
3D1C9A4C
BCF5EC12
3DADF39F
3DB8FF38
3C69B021
3D992DAF
BD2BEC4E
BCD16B26
BD307067
3D40840D
BD3AC6FA
BDA62833
3D8D7FE6
BD395DE7
3D82BCF0
BD33EE7B
BD5ABDF2
3D417119
3DB8B87E
3D9D5D50
BDA83699
BDBE3CC1
BD91539C
BD281CDF
BD8374FD
3DA137EF
BCF186DB
BC21AB5E
3D899442
3C7976AE
BDA78A36
BD999F6E
3DBD77FE
3D567B36
BD0EEECC
BDAE1043
BD27E9A2
3D9DA740
3B9DED00
BD856AB8
3DB903F8
BBD7228A
BD7F0551
3BD1AEF0
3D0A897A
BD0BF9D3
BD592DB2
BD3035F9
3D6B0140
BD8B7F99
BCE843EA
BD15319C
BD2B3EE3
3DB19A92
3D856DD1
3B0E8056
BC84AADC
3D00D224
3D29A1F6
3C538483
BD5B6D84
BD58FFD1
BC279480
3D8BC0EA
BD1CFA25
3D196B74
BBD7A1E7
3D6D7DBE
3D9358AE
BD328EC1
BC755099
3DA11E2A
BD02A36F
BD7B357D
BD46C388
3D5867C5
BD8947F2
BD05267E
BD32FC00
3D7B0CC7
BD0F3D0C
BDAC34E2
BD0E92BF
3B37786F
3D39BAFA
3D698AD0
BD47A62C
BD8A1A1C
3D995FED
3C468D4D
BCEB054C
3CF2A9C5
BD15DBE8
BDA0CE89
BCC160F3
BDB27C71
3DAC677D
BDA18340
3C9B78BD
3C81DCEB
BC53A7D1
BDA958B3
3D7D602B
BD8398F0
BD287328
3CA17D9C
BD8E2141
BD8F2344
BD950B03
BD625971
BD3C7E61
3DBB30EF
BCA10FBD
3CE78CB1
BCBF4533
3D65B8F6
BDAB9D8A
3DA227EE
BC9D85E8
BD00151F
3DB768DF
BD51994C
BD9BEDFF
BD9E71DE
3D9E9E51
3D8EB91D
3D42C263
BD04D46B
3BBAD98F
BD7DD780
3CEE5D80
3D348C32
3D7A02BE
3DA12D1E
39DA24C7
BDBE9F2D
BD7901D5
3D8F4F4A
BB2DBFB0
3D47E7D1
3DBF5010
BDA009A0
BDB73CC0
3BB66BB0
3DB3D207
3BFAA961
3D842324
BD9BA7BC
BC6A8204
3A970839
BCAC5762
3C97AEAB
3D635B84
BD27F641
3CB17118
BD1E8BA0
BD7D758C
BDAABD8C
BD03EE04
3D3E1F7B
3D98988B
3BB9E200
3D5C1E8D
3DAA180B
BC683A36
BD43AFC8
BDC11D54
BC9B3532
3D83E234
B7B80A4C
BD7A4A48
3805F59F
BDBA68F0
BDC4CA69
BD7886AA
3D6CFE17
BDBE38EB
BD9A5902
3D708DB9
BAE64A10
3D8CB7C9
BCEB9DBE
BCEB2BB6
BD917C17
BD57EA77
3D3AA9A3
BDA75639
BD26DAFD
3DB7EC90
3CAAE039
BDBADE05
BD124363
B9CC27E1
3D4546CA
3D490AAF
3C2D64DF
3DADF25E
BD6CA3DC
BDB31F01
BCF892B2
BD882E0D
BD5B5243
3DA13DDA
BD8B9CBC
BDB2CBDE
38F14DBD
3DB0B767
BD095114
3D5953F0
3D834EA6
BD7CF729
3DB5D195
BBD7823D
3CB17D46
BD1EF0D2
3D5AE61B
BD4E2761
BD81D6F7
BCC2E61E
BDB9F411
3BB31FAE
3B96755B
BCD781CA
BD367FE1
3D399B18
3CC633AA
3D84E5B1
BD45DDDA
BCF3D87C
BCA67298
3D95B245
BB1E41E0
3C638263
BD3D08BC
BD05A2F1
BD690A71
3B8C1F54
3D73DD19
3D1AC1B7
3D6F4318
BCC2D92C
3D5FB331
3C767F71
3D594B93
BCB11DE3
BCF07A64
3D8A7059
BC6D8C8D
3BC7CD23
3CCACDDA
3CF5FAE9
3D3016ED
BBA3F2E3
3DA18E81
BD9E1205
BD83803E
BD22BC9C
3CFACC68
BD3EE5B9
BD803543
3C1B322C
3D183573
3D5C69EA
3D4063D9
3D35C21E
3CC36BB8
3C013DAD
BBF296DC
BD04EF6B
BDA08B1F
BBF101BC
390FCF6A
BD9FE634
3D0877F8
3D5D2EF1
BD9C4816
3D1409EC
3DA8C3C2
BADFA2C1
BDC26291
BD06CF26
3A9B5854
BD79FB46
BC89ED51
3D8EFD2A
3D4F9FD9
3C9BB6A2
3D2409B0
BD7B82C5
BD915775
BD6AC390
BD416A5A
BCC1A98E
3C7EF62A
BD877BF8
BD0751E1
3B9C9659
3BB1F50A
BD3E2F11
BD915A79
BD3900C9
3D8ADAE2
BD8C6F45
39C5C93C
BD480C5A
BCB6437A
3D148495
3CAE96F1
3D47A3F1
BD4DEA85
BCD6C2BB
3CC9F782
3D8B95D9
BDA0D7DD
3D18C041
3D8F18DF
3D5188CA
3D210281
BB90A592
BD970DEC
3D853E80
BCE704F3
BD8EB2B2
3D9E881D
3D8CFD62
39E1AF2A
BDA9E6DB
3C830D1D
BD8A1E1D
3BEFD205
BD4A797F
BD69256D
BDA8818E
BD962E79
BD0FF774
3D195360
BC1EF83D
3C7DF999
3D41D489
3D276AC8
BD33F77D
38476C84
3DBDFB69
3B81669A
3D5F158C
BD0D4339
BD9B4B5E
3CBBE030
3DA33B02
3D8CDE6F
3DA9DBCD
3C1B72A1
BD11F26A
BD5EE3BB
BD3897F0
3A7C329B
3DBB2D57
BCB51ED3
BCA321C1
3D32A1C3
BDB18BD3
BCE69A61
BD5E4506
3DA36F65
BD6A3C6C
3D21068E
BCDE21F8
BC6D8AD5
BD23DB2F
BDBA9890
3D8A11F6
BDAABAA3
BDBF8B44
3BAC15F1
BD8CBEE9
3D26D8BD
BD55A48D
BDBC1630
3D2BEB79
3DA7E684
BCCE7E75
BC405B6C
BD2D66DC
BD25FAE7
3CD79C62
3DA2226F
3A1D938C
3D879B00
BB067F20
BCBB61CF
BDA7E88A
3C7F33F6
BC1009C9
BBB1A74C
BC15FC09
3C8BB14E
3D3B9292
BCDE8F98
3D40C0AA
BD37EA8A
BC0A461F
BCF08D5E
BA597F05
3D8DDE1E
3D0806BD
3D54FD45
3CDAFD31
BCE0EF76
3A899C9D
BC2D5044
3D80BBBD
BDA7AE27
3DA3A866
3DB71193
BD0A19B2
3D948816
3ACC1D45
BDA88E00
BD31A89F
3D534FC8
BD97A595
3AFFD3D4
3D8F2DFB
3BB65DFA
3BABB0D6
3DA4946A
BD56B8A5
BBF56292
3B0DF7BD
3B8E0E74
BD047344
3D2CBEC4
BCA123F1
3D563D4D
BCD77D8A
BC614EC9
BCB020B4
3DA0735B
3D298A59
3D3E2231
3DA96538
3A8B213F
BB8FCF7B
3DA65D6D
BDB38B03
BCA8F4A6
3D27E30B
3D54D177
BBFDF686
BD9502B2
3D4B6227
3C39C834
BC5158A6
BC58D6FF
3D6C3716
3C0742DF
3D51E511
BD99B2DE
BD3F9D6E
BD6099D0
BD897289
BDB98F66
BDBAE4D2
BD49333C
BD99E8A8
3D3D7A2D
BCC2D840
3D1B800D
3D034928
3D5359E4
3DB1CF7D
BD7F386C
BCBC2049
3D51FA8F
3D97A5CE
3C261CCD
3B35208A
3CE2AD11
3D167541
3DBC1550
3D8FBFFA
BD8E7EFD
BC06E856
BB56A516
3CF1722E
B8FCEF25
3DB1C511
3D5E9F70
3D537A43
BCA88542
BDA457D3
BD52219C
BCA2D4B0
BD5BA473
3C466F49
3D4FC311
BD043EB1
3CAA3264
BD33547B
BDB9831F
3CBFBE15
BB558B07
BC457AD6
3C3F716D
BCBBA721
3D0EFC0A
3C21B668
BD2C9242
BC3CA44A
BD8A0BEF
BD9C6A6B
BD4E0BE1
3D8963AD
BD8FAE3C
BD577755
BD9D9591
BDAFD274
3D3FD651
3D41F3C5
3D471F57
BAD79314
3CA30D6A
3CC90049
BD2331D6
3C415469
BC1D18F0
3DB84E5E
3D48FC51
3D08F241
BD8EAE61
BAF0D9FB
3DA38023
BD4C949A
BBA7DA64
BD993FBB
3B206BB8
BD38750F
BD0050C8
3D8C2CDA
3D72EF66
BD16CE13
BCACFFFA
BC34B0B6
3D6845F9
BCE4F838
BC0A2247
3C315993
BD21C9B6
3D413295
BD9D6557
BD332167
BD9387B5
BDB90C67
3D9DE7F9
BB3A9FFB
3C423CEF
BDBBAF2A
BCFB288B
3B7E2BDC
3DA8FCBE
BC986449
3DA8EA2E
BC8A628A
3C7C5759
3D41043C
3AFC4596
3D36520B
3D5C067F
BD87DE7C
3CDBE137
3D4019FC
3D92EAD2
BB8D8438
3D91FFD5
BDAB9234
3B87A88D
BCC84481
3D3B6C7D
3CEB53F9
BD9A5257
3CA3638F
BCC56B21
BD10BAD6
3CA8646C
BDC63772
BD9C3192
BD87AB6D
BC36F2CB
3C89751B
3CCDAB02
BB80E24D
BBF33060
3D432AD0
3CCEF7C4
BDAD75CC
BD844F95
3D9259C5
3CE4B6D1
3D2CBFD7
3D713F99
BD8057CD
3CBA2BE7
3DA9B032
3B419FDD
BD882B1B
BC3A5CC7
BC2E0BBE
3DAC47EE
BD9B0D0D
BD86CE0D
BD2C576D
BD882421
BD5B645E
3D3BC329
BD743662
BD581E0B
3D9CC1CA
BD227E2D
3DAC8BDE
BD9C6D38
BD2D076F
3D04AAC4
BB210158
3D3A2420
BCEAFC14
BD17F36B
BD93AB01
BD149330
3D89AE81
3B54FF92
BD2A7E2E
BD1F4427
3DCD8DD6
BD452F53
3D9EA654
BB6E9C51
3D670341
3D6E99A7
3D8F6866
3D8E725D
3D85AF06
3C0E9564
3CE55807
BCA340D2
BB748947
BD64BA1D
3D43D12C
BDA9022B
BD96ADBE
BD4AF02C
BD07E8DA
BC754FB4
3C0F3528
3D44D9F8
BCFE76EF
BD98AF5B
BDCDF98B
3D88C9D5
BC04DD69
3D3EC167
BC1921CB
BCB3AD40
BD95C160
BD1FE99F
BC8B541B
3D4FA954
3D141C25
BC15C279
BB32611F
3CC58B9F
3C23609F
BC0B0508
BD017CC5
BD0AF491
3D8E0B7D
3D842876
BDB5B5C8
3BF7CC97
3DA90898
3D665A7A
3CD27EFA
3D6F4CCB
BD4E5218
BDA2D335
BDA2D0E8
BDB767C7
BD887950
BD1171E4
3D670910
BD6423B1
BD020D26
BBF6050B
3D02DAF7
3C21AC43
3DA5FC32
BC497C09
BC4AB10E
BD78148B
3DB23D89
BD3BBEB1
BD85A007
3D0776F7
BC953C83
BDA1BD4E
BD7E4F08
BD64174B
3C99EAE9
3BF191D2
3C35C95E
BD1FBFC9
3B5FD54F
BDA579C2
BBBFBE80
3DBDB3B5
BBBCF4DF
BD87BF50
3CA9EAA8
BDB303BE
3D211C65
3D6BE412
BD856D1C
3D0B16ED
3DBC084A
3D39721A
BD9DE41C
3D680FD0
3D7ED257
3DB8BA32
3D17BB29
3C950B2F
BCD005B1
BD95C4F5
BD5E92F0
BC0053CD
3D1E6080
3DABA2F9
BD33C8FB
BCA36464
BCF899F7
3D70F5DC
BC7F95E3
BD149780
3D9C3637
BC4DA039
3DB30D48
3D2759BE
BB918190
BD14D265
3D8E595B
3D9321B5
3DAD9E2D
3D9DEC75
3D864530
3B0D97F6
BD47AAFC
BD81537E
3D814562
3C5550DE
3D931133
3D03F7DF
BB6EBF00
3D7FBAF9
3DA0B4E1
3DBBC5DD
BDA79C84
3D719F32
BD987A1B
BC7353D1
BD9507B7
BD8EE9E0
3D9CA9D9
BCB33E43
BDACB9B4
3CD884CE
BD8482B9
BD5AC329
3C827D49
BD639CE3
3CBD3822
BD851468
BD8CCC5F
BDA555C2
BDAD7DD2
BCB515C4
BD020C47
BD319F1D
BC75BE19
BD6C09CC
BBA13891
3CEE6832
BD064D72
BD8FB0E8
BDB0B517
BDAF19A1
3D72BB27
3DAC3CEB
3C151144
BD30D442
3D5EFE95
3D95471F
BC53A95B
BDB61E09
3CFCA7BF
BDA826B0
3CA34ADD
BDA639CB
BBA25AF9
BD3DB529
BD1899D9
3AA4E012
BDAA8F3D
BC9858D0
BD71F75D
3D9FF329
BCE99431
BD283917
3B218AD7
3D87006E
3C9DCD12
3D8C4B2D
BD8BCC5E
3D9A3B59
BD69E8F0
3D941289
BD21F48B
BDA677B1
BCD3F353
3DA00CC0
BDB026DB
3CBE2DBC
3D30AFED
BDA5BA5C
3D81833B
3D1BB489
BD07A517
3D34397D
3DD1546F
3D2FCE41
BDAEC4D9
3D23FF72
3B9FCE11
BD5DFBF0
BD470B63
3DB16136
3B7EAD0E
3CF83072
BCB45C2A
BD1B3720
BD31BEF5
BC0687FA
BD858BA8
3D8761C3
BD51834B
BC76FA3E
3CA7928D
BB66D82E
3DB0268F
BD8EAF06
BD01DBA9
BD51B55A
3C8A9D78
BD412272
39292CB8
BD5C23CF
BD2AD1EB
BD043B94
3D46AB79
3C9BB852
BCF458C2
3D619851
3D81744C
BC248B44
3DC8D7D9
BCD8771F
3C516ED4
3D6B9B1D
BB31D9D1
3D03397F
BD546613
BDB20660
3B5BEAB0
3D0038A6
3C0C581E
3D82CD74
BD39A1A8
BCA971C8
3CA5509E
BCB71E6F
3D28D8EE
BD4564E1
BD68BB47
3CC045C9
3D8C1B81
3D41A022
3DB8DF4E
3D38D1DD
3D24E3B0
BC808EE8
BC9CE056
BD56E6F4
BDB15633
3CF5FFB7
3D00CE2E
3D586045
BC7F1C22
3C17758E
BD901E87
3C6F22C5
3CACCD0F
3C5D3E11
3D6DD34E
BD792990
BD2BD2D9
3C82401A
3D1EF953
3D93BDEB
BD2BD6D9
BD4DAC9F
BD1DA96E
BCB8D951
3D7B0A48
3DACD840
BD645964
3CF0B8C2
BD44A24A
3D16B667
BD892A39
BC9BA56E
BD2DA932
3C4C0B1A
3D8FC5DC
BD8569DC
3CBD24C3
BD09217E
3D69D3B9
BD98AC9C
BD5BB04F
BDB82960
BD41C44A
BD79A371
3D1017DE
3C8B4D87
BD56FC21
BDA20494
39E86571
BD58E889
BD128C6C
BD8E7670
BD3AEFC9
3D9E3205
3D8BDB49
BCE7E40C
BD853E10
3D3F328D
3CCD473B
3CA9CA72
BD9EEA43
BC944BD0
3DA87778
3CFECBFE
3DAE4527
3D4F5331
BDB65815
BD3C153F
3D334314
3CF9D770
3B7701DA
3D938675
3D9A0068
BD9DC103
3DAB9853
3CBF314E
BDAAF0F3
3CCD710D
BBFDAE83
BD3A68E6
3D91E32E
BC21539C
BC9B1284
3D84395B
BD08359A
3D8930CC
3CACB7A5
3D33C212
BDA7F726
3D909483
3D6ED4F6
BD988BEF
3D8961CB
BDAC0293
3C83AA6C
3D969B8A
BD990CEF
3C770153
3DA8B4CF
3DB4AD1D
BD15633F
BD6BBA0F
3DA13954
3D7050DE
BD1BE261
3D8B6162
3CF9CAA5
BDBCB151
BCA787CB
3CD290D6
3DBB6F1A
3D63BC71
3C9C0413
3C75405D
3DB6EDE9
3D453235
3C3E633B
3D7B39A8
BDB20996
3D86E0DD
3D889596
BB2911E5
3D8B8027
3DA7DF8B
3D9B5168
BD3545C7
BD3323AC
3D164320
BD4B2ABE
3DB54351
3D335DFA
BD5E4F53
BD7C2C62
BCD653AB
3B840743
3D5CF767
BD22052D
BDB32120
3DB29331
BA0234DF
BBED83ED
3D4196F1
3D97EB2B
BDA85162
3D943DE6
BCFD726F
BD855CF6
3D886B53
BD887772
3D9F2E89
BD257713
3C4AE519
3DA472B5
BCA48726
BD9A54AB
BC407D82
3C44D96F
BB06E9F4
BCF55345
BCD5C3FD
BC1C98BE
3D1FA6A4
3DA969CF
3D94842E
3DA4D0F2
3D51A552
3DB5FDD5
BD9D5FEB
BC8CC708
BC9677F5
BD25B701
3DB82CE0
BCDBA149
3D376663
BD44BBE8
BD141292
3CB13D6C
3CA5E830
3D5EAA52
BC26C5EB
BD419733
3AF3A3C2
BDB91D6F
3DB5CF12
BD8349BA
BDB657D7
BBBA13CD
BC766D6D
3BADA595
BD24819F
3D971D03
BC8C53B1
3D0DC395
BDA2B1C0
3D504A0B
BCBA7EEA
BD04D38C
BCDBEB6E
BC983D69
3D4AE128
3D2924E8
BD17AA4D
3D22043E
3C87F485
3D963E4E
3D64CFE9
3D264E07
3D59EA45
BC4CA73C
BD91FDEA
BD88D2E9
BCE129EA
3C1354C2
BD8D2013
3D59B24C
BB277426
BD369593
3CAC6FD3
BBE4FFB5
3D9A2747
BD609C5C
3C269972
BDA19B53
3D167F04
BD5B9661
BB2CCA3E
BD3688AC
BD80D56A
3D897DF1
3CBEFA95
3C9AAEE8
3C3238F5
BDBB5A1D
3CD02ADF
3CF15B78
3D4B587E
BD2DF0C7
BDC194A5
BC339335
3D732F3A
3D44C5E6
BDA23382
3C288C44
BBC89582
3D50833D
BB6BDD8B
3D8A8343
BD51C392
BD37EFB6
3D997BD3
BD073927
3D377570
3C9AFF73
BC12D45A
3D53E993
3D206891
BC9B707B
BDAFD18F
3DADCD6F
BD9CAC99
3D6BD044
3D29D69C
3D21918A
3CE654C6
3C6E8365
3DA7B168
3DA763AC
3C947B49
BD80D2DB
3D6D15D4
3B89563B
3D6E6581
3D60798E
3CBC300B
3D5DDC53
3A78EF3C
3D198DB2
3D8B9E08
BD9A9828
BD32BC98
BC2B19BF
3CDA803F
3D53B377
BD70F6E5
3D7FB931
3D95D7D1
3CBBD819
BD1F039D
3D5D2C1E
BD845276
BD971C1D
B9EC5D9E
3D4CED84
3C078D39
3D99CF8C
3D951E9C
3D7F2A39
BC9A4F64
BD6C177C
BDB61592
3BBFA164
3D385F36
3D74136A
3A5526AD
3D841D89
3DB1FD8B
BC7B7661
BB9E57E9
3BBEEC93
3D396A2F
BCF3B86B
BD4E2353
3DADDA0C
3C43C16E
3AD7DF10
BDAE47EB
BDA4D52C
3D0FE316
3C93CCDE
3D2BB0D4
39BEC54A
3C501473
BD495C05
3CD4F9AE
BC24AC23
3D3CD95B
BDA6F30A
BD0FA91B
3DADAAA0
BD5D9ABA
3D314B2B
3DACE048
3CF51876
3D4CD6C7
3BE76AEF
3D7FA1DD
3D46070B
3D6CDD05
3DB69EBA
3CD3D338
3CA2B874
BD15B1D6
BD6A7654
3D562618
BD595106
BC35BB06
BC06DD82
BC69B279
3D9FA588
3D9DA6BD
BD0E7065
BC2F4B9C
BDC8E08B
BD5B46EC
3DB50C5A
3CB17B4C
BDB1DB61
BC2F8E18
3B7E304B
3AB87FB3
BD7397AC
3D2E2407
3CBCA766
BD8A88FC
BD3E5820
3C71A4EE
3D9DBAF7
BDAB36F6
BD86ECEB
BD2446D5
BD1DA782
BD9D3BEB
3D10150A
3C9A2A35
BDB84DC8
3CB91E3F
BACBD351
3C13DE84
B999EB5E
BDBD3CA7
3D12B81B
BDACBA46
BD006A1C
3D671E48
BC4EA282
3C755FEB
BD2F748F
3CCA29E0
BD8BBA26
BD7A627C
3C9CA571
3C816FCE
3D38F91D
3D05DFDA
BC0D8212
3A3899CF
BC05C6BA
BDA9D82F
BDB97CDD
BD48F61E
BD6AB01A
3D8EEDCF
BD51AA80
3C97024E
3D33FB77
3D6B490E
BD292641
3CA50F37
3D8C45A6
BDC6403F
BD8EE916
BC3F7581
3D8C6331
BC4C9741
3D3FFB68
3C887B48
3C5A461E
BD8794E0
BA8CB7F0
3D0685F9
3CE4C929
BDA3B762
BCB9D2FE
3D8D686B
BAF8D938
3CA85937
3D725A59
BDB51AB8
BD269B25
3C9E1B7F
BD15DE4C
B9D01E90
3D8DBD97
3D75279F
3D6F6AC5
3D908D49
BBC0C462
BCC87ECF
3DB4C4C1
3D62B661
3D605EFF
3AB4D562
BD9C047A
3D85244B
BB575EC5
3CA1920A
BC2104ED
BD8CD103
BDC1F111
BD9CFD00
BD1AF52B
BDB57689
BCEEA9B9
3D5302C1
BD06FA9F
BCFCB73B
BCA39946
BBFA6CCB
3D8170C1
BD1A2057
BD2D2D50
BBEC0BEC
BD014485
3CE58D1B
3D76F2C7
3C82F658
3BEA08B4
BD59A396
3DB392BE
BDB181CF
3BB74DCC
3D46C972
3D7F81F1
BDC550F4
3CDC9497
3B84610C
382DF71A
3D8F3E4A
3D939195
BC4022ED
BD92BD80
BD494A24
3D77E07C
BB49DA74
3CA7AD6E
3C59C02F
3DA14D6A
3D94E5C2
BDB5683D
3D973056
BB1F789F
BD966B57
3D29B6F2
BBFE2DDD
BDB67D21
3D78F1C5
3D3AF0B1
3C875B0C
BD3887F4
BD2D15C2
3BA91437
BD88206C
BD94D19C
BD9B4A05
3D172524
BC104831
3C7A4B6D
BD50115C
3DBEA638
3DBBD084
3D69CA32
3D39681F
3D599E8E
3C132B69
3DA4381B
BDA585F4
BD4D2730
3DAE3713
BD0D84E1
BD9FCE40
BC850B6E
BDB1499E
3DA9D2CE
BD7260BF
BD7CD43F
BC171878
3DC63565
3D4B25A9
3BF59324
3D1B0072
3D92D4AE
BCC12536
BD8B511E
BD339722
3D4BBC7A
3CCA2704
BD89BF5C
3D996B2F
BDB1CC77
BA203FD5
BD028235
BD3DC52B
BD7C6D15
BD0DCD6A
3D1AD97A
BC6E4302
BD33500A
BD1E688B
3D88A097
BC0F628E
BC3B0F5A
BC4E3BC1
BD3BD407
BC8A744B
3DDFECC1
3C91386C
3D0595AF
BCE4F180
BD40344C
3D4FDC6A
3C37A4DA
3DA9BEDC
3DC5CEBF
3D035C00
BCCB3B84
BDA6E1C9
3CC3A7BC
BC8605AE
BD9506F7
3D7077BC
BCA89BE4
3C00CC4F
BC8E4363
3D9314CF
3D1492C4
3B8FD0E1
BD566BF4
BC5FDF0C
3D934728
3D136C7A
BC4B0643
3DBA9330
BD2E148E
3CFACBB7
BC535CB5
3C5061DC
BC8465FD
BD24056A
BAC01050
3D6D46B6
BDC4E333
BD0A2CC1
BDBDB578
BD771E56
3CDB9B12
3D087773
BD8DB5FC
BD410160
BD69B309
3D8AE230
BC0632E4
BB4969E3
3DAE0796
BCE66499
3D9AFCBE
3D99A827
3DA8E3D8
BDB8BA17
BCC5081B
BC461C38
BD917C09
BD5262D6
BD462AC9
BCCE11A4
3D9DC7E7
BCD165CF
BCD18EAE
3D96DA46
3DAE2CAC
BD56CE58
3D796D2A
3D94CE61
3D886336
3DA045F9
BCF80B1C
BBBC283C
BD964ED8
3D0147CF
3DABFFA9
BD56C94F
3D5D6847
BD93C6A5
BDA24A2C
3C8E4E8F
3D96118B
3995EEFD
3D954CFA
3BE7ACD5
3DB00A18
BD97E82D
3D58CEA4
BD18F07E
BD9F9D25
3CEA46E1
3D7F24DA
BD43EF00
3D6BAFCB
BDA1585E
BC72A52D
3B4E058B
3D7803BB
3C9677A8
3D23A34B
3D43695A
BDA21691
3D8D4237
BD825856
BDC57AFF
3C0DF03B
BDBBB1CA
3D652344
3D11BE64
BD95DB39
BD872A31
BC781986
BD8C7EEE
3DC51296
BD4AE1C6
3D59E33D
3C259C48
3D0F20A9
BD3D5727
BD919845
3DA2CE79
3C9246BE
3BBA594E
3C449AB1
3D4F7006
BD4C225E
BA8E4EF0
3DACFBE8
3C95102C
3CEF5428
BD9431BF
BC50B0AB
BDA31456
3D956999
3D1ABBCF
BD05C57C
BDD0689F
BCC7A57A
BD941332
3DA1E171
3D25D47A
3DA72618
3DAC215C
3AD0A4CB
3D820D79
BB536933
3D952948
BA2E5E97
BDA3AEEB
3DB19B1A
BD49A586
3D4F93FC
3D209018
BD931CA0
3D682286
BB0A577A
3D933297
3DA03705
BD891D25
BDA5141D
3D24271F
BD80DECE
3D0CFE7D
BC832801
3D9DE764
3DB06C9C
3D2FB79D
3CCEE9D9
BC285CF4
3D00CFF7
BD877B87
3D70E21B
BD7124D6
BD635116
BDB57272
BD9379D2
3C3F1ED0
BD10E9FC
BCF57FA8
BD2B9D55
3D16411B
3D846F28
3D0BF830
3DA9CBFD
3CD8069F
BCB7CD93
3D64C1E2
BD082BFB
3D1A313B
3CDA4C23
BCD69383
3D9AAE1E
BDB45210
3D83C037
BDB752E9
3D200BC1
3D430591
3D52BF73
BDCD6BAE
BD711760
BCAC9F14
3D50726C
3C57DBE0
BD035EFF
BDA76253
BD5AA045
3D76FF33
3D8BBB7D
BD33F714
BD53D7B0
3D8C6E1A
BD48F08A
BD48F646
BD1F3F22
3D5BFAF0
3CF3EC0B
3D9E0400
3CF96431
BC8E1DEE
BC32CAA3
BD8B2C6B
BD6680E9
3D3416A3
BD56BA9D
BCCA79E6
3D68B8B2
3D3387D6
3DC215B1
3CE05578
BD74BF07
BC061D10
BD44DEFB
3DB0991E
3D9CE3B4
BD0DB411
BBDF213F
3D1125C0
3DA3DC5D
3DB2D82C
BD82340D
3DA214FD
BDA76934
BC681E5D
BC269951
BD9EF425
BA94DD09
3DB13D2E
BD7F766C
BCE67362
3D89BEDA
3CBD59F2
BC991723
BDA6B4A7
BD3792C8
3D99B896
3DB4F0FD
BDA8D52F
3D09FB4C
3B855878
BD415DDC
3DAC46AC
BDB99939
3D3E869A
BDA647F6
BD85E96B
BC203FCF
BDB386E4
3D687949
3D7303A3
BD60E8EA
3D8A04EC
3C5422A8
BD92330E
BDA0C1EE
BCB12A9E
3D44C496
BD6B8CEC
3C56F296
BD916918
3D3822D8
BD991A85
3D93398A
3D65A737
3D09CCFC
BD19EE1C
3D4D05B0
BD8C24D1
BCBB5888
BD713C04
BD92BF39
BD9D95EA
BD9A0472
3D5C56AC
BC5D9462
3CA9C97C
3D2E3917
BD229308
3B7736EF
3D8D1789
BCA55D7C
BD8A454E
3D7717FD
BD72D77E
BD459918
3BFE737F
BD97612B
BDAB6970
BC66954D
BBB80CCF
3D47574F
3CD7BDE2
3D2E36FA
3D4BCE21
BD811C31
3C790E1D
BD48D67A
BBD783CE
BD303E78
BD650D08
3D3293FE
3CE61F02
3B5D8BC1
BDA91300
3D126B23
3DAC7048
BDAD34FE
3DA7E00C
BD0B0AD3
3D08EE44
3CA2B3F8
BD0FF189
BD899EA0
BC851590
BD8CA2A6
BC3BFF3D
3CA30A05
BD6C5EC9
3D23E844
3DBD1B10
BD6AD8A4
BD32805C
BCEB571F
3D631676
BD28EAAA
BD8B86A7
BD7DEFF3
3CE67913
BC8A82E5
BDA79589
3C877C79
BAA544E6
3D3D39A9
BD864034
BD967433
3C52AF97
BDBD7EE5
3BE28033
BD247F35
3D881F6B
BD1AC8A3
3ABF1758
BDA1F204
3D51A420
BD9CB062
3CF4B391
BDA1C4A5
3C4EB41E
BD235FC9
3D956D09
BD9F2889
3D846A88
3C8C27A4
BC9CBD36
BD231A55
BD2388B9
3CD75C35
BC574E1A
3C85D565
BD8E4292
BC2580B8
3CD143D8
3CC40B8C
BD8188CF
3D027399
BCCE9AA7
BD77DBD8
BC44186E
3D81A51B
BCB1018A
BD816439
3DA466B6
B9A06B79
BCEB5C63
3D832190
3CAC9E0E
BD10C00C
3D3734C8
3B038BF8
BD248344
3D3E8EFB
3D5F0A64
BD6A2B68
3A213206
BDBA6C25
BDD4553C
3BE888FE
3D71C23B
3D1488D6
BDC58F32
3D38BFA4
BD402175
BD87147C
BDC0CA80
3D78FB00
3D9C9E4F
3D829437
3CF96BFA
3DAE7F64
3D64DE5D
BC3F6592
3D87B16B
BD9F3D23
3C0A18B4
3C5A8B87
3C653DED
3D3C3841
3C7A4342
BDA570DE
BCBD713D
BB13843F
3D26BC11
3D6D4ED2
BD4EE073
3C4DDD34
BD8F6ABA
BD05675A
BD3D9299
3C58AADB
BDB6AABF
3C0C3CA2
3C95CCAB
BD4D1D8B
BCF5D6A7
3D8FD61B
3D384C62
3DA798B7
3D744A7F
BC04D16F
3D21315F
3D869482
3D015420
3C9355EC
3D42730C
3D668B70
3D80BC6F
3A3F9B28
3DBAD5A6
3A1AE43B
3CBC2D8C
3DA0885B
BD3DF8EB
BD092841
BCFDC8C4
BD476D5C
BDAB95C7
BC4EFE29
BDA4D0F9
BD9B1689
BDB2C3D6
3D059E2B
3D40D51B
BD30E781
BDA5477E
3DA187FD
3CBFAEF0
3CA1E96E
3DB8BD19
3D430614
3DA13441
BDB243EB
BD048AEC
BD9759A2
3C6C16C3
3C8601A5
3BA77B65
3D03289F
BD19770A
BC8E7272
BD03FC2C
3DAD09C9
BD0CF225
3D8494D4
BD97E951
3D63069B
3CC7E2CC
3C7E4013
3D137CEF
3D99CFF2
BD6F2906
BD0B7AC1
BD9BABFB
3D4DAD8F
3D1ABEC6
BDB8655D
3D631635
3D947C5C
3DBE2AB7
BDBDBC74
3DB3BF2F
3D2289CE
BC80C17E
BD98B3CE
BBCEE41C
3D3B3046
3D431F98
BC637586
BDB86D08
3D9F595F
3D70ABB4
3D502905
BD052ED1
3C7CF97E
BD5EB7EC
BCC7A9FC
BC0B0BC9
BCAC3A19
BCF5C07D
BC2EFDFF
3D846B0E
3DB0C23E
BD89FD5B
BC25407A
3DBABDCA
3C9A471E
BC0D0ADF
BD4C7904
BD17F88E
BD607236
BCC73642
3BB95D78
BA8DC9D2
3D0206EF
BD9D405E
BD374D8A
BDA4829A
BD01CCA4
3D257A60
3D25DB4D
3D97E37D
BD949A31
3DA3D27A
3DAC920A
BD93664F
3D9929CB
BC14EF6D
3D547C6D
3CB08AB8
BDB0C9B0
3C811013
BD9FF814
BDB164C9
3D32A630
BDB91E76
BC73B22E
3D2F8D75
BDA6E7EB
3D74C1DA
BD8F977E
BD8C08F5
3D1F9EA7
3D731EA7
BD88F2EA
BB338540
BDB1B0B8
BD812603
BD257033
BD23D10C
BB6D02ED
BD8D28E9
3DB527D1
3D33238B
3DACE5E8
3D15ECD6
BDA3DB36
3D93B389
BD38B19D
BC9F3EE6
BDA55E15
3D82CF0A
BC908816
BD705806
3D12E1D7
BD997B12
3CEA69B5
3BA2EB05
3D757929
BD15C319
3D17FD7D
3D944C70
BCF1589E
BD04937A
BCD2513E
3D9E952B
3D3DFC80
BC27B89F
BD8CD462
BD5B6D4C
BD9E4C8F
BD168BE7
3D8B5485
BD87F516
BD61BE78
BD15831E
BDB0CF1D
3D1E7EBF
3D36ADA6
3CF15C68
3D4F4569
BDA52B34
BDB9CB2A
BD5F0FC9
3D54FF56
3D82D0BA
3BC127EA
BD046C8A
3DA2D813
3D869ED6
BCFCC934
BD383B30
3CCC2B2A
3D1AEF2A
BD37FBD8
3D3164F4
BD250B01
3D88273E
BDAC0434
BC93AACB
3B5720B8
3CBC727B
BCEC96DC
BD95D858
3DA7A4E8
BC636438
3BA0685A
BA57D2C5
3D277967
BCCA84DF
BDB23942
BBADB6DB
3CB008D0
3CF1F28E
3DA63027
3D175C80
BD83284D
3D9A2870
3D8ED345
BD8FCC48
BD8BDD66
3DAC20D3
BDBCE0E0
3D3E4A7A
B9C4B46A
3D687AC6
BC915864
3C5EE6BD
3D3406E4
BDBBFF84
3D64C059
BDA92E03
3D8C04B9
BD734C64
BD353AE7
3DA3A7B3
BCBFE640
3D4868DF
BD88F303
BCD9B4F2
3DBC7C75
3DB0E1E1
3C7195A3
3D2BBEEB
3D3B81FA
3D079614
3D1BDE04
BDAED3D0
BD862602
BDAF7E83
BD751992
3AEAC6B1
BDBD6467
BDB68936
BC598D1D
BD937791
BCC8B254
3DA5FB42
3D9E6175
3CDD162E
BC1AED34
3DBAE08B
3C1EB0D5
3D5D6C23
BC82DEF4
3D42D7AA
BD177818
BD0B5396
B945F04F
3D00EBD5
3D9BE182
BB8BC7F1
3D290552
BC8C4B97
BCE57E70
3D9AA9C5
BBB7312D
3CC74D60
BC7FDCEA
BCB03E84
3D352DFB
3D37B366
3D31A116
BD8CCA12
3CCEDF81
3C17C3F6
BD0F1881
3D1D06E1
BDBA5166
3C07F356
3CDF6E9E
3DAB5AC5
3D097A72
BD31B1A7
3DB65A59
3D9FE0AD
3D41B635
BCD75140
3DAD2566
3D771825
3C8CC817
3D03C152
B98069E4
3CF538B0
BAE8F2F3
BBF9A0D1
3DAC1170
3C40EA16
3D1D2774
BDA390C3
3D58AD9D
3C3B5BE1
BB344389
3AB8684A
3DA768A8
3D7FC1EA
BD9E1E38
3C55484C
3D0E0EAC
BDA49D4C
BD6DE0E1
3D8B8537
3CC64DD2
BC86A1D5
BD940D48
3D8AD217
3B6A358E
BD8F57FE
BD7B16D3
3DC4ACD7
3DA53368
BCC5EC6B
BD7958FE
BD0748A0
3D85E625
3D91DA26
BCE00ECB
BD312A5F
BD76F3AA
3D92E034
BC298C0A
BD482FEE
BD68D3A6
3A600F36
3D087893
3D1FA02A
3CCD930B
BBCBECB7
BD8B8CA1
BD9D27D1
BD9E288B
3D83A3ED
3D168D6F
BCF4F75F
BCBC07B1
BD2EA1EB
BD9EFF9B
BD0C2385
BD232052
3D854E54
BCCE05CA
BD5D8099
3D9C8C70
3D3616C9
BD7CB201
BC401134
BDA80025
3D7A6752
BDAA1531
3D8BDFEC
BD834CF4
BD5DB724
3DA4CA3B
BD6FBAE3
BC444221
3D892090
3D8CE665
3D0EFAA1
BCE5ECC2
3D313F94
3D79E0C5
3D4D802C
BDA31C74
3C3FB2B0
BD431E59
BD7182D6
BD4CCA52
3D26D3FB
3D2875D7
3D93D624
3D569682
BDC3A990
3D458037
BD9B3589
BD9111E1
BC101EB2
BD41B3BB
BD19AE91
BD15FBFD
BD1CE3E8
3D16D084
3DAC9097
BC71EC9C
BDAD7CA5
3D867A9F
BCDFA1FC
BD6F453C
BCD6D2EF
BCB914AA
3D3F06C6
3BB5CFF1
3D3A8204
3D62F692
BDA0EFC2
3DA02E1D
BD6732BD
BD4D2F0A
3DB7702C
BD200167
3B8E1402
BD0033A1
3D9B4F8F
BD897980
BDB3BD1F
BCC6C33F
BCB46718
BDA31748
BD8106EE
3C9ECE9A
3D7FF27E
3C424591
BCAE8088
3DAF1307
BDB23B8E
3CBC0CA3
3DACE382
3D53FE9B
BD118F30
BD0FD985
BD9E5B47
BC9CF803
3D994C49
BDD27B2D
3D0C6CE5
BD05FC8C
3D9433F2
3B090718
3D55D309
BD925C49
BD9D5E22
BCE96E84
BD0BFBC1
3CDBBE26
3D5C8C20
3D31C622
3D203318
3CB9C0F7
BDAF25D1
BC5552B6
3D426DE0
BDB12166
3DAEDB2D
BCE097C1
BD25BE51
3DA197FF
BD2B3236
3D84E0DC
BD7F2B0E
3DA954B8
3D5E837E
BDA2C78D
3DC57F86
3DC07AAB
3D97D8B7
3D2AFB24
BC356A6D
BD0CADA3
3DB44998
3B303D2C
3C2BCA9D
BCC1FAC0
3C5E6577
3D53CA32
BD6A2E28
3D57B15C
BDBC2A19
BC813A2D
3A6DD31B
3C9A4292
BCB0A9FB
3DA86B8B
BCB0FAF2
BD97E710
BD0B765E
BD22AE7C
3DA9ED65
3D5B41C1
BD9D8F98
3D200CDF
3DB79B5B
3D9F2688
3D278B98
BC0834B3
3D80C0B1
3D2CD666
3DAD25FF
BD98FD9D
3BD68CD4
BD2D5631
BD8581B4
3D925475
3D1CDF1F
3CCED881
BD444EF2
3D863028
BCDA46DB
3D831904
BD5AE580
3C9B60EB
BD7D956E
3D9F81EC
3DAED418
3D9392E0
3D781F3D
3D373FCC
BDBAB43F
BD742CFC
3CD707C7
3D807C81
3D456068
BD1216B8
BD66A4EA
BD094971
BD8D0EC8
3D9FE01C
BD816CF8
3D801F28
BBA60358
3CC04C67
BD7CEB66
BD11D7D1
3CD8BB35
3D5E1A40
3C7F0A2A
3D73C96A
3D311A96
BD93E0AA
3D27D294
BA5EC877
3D605EF8
3D4606CD
BD551C06
BC19C934
3D83FC8B
3D4DC6B4
3DBAC3B5
3D348F7B
3DB93848
BD023974
3D1C453F
BDB39E46
BC918A01
3D6682D4
BDA5999C
3D7890EB
3DB61CD5
3D0EC91E
BD20B6C4
3C58C1A4
BDACAEDC
BDA8034A
3D49DE8D
3D61A2E4
3D766F19
BD809AF9
BDADF86A
BD8E7669
3D2EDFB0
BB845918
3CD7ED64
BCE3BDD1
3D17EF66
BDBB0478
BBC0154E
BD551C30
BD44F203
3DB2C594
3B6E400C
BD99BCD9
BD4B591F
3DB3F642
BBF16437
3D1196C0
BCC84314
BCA23FFD
3DB5E58C
BD42F8DC
BDAC9300
BD2C7C3F
3D48B86F
3D9B7EBA
BBE16DDF
BD0FCDF8
BC98F3DB
3A3C987A
BD426973
3D70E7E1
3D4A9291
BD8807BD
BD920225
BDA2B8E4
BD224B61
BC3E5626
BD7911A4
3D82B8F8
3D0D087A
3CBA44A9
BBAE5D26
BD6C9FE0
BBD59D93
3DABBFC1
BB896174
3CF53B4F
BD14EAEE
BCFDA5BC
BC556C80
BD08003C
BCA36C80
BD4113A9
BD97459E
BD1914A7
BD70F1A3
3D268271
3D0BEB5E
BDB8C225
3DA3F3BC
BC70C3F1
BD8F0804
BDC367EC
3DA489F9
3DC7A9D3
3DC8B25B
BD7D0180
BDA2214C
3DAA74C5
BD9AA390
3D79600A
BAF6F184
BD3F6A6D
3B93C4F4
BD0DDF9D
BD82A194
BD52E6F6
BD71A030
3A200B90
BD72B753
BD54EBBF
BD7FBCBB
BC921B52
3C401862
BCA54C65
BDB30B35
BD817408
BDA31A0D
BD21264B
3D0A1AAF
3D380917
BD80A96A
3D775E72
BD7B1D9C
3D097FAE
BDAADCDC
BD2CB2C0
BD3B0C6F
3D3D795B
3CAB25D1
BD9B2FA7
3C454A11
3D75521A
BAC5CC27
3D439302
BD203C41
3CE3FE84
3D936510
BD2E2AE6
BD4EFF3F
3BF846EB
BDB4B3ED
3DC1766F
3D208219
3D071CA0
BD73507A
3D7BE8CC
BD5A777A
3D43CCDB
BCD7EAFD
BD304658
BD292C66
BD7D107B
BD0DB6DF
BD565DFE
3DC3FEB2
BD00F32F
BD40C907
BDB5CB79
BD09B8A1
3D7DF457
3CFAEE73
3DAFDE32
3D741F8F
3DA59B99
3D0F68BB
3D81A5D3
BC4DD225
3C43144E
3D9A7E56
3D89B6EB
BD6280C1
3D8CA1AE
BD0C71D4
3C86AA65
3B7E38E6
BB842B26
3D4E9C1E
3D523555
BB66F0DB
BD1FB2F2
BB39C637
3BE3D5C0
3C6C1289
BC0C739F
BDAE2DD2
3D0CBE37
3BCC847A
BD05F900
3D4B3A85
BD7C4A68
3DA91804
BDB21B75
BD0D7BAF
BCBA688F
BD712851
3BC13A98
BC147AF7
BD335A6C
BD5C8D22
3DBC49FB
BDB5F29E
BD146AA7
3C365352
3D696BD0
3C081384
3DB9447C
BD32B797
BDA03F11
BD3A0487
3D57A673
BBBF8490
3D4F1FDA
3D90B033
BCC303CB
BDB8C330
BDBBB66F
3C4E9E0F
BBA38AA8
BDA0AC75
3D4F7FC2
3D2B0C61
3D7E1736
BDB5A85B
BD533C02
BBA8F510
3DBC543B
3D90E090
BD953847
BB4D6E94
3D6B1716
3D882EF2
BC604094
3C883809
3CFAE787
3C2144EC
3CEA3D24
BC2E2678
3D9BD0AD
3D3D7BE6
BD8012A2
3D708585
3BD7CF87
BD87602C
3D7B8F60
3D13580F
39D71B00
BD45A99D
3D6DAE06
3D130CE9
3D808A7B
3DA2F29D
BD9D6DA0
BD102EF4
3DBA3295
BD891571
BCA37335
BDB016E8
3CED50D3
BCFC645E
BCBD44D4
BD0323AB
3D6A6F27
3D1C2408
BCC3A580
BCCF8BFF
BD361E22
BC11B767
BB969300
BC071CDE
BD9A92D7
3C21E528
BBDF1F9A
BD1ADF44
3D46C9E1
BCAD1EC9
3D7DDB98
BDA1177F
3DB06395
3DAA0D91
3CDC1734
BD55608F
BD48A910
BDA4D018
3DA63DFB
3D405950
3B4B3AFC
BD61B7D8
BDAD06CB
BD85FC45
3D928CEE
3C8A2448
3D82E054
3DB44FAE
3DA12DBE
3D6FB321
BC83A683
3DBDF7F8
3D1CF8E3
3D60412D
BDBCE658
3CB7966A
BD00DDDC
BD6F37BB
BDAF63DA
3AD5F74B
3C0ED5C9
BDA34346
3A8453D2
BC57C33E
BC13A6D3
3CD6113E
3B8976B0
BD5CBD8B
BC0030BB
3DE5E8EF
3B1F64E1
BDA96A4C
3B4835E8
3D53DE72
3D7F9A52
3BC34EC7
3CF40DC5
BB9C40D5
3D97368F
BD5A22C7
3BF6C522
3D2ABA77
BDD95554
3DC5B610
BD67DC78
3DA4E28D
BD7E3056
3DA01772
BDBB2C7B
BD4B47D1
3C3FFECB
BD8867C4
BCC6433B
3D4BE6B2
3DB792A6
3DA03159
BD291DDE
BDA3E778
BD895390
3D0F2F91
BD1EC917
BD8C3AD6
BC4AD4CE
3C846AAB
BCD0251E
3CBAFD8B
3D436B25
BD748347
3C830D11
BDB391CD
BDA86631
3C9E2ACD
BCBF82E5
3CA71F8D
3D770450
BB47C476
BBF7A5A9
3D714C97
BC7E6897
BD8B43F0
3CDC2F3A
BCCADA89
BDA94793
3D8519EB
BD4A9C5B
BD8FB9F4
BD28474D
3D617CB2
3C8B0544
BD83E75B
3D40D1F8
BD5658F9
BC5093B5
3D53CCEE
BD21415C
3D8BA115
BDABDE10
3D9E644F
3CBB2CC1
3DA312BD
BD89FD00
BCC1CBF8
3ABB2A4A
3CF86966
BDA94F10
3BBDBA73
BD353EA1
3DB093D6
3D248A55
BD1FCF9F
BDADAE00
3D9BF716
BD46910F
3C9B84CE
3D99BC9F
BD249329
3D4B236E
BD97CE77
BD0898D8
BD588C26
BD960E57
3D9B8B57
3D866DCD
3CDBC7D2
3DA8AB3D
BD86A950
BD88BC02
BDB276B3
3D568584
3C9A5377
BB3B4950
BA21732C
3B65DC14
BD820915
3D606AC3
3D0CA615
BDB51E26
3D8CD99C
BDB435D9
3CB0B908
3D6B3877
BD4BDEC9
3CA2EBBA
BC76D3F7
3CF87111
BD4B104F
3D8F986D
BD00372A
3DAFB14A
3D587044
3D5F4E6A
3D84BB8F
BCE93A17
BDA03633
3DB728FE
3DBAD3DE
3D212A03
BDA9A266
3D944C68
3BBF90E3
BCD76FDD
3BFCAC53
BD9B83BB
3D0F4181
BC073305
3C73FC68
3D0841AB
3C4C643D
3BB507AA
BBCFB296
3D3FD5D1
3C258451
3D2E1C55
BD9F8AFA
BDAFA177
3D447B5B
3D9B7A03
BD27ADA2
3C447682
3D4DACE8
3D63240D
BD8D6047
3DBF0D3B
3D673320
3AAB7C9D
3C7CBAD5
BC69FD14
3D5EB4D8
3BC97E31
BDAA5C33
BC43B20A
BD5C2E1A
3D2E3406
BDA15A97
BC353F9C
3DA9BD2B
BC45302F
3D9C9B82
BDA07902
3DA2037C
3D0E75D4
BD6465BA
BB59A04F
BD6C0B74
3D870CD0
3D33CF12
3D86A908
3D4368FA
BCE848B4
3C4E23F7
BD16FC06
BB210144
BBAE96D2
BD6ADA6B
3AFB108B
3C4E8738
3D87CCB6
BBE32E67
3CAAD165
3C9C2680
BCD7F67D
BD799DCE
BD1ED084
3C96096F
BC6D0776
3CFABC91
3DBAFF5B
3C721847
3CD734E6
BD14F379
3D954A8E
3CDDF5DE
3D3ADB90
BD019D29
3D9E7813
3DACDFA5
3C13C162
3B5272C2
3D758EF8
3CD46D19
BD00C141
3DB7B095
3CD70337
3DBA60CE
BC78A838
BC8B6ED6
BDB96764
3B9D78E7
BC22EC93
3D1E6F2F
3DB18226
3DA6AD78
3DA15A56
3D4F354B
BD88D420
BD9D9569
BD934A6A
BD7D2EF2
BC76708F
BD558F4B
BD79D551
3D6AA1B3
BD0561DC
BD3E47CD
BCD8BCAF
BB471CC1
3DB4F19E
3D74333A
3D4AE5C3
3C0988AD
3D992D43
3D8F410E
3DAFE6FC
3CF938E0
BD404EDA
BD5A5476
3CE1D096
3BA46EC1
BDBC39B1
3D88213A
3CE6F11E
3C92E6FD
BDD1BA2B
3D4859CE
BD6061A1
BD22E081
BD818035
BD3B3AD1
3D9A53DC
BDB2CCBC
3D502360
BD015EF1
3D98E2E7
3D852A2C
BDA85E7E
3DCA2F5E
3D50BB39
BD0ADFFB
BD8CF9BD
3B121938
3C98B706
3D03ADFE
3D0C04BC
BD32FD0F
BD91F676
3DB38A78
BD87503A
BD4F8AE1
BBFBB7D4
BC18ECB4
BD49C887
BD1DDBA6
BD8521D3
BCB31050
BCB18999
3C9CD0E4
BD77AF14
3D0A8FC8
3D033E36
3CB08422
3D8915B8
BCCEE4AF
3CD7038F
3DA41C67
3D5FC43D
BC9790F0
3B9E5E12
BDADCCDB
BD7E5576
3D3B547D
BCAE44F1
3D1DD3DB
3DB8C349
BBAE5DA2
3C09136C
3C95D1A2
3D47DE45
BD3D9933
3DB1F0B2
3D0AB652
3CC802FE
BDB28C1B
3D478165
BD9F6C51
3D78D709
BD0ED494
3C4E39BA
3CE4E41D
3DC18B26
3DA4C72D
3DAFB7E0
BD2BE249
3D5456A8
BD538DC1
3D34A947
3D832D8C
BD3DF82E
3D917B0F
BDD459A6
BCEB367A
BD935430
BCFBA0AB
BD7D2D5A
3D10FE97
BDA61A06
3D14176F
3D3A454C
BD11C636
3D86F9E3
BCCE0817
3DC368B2
3D42CD2D
3D314200
3D253105
3DCE4DBE
3D9041CD
3CEFCFB2
BD243E53
3D93617E
BD8750B7
3C9506AC
3C1BFEC9
3D0A017F
BD6FFA2F
3C972A9D
BD54A77B
BD866CB8
BCD8CE0B
3D89C64F
3D9C2AD2
BBF9A929
3DC75B75
3D789C38
3C679699
3D009829
BD9E2E04
3DB5AFC9
BD20C9A1
3DAFDC96
3CD04290
3D52D944
3D36F304
BD046446
BD617173
3D8E243A
3D6FE3ED
BD95A977
BD261A4A
3C6488D6
3CD3F829
3D549B3F
BBC79F2F
BBA09A8F
BD3A0B7B
BD671C98
BDA93C68
BDA40D60
3CF2FC7E
BD82E8A6
3D87E75C
BD8EA6A2
3B5688A5
3D078CF5
3CA5B5CA
BC00D0E4
BDB9F8FD
3D8BEF00
3D35BCC3
BC553A0B
3D34A50A
3D5C4B55
BCDEE2D6
BD947962
BD1FB7B4
BD47D70B
BD54C467
3DB7071C
BDA64785
BBABBE6E
BD253022
3DA62DC4
3BD0DC38
B9B2AEE4
3DA5D164
BCBEF058
3DBB7A6F
3C98E067
3D32A4E5
BD6F6171
3D5D32D2
3DAEC52F
3DB42839
3CCED153
BCC8C820
BCE5B53E
3CCEC86B
3D345924
3D16918F
3DA7BA95
BD45FAB2
3D729F1F
BB45F877
3DA924AD
BB8BC1A8
BD014C13
3D98894F
3DA38646
3BFE07D3
3D21ED80
3D4A871E
3D245063
BB526262
BA23014C
BCD9D926
3C9C53FA
3BEA9DD0
BCFF0174
BD3B6C2C
BC796C3F
3DBCF113
3DAF80DB
BDC11E12
BC98E5BE
3DAAA22C
3D7DF04C
3D2C4059
3CDB7C88
BCB8F799
36912F54
BD9FDBBD
BD21CE46
BC302529
3D0A41AF
3D958EEF
BCD0B521
3D97DCAC
3C97C83E
BD07DFA7
BDB2CF3F
3DB68AC2
3D22420E
3D3629D2
3C8868A5
3B76A702
3D1230BC
BD50D71C
3D2AF7BC
BCF57549
3D757943
3C454C67
BD6CB9A1
BD1435E9
3C4F8FB7
BB9E79FE
BD691609
BDA5EF04
3D84A69C
BD090DCC
BDB64CD5
BC876549
3DA6B9D8
BD0CDB09
BD718F3F
3D0B8C32
BD2A933D
BD8F7CDE
3D2EB156
BD92BE4B
BD7C13A6
3D8EFF1E
BC66EF31
BC3CDD98
BB11C908
BCE41E67
3D8051CA
BC6A14B4
3D88648B
BD41AC94
3D3FF562
3D5EB2EE
3CF75484
BD58E446
BBE79825
3BD93309
3D67A3E0
3CC067AD
3CC7360B
BDC67C83
3DA57A0C
BD409543
BB6ACEC2
BC95DCE2
3CD372CC
BDBAEAF0
BC35E9DB
3DB8BC25
3CA0E055
BD43F0C9
3DB9D982
BD817368
3D783748
3CA08FEA
3C110096
3C88E3A9
3C55D4F3
3D299BFC
3BE69D17
3D1FD8A0
3D22B564
BD145042
3DA3310D
BD1C4A31
3C719B40
BD673F46
3D019B9A
3D86A63D
3D07230A
3DC6D931
BDB0D1EC
3DA0C85B
3C9BB1A3
3CFD6345
BDBBF45C
BD8D4E04
3C3401C3
BDBE780C
3D92D6CE
3CAE6979
3D62534E
BD5987CF
3D23807C
BD50AD99
BDBBA531
BD9EF8F1
BD25623B
3D309A0A
3D200CB2
BCFCB442
3D3A893B
3CA008BA
BD016D48
BD6689EC
BD7AF0E7
3D217DB6
3CC0BD3B
BC356C17
BD93D5B9
BD88DA69
BCE16A6A
3D303D97
3C5AC3AD
BD9F9506
BCA32029
3D0821E6
3CB71E57
BDA13852
3D532C41
3D3D3DD0
BDA9F99C
BD6F443C
3BB2B6FC
BCDF0185
BDA1F9FB
BD13383E
BD65F5D9
3D1EC57A
3D981990
3CF354A7
BD4CD1EA
3B70B9F3
BB77FF28
BD5C317C
3CDF299E
3D645206
BD6F90B0
BD5FC25A
BDAD1880
3D0B8143
3D403946
3DB97AE8
BD533B10
3DC65F8E
BB58F4BB
BD074CF1
3DDC3620
BC774B58
3C7FAF86
3CAB9B28
3D21EAB9
BC103D9B
BB781CB0
BCA80C85
BD72655C
3C970F68
BCCDA17C
BD94054B
BD2F5F3C
3DA330D5
BD8E98A1
BCFADAD6
BCF6B463
BD8F814B
3C675110
3DB9F234
3DB23F49
3D999C9D
BDB06220
3CE10A2D
BD6DABB1
3D366CD9
BC2BC378
3D880071
3CA6D0D3
BD5AEF24
3D24FAEE
3D0EB909
BD47B0E6
3DA87B5E
BC66F8C3
BD9D4D25
3B4EFF13
BBEE5BDB
BD87004D
3DA4E2C1
3C7EFD2B
BD575C45
BD89B58F
3C024D94
3DA55FB4
BD368104
3C5FEBF3
BD5C3456
BDAA487C
BDA8DA2B
3D31E0A3
3DAF8356
BD980932
BC97795C
BD88CE47
BDAD65D7
BD5F7F51
3C91AB9F
BD365C15
3D482C8D
3D621D0B
3C3B850F
BCCE8404
BD5CEBCD
BD4DB6AA
3D8269E8
BD751300
BD6841C8
3CDA95A8
BD0F4FE3
BD2F9D55
3DA75E75
3C733316
3D262E15
BD55AC4D
BBCF5660
BD725A03
3CF49A43
3CA7ED5B
3C542DEA
BC5462CA
3D0E4895
BC321C2A
3CCF122C
3D068391
BDC4A586
BDBB32B3
3CB1EAC0
BDA08415
3CABD707
BD9ABAD5
3D9B4BE3
BD9EF0FF
3D3029CA
BCEA7585
3D73486D
3D506042
3D88F056
BD49F746
3D068477
BC3205CD
BDA25020
BD56BEFF
BD0F6A96
BCA7E7D9
BBCEB997
3A495C54
BCBB75E0
3C54461E
BCA7356C
3D8AA842
3D6A13A8
BD8B1BB2
BD91A78D
BD841551
3BE2881F
3D2DEE37
BD7B06F2
3D99DD2D
BC8C752D
3D7EBD03
BD9B47D2
3D87FAD5
3DBA14BE
BD2F9308
3DB29E2B
BD62A1EA
3C16EB9E
3DB7E386
BC897FC7
3C8866E1
3D22420F
BD37D1ED
BD4751D2
3D044C3B
BD183ADD
3D901B76
BD29F439
BCABEC0E
3D5F22AF
BB6C9203
BD5C7629
BD971219
3D6BD62B
3D9296B8
3D03766D
BC8CFF54
3CD2C75C
3C54741B
3C5994FE
3D3A9B03
BDA7A3F3
3D2BE92D
3DC0D66A
3C9811E8
3CA60E68
BD1535FD
3D839B10
BD87F8FA
BD824090
BC9509A8
3D813167
BCE3C2F4
BD277F95
BD5571CE
BBA6D918
BD482AFF
BB95D638
BC53CE2B
3D1D3DEF
3C45A071
3D501B92
3DB06303
BC8F62FC
BC50993B
3D237F56
3C8D2192
3D6E8BDB
3D7029B5
BC11DB9F
3DBB7872
BDABC9F6
3D8B0DC1
BD1970FA
BD7EED18
BD204359
BDB9E5CC
3CE1A94A
3D8A6A61
3D379158
BDA7D59D
3D3FBA34
BCA57F95
3D10F047
BDA8966B
BBFFF201
BD714971
3D3C304B
BCDED287
3DA8503A
3D2ECE39
3C44641A
3D2D00FE
3D25D886
3BA217CF
BAA2C17A
3D382AB8
BD78C529
BDB554F0
3D0CA117
3D49840F
3D2226AF
BD884834
BD9B68F6
3DB09E95
BDB57E2E
BD831C37
3D91E827
3D1B4932
BD7BAE28
3D194418
3C9E0306
3D14EFCA
BD9A86B5
BD12BE58
3D4741F1
BD8BB390
3D5D01DF
3C8A1468
3D8C154A
3D9EB46B
3C171484
3C04A206
3BC8D48C
BDAD6532
3D548051
BCD075C2
BD018D7F
BDAEC751
BBA7C376
3DC4599B
BCF3BBFB
BCA33915
3D8D2549
3B919C4D
3CD3D316
BD85CABC
3DA9A231
3D42DBD3
3D646E43
3D453A9E
3CE104CD
3D1FB9D9
BC92C960
3D755538
3DB808E6
BD16DEAA
BD92F17F
BD43EFD6
BBB13B12
BD3C6AC3
3DAAC7BF
3DB7DA22
BDA53480
BCCC2FD5
3DAC9F7F
3C308176
3D989D35
BB742D5C
BD382A0E
BCB0F633
3D94C83E
3BFF26FC
BD921F86
BD0BCAA3
BBD0D523
3D83CB4B
3D46E552
3D0E3A03
3D59A8CA
BC9A916A
BCE8175B
BD05193A
3DA89317
3C2EF68E
BCB97A19
3D754913
3DBAF97B
3DB3FF74
3D710FD7
3D6BC823
3AF2EF12
BD846F5A
BD8C9738
3B5A7985
BD3F6073
3BB4EE1A
BD3EE0CC
3D639ACD
BD269011
BD296FCE
3D59BD06
BC33CACE
3DB31AB0
BD0A6460
3D89991C
3D5C9AFE
BBD880D0
BB93BA03
BD019486
BDAD7C3B
BD4AC507
3DA61E8C
BC785298
3DBB49DF
3C57C31D
BD9BA2CF
3D836935
BD895B8B
BDA39607
BBDD74F9
BD08FA5D
BD38A03B
BD5DE330
BD979E0D
BDC0F902
3D896B13
3BC9A2B2
BD8D14D3
BC39030F
3D73750E
BD10AEE4
3DA4FCD0
3D9A39D9
3C52F982
BD243B08
BD90BB5E
BC5FE6BE
BD991164
BCE3BF7F
BD5B281C
BDA0226C
3C59C7FD
3D652BFE
3D809C74
BB7FD8AA
BCEA9366
BC38942E
BDAB37A6
BD2794EA
BDAAB1BB
3CB8824D
3DBA1B00
BD6E57ED
3D93F581
3B1C91A1
BDA81DD9
BD019955
BCC6053B
BCBFFC7C
3D4F0618
3CC110A1
BCA6C07F
BD3DB1B2
3D24B3DE
BD587BA9
BDA656B8
BD051F90
3D1154D1
3DAD3387
BD29C9FA
BCAC46D9
3CBBB11C
BD5DEF2F
BD39CC38
BC1E0C9F
3DC478D2
3DB525DD
3D826AFB
BD9430F7
BD9529A0
3D9A3498
3DA4AC6F
3D9ECC61
3D8E8F42
BDB646C8
BD8C32DA
3D6385DD
BD21DD5C
3BB07698
3B688D64
BD262624
3D84DDFA
3D209120
BCF1DEFF
3D115E3B
BD811044
3D6611CE
BDB72883
BC44E5C1
3CE13A58
BD680D4B
BDA1F819
BDD492DA
BBE87D7F
3D123A80
3D271659
BDB89A25
3CAEFB55
BCD2135F
BD4BE69E
BDA9CA13
3CB1D5E2
3C874B44
BD9C12C9
BD219A9F
BD3B58DE
3A5D2881
3C0E759F
BDBB9ABF
39C33BCD
BD3B105C
3DB34FFA
BC3AE29E
3D543961
BD6AAA20
3D750176
3DA303C9
BD34FF09
3DAB7694
BCC13584
BD151D13
3DB88360
3D8F0336
BD9E1C8C
BDB20107
BD9576C9
3D4C249B
3B126550
BD5FDB6D
3BFFD6A9
BD110B86
BD8967A8
BCCD4F6A
3CD693B9
BC6DF77E
BD5CDC04
BD8CA1CB
BD84956D
BD60CDA9
3CA10DA9
3D26E933
3D5A6349
3C816183
3DAC078E
3D8684D0
BC28CA0C
BDAC5887
BD6F1D75
3CC97965
BD755073
BCF11362
BCEDA9C6
3C423D24
3DA48539
3DBE8BFA
BD9CC71C
3C476151
BD964F03
BC51ADF0
3D682B56
BBBD6C6A
3C183BCA
BCB4C7EA
3D53DDC6
3D487D92
3DA1B01C
BCF72784
BD791193
BD6F977C
BD0634FB
BD849B50
3DA71670
3D994EB1
BC225FCB
3D7864F7
BBF7AAAD
3DA52359
3D9B7B6C
BCBEBB92
BCD1193B
BD2A7992
BD92BE39
3D41A1BA
BD1F3F16
BD6E1489
3D93C90A
3D334FD4
BCB1619C
3D40ED21
3BA413B1
BD68E20A
3D816300
3D5CFD39
BBFEF218
BBF5D588
39EB283E
BD197885
BC9D739B
3C9130FD
3CD62DF7
BD671D1E
BD35603D
BD7685B5
3DAC2DA7
3C7CE935
3C9AA594
3CE83313
3C6A2B91
3CE875DD
3C8667B0
3C972F02
3D0AD479
3D3FD4F4
3D021D11
3D0B1A3F
3D65F8A8
3BE2BCFA
3D4972C1
BD58AF2A
BB2118C1
3D7596CF
BD05C709
BDA00CB9
BDB34E1E
BD9CEBA7
BDB0F95A
3C8BD869
BD099E68
BDB71B13
3D2C9DFC
3D858D68
BD590F09
BC373DEA
BC0FA006
3D361B04
BC1C6612
BBC6DA87
BCA7664C
BD4E8531
BD9E477A
3C9A0F44
3C207C4C
BDA19DA1
3C816E5E
BD10C907
BC89F30D
BD8BEC6C
3D32F342
BD5B34BB
BCF55002
BD534F25
BCD831F0
3D80929A
BD0567B4
3CEFC5C1
BD672A2D
3D840E19
3D8EA293
BCC4F5BC
3C0ED812
BD084DF0
3CCB1F8A
3D8F6693
BB9636A7
3D721669
3C39626C
3DAB8649
BCE03154
3CB434CF
3D700D10
BDB0D7E8
BD36D7CE
BC216535
3D93D24A
BC92C4EE
BD3A8099
BCE0207D
3D6AB77B
BC31E0C8
3CF15CEB
BDA1ED13
3D8751E2
3CD122C8
BDA99754
BDA3396C
3B0FF36C
BD90FB08
3A31B28F
3D817D0D
3D7EDB4F
BDA72E9A
BBFAB324
BB855F37
3D4E3385
3D1FE0CA
3C9F3372
3D26D42B
3D17B70F
BD09395D
BD7AE7F2
BCD2ACD4
BBE07AA2
BC9FD4EB
3C891CA5
BD25DEDD
BBBEE410
BD492A81
BC395614
BCCB5344
BDACBC01
3D83C1BC
39D1C73E
3D0EA227
BCB61CB3
3D89D173
BD39124C
3D19B7FF
3D8D22E8
3DB652A7
BB9F15F4
BD851F21
BC6C5B32
3D865022
3B569CAC
BDB173A7
3DA2D052
3D3BB50D
BD507ECC
3D47A05C
BDB42158
BC60B9B9
3D386799
3DA1B195
3CC82FCE
3C426B34
BD2ADC59
3D3658E2
3CD8B0B9
3DB22791
3D1E906A
3D3AD9F2
BCA971A6
BC7068F3
3CAD9345
BCBDA741
BD59904F
3D68C9BF
3D898B1B
3CC28760
BCCA031A
3B603CF9
BD721B01
BD9B9114
3CC67523
BD86CC59
BD5C5B1F
BD427302
3DB5D494
3C8A2FAA
3D6BA662
3CD5F4C3
BDA90C33
3D84168B
3D683D0F
BDB2038E
BD8D989F
BD850482
BCBF4237
3D839733
BCE91B76
BD9E42D8
BDA7A4DA
BD5FF2A7
BD371D55
3D99C83B
3D11C65C
3BC3A493
3D55483B
BA00C0FC
BB8E2F88
BD5E5D83
3CA3AA75
BC9C7831
3D96D6B2
3D63890B
BD684288
BD0A3B31
3DAB247A
3D69B996
BCFAF61D
BD90DD8E
3D9BA073
3D0358B5
3C9483AA
3D92695D
3D9CA4D4
3DBAB96C
BCC1F65F
BD3BD2EE
BD9DC8BF
3C049DD0
BD536342
3DA32A51
3CA0D404
3D6A8413
3D448B34
BD1755D8
BD644655
3D82AB33
3CF8B600
BD073708
BCDA9C91
3BFAD1D5
3D3FFD19
BD205413
BDC46846
3DA248AB
BD2CADDB
3D1B0AB3
3DB6E901
BCFA486C
3BCAE3E5
BD6318E9
3D6DB611
3D815012
3D131E90
BDA001C9
3D4AB7C6
BD5D68F7
BD7AC34E
BD1EE974
3D8493CE
BCF8F5B9
BD026E43
BD74D6BE
BD84FA87
BC7F3DA2
3DA6BA68
BB2E7561
BD9F344E
BDA9B45A
BDA5A53F
BDA69C5E
3D81B742
3D6E9C78
3B8CD7D9
BCEBC306
3D140150
BB43DC92
BD5810EB
BD720FD3
3D2918CE
3D88C97D
3C867BB8
3D981A27
BD3FB459
3CA7B582
BDABFD60
BC309E16
3D42E55F
BAB85E94
3D113D37
3D3B2C8B
3D312C80
3D4C45B9
3D3E47C5
BD33C95B
3D6AB0F2
BD8291C4
3C8EBC4F
3C2D5029
3D9D96DD
3D87F22B
BD9E64A6
3C893E23
BD814890
3C2B73B8
3D88D289
3D39D188
BD287BDA
3B080C42
3D34F6A7
BD113D0F
3D6DB0D7
3D2B2601
3CFD497E
3D9B6B98
BD24CA1B
BD8D9A7E
3D6D6E78
BD6F1717
3C2BF9E2
BC2936EA
BCAEB781
3D3AA838
3D6C2BD9
BD322C74
BD53B06E
B9CE94B1
3CA89FD0
3DB6051C
BD2FD8D8
BDD39331
3C4849AC
BCF80C62
3CDE11FA
BD678BFD
3C00CA21
BD9A9EAF
3D8E45E9
3D0A5E86
BD96068D
BB8EF56E
3DBD6B27
3CDAFC36
BC8CAFAE
3D437EF8
3CD42A5B
BD84CDA8
BD2BEBE9
3DA2BD26
3CF142C2
3D8320C6
BD240302
3D913C2C
3D6484CD
3CE34F1F
BC935668
BA8BAF86
3BAAE682
BD8666BE
3AB7DD94
BD9EB933
BD82B87B
3DAC21EF
BD66D6A5
BC4E47B3
BD014040
BD69F9FD
3D3FEC7A
3C90248A
3D6A5B23
BDB1196A
3D016127
3D7883E1
BD1E69D9
3D1A9731
3D97B5B3
3DAEC793
3A478C52
3A909BD4
3D974C0F
BD82F1DD
BD85F625
BD7772F6
3DB49D6A
BB29C023
BD036EAF
BC1F7C34
BDB56610
3D867F46
BDAF64E5
3D3E9883
BDACEF24
3CBD8673
BD85647A
3DA8304D
BDBC1EEC
3CEB689C
BD80CCBC
3D2A9E59
BCA7E40E
BDAF6F91
BCD73570
BCC7C180
3D074613
BCA37F6D
BD7B7F16
3D57D7F6
BD81C305
BD8AEDCF
3CD146F4
3BAB7C35
BD912230
BD929F3F
BA9DB22A
3A977D0B
BCCCAE29
3D264B57
BD8E21D1
BD6D3EB5
3D323FB1
BDB9C989
BC0845E7
BD24BC89
BD6EB80A
3D90E927
BCCCD2C7
BDB6B897
3D2B4555
BD47D7EE
BDAECEBA
BD1A3DFB
3D876E7F
BD8DBAA9
3D0D6C85
3DAAC253
3D03C72D
BB563EA8
BB2CAFD9
3C02CC18
3DAA0EAB
3D439B34
3D4CAD6E
BD780CE1
BC7340DF
BCD2BF58
BCE9A597
3DB931A0
BD068A5F
3B083085
3D6D90BD
3D440212
BCCF7E8C
3DA1C74F
BD9D3C34
BD3A1172
3C26B55B
3CA17C10
3D58BCAB
3C9D771D
BC7BE715
BC87EFC4
3DB7E009
3B4C5ED3
BD8C5984
3C15BB0F
3B8A9B3B
BD316FB0
BD71455E
3D87F7FD
BD2957F2
3D850BC0
BD47FDB9
BC811181
3DA50375
3DB469D2
3CD8953B
BCF881CD
3D4D2FFC
BDA53B2C
BC2F815B
3C4DA612
3DB2387A
BDB0CC86
3D939C3B
BC0EDCA8
3DBC8CC8
3D4FE1D7
BD583DF7
BDAC3607
3D7D892E
BD7E608B
3D2E8627
3D2BCCF9
3D585751
BD1649A2
3DBA686C
3D3C8833
BD8BCA8F
3D4D92FF
BD9E61A9
BD7D3916
BCA92A58
3D8868C0
3DBC8F7B
BD9A0485
3DBC42F0
BD0AECAE
BD5FE727
3D98A988
BC9E5D91
BC1466C7
BD172848
3D94F97C
BD3147EB
BD539182
3D82682B
BDB87BA3
BDA7CDC2
BD4A79C0
3CAB58BB
B93CB2A2
3DB45162
3D5B0080
BD35F38D
BB8A8DE1
BD2E9FD9
3C9395EB
3D97D981
BD8F9FEE
3D27385B
3C8C295D
3D4406A6
3C4CE289
3C6BE3FC
3DA0DB8F
3D8F0C3B
BDB36021
BD93C005
BD8575EE
BCB95A58
3D367460
3D8EC70B
BC030FDD
3D20F487
BB558DB0
BD969025
BD0234C9
BD9213D4
BC4CFE68
B92D625E
3D00DB0F
3DB84121
3C397474
3D64A0F8
BB4B8490
BC3D1D8C
BCFE6806
BDA5B4F3
3CED1197
BD036E6B
BD887153
BDB70311
BD7B914A
BC7197C1
3D26C9FF
BD4D04D7
BB8B6801
3D10041B
BDB70CFB
3DB4C3F6
BD16B28E
BD076F58
BC225ABA
BDB79B2A
3D83B6D5
3D4230CF
3D8F966E
BD9E4EE2
3C51B222
BD047BAC
3CB22F19
BD97EEB6
BC577EFE
3D8B5C5B
BDA65BD2
BC1F68B4
BCB6B434
3DB6DE5C
BDB8870F
3D9D21AD
BC058AB4
BD932D5E
BC6BBFF8
3D3F5EDC
3D80E176
3D68140D
BC150EFD
3D325D61
3DA60A8C
3D735FC5
BD40EA1E
3BE1B9F0
3D517EB6
BDC380C9
3D0B0B62
BDA4C742
BD14E778
BD905BC8
3D2A1590
3D4D8D14
3D89C801
3CD5A79A
3BD40B7B
BBFBB06E
3D402D39
BC9F7C9F
3C0A84FA
3CB60F3C
3DA011AE
BD8D8A98
BD4732FA
3C9411AD
BD680651
BC1519A4
3CF72A98
3D910143
BDAE357B
3D905D81
3D9B2B07
3C293374
3D1B9F5A
3BD62EE2
3D902D38
3D195D7B
3C955E09
BD027E4E
BDA980E0
BCF0F4C3
3D6A5A8F
BD6BD421
3D813B6B
3DCE40C4
BDB559B0
BD8D0E22
BDD1FE57
3D4626DA
BDBDEFD0
3D0C091C
3DB84A6D
BD741044
BD59C93D
BDADA29E
3B5E09AF
3D79B2BF
3D0FD9A1
3D9544FA
3D2AD0B9
BD6D0CDE
3D759372
BDA0D33D
3D0609F4
3C07318C
3D939AFC
3DAEB264
3C0D0722
3CD0B8AC
BCD0245C
3DBA8340
BD8CCDBD
BC11B2EE
BCEC28C4
3D3E9BA1
3D7E616B
BD8A2710
BC2D3FEF
3D380CAE
3D8C83B7
BCA44AD5
BD26A427
3AE91232
3D8D840B
BB4D69B0
3D7F4578
3D809658
BDA0996D
BC8F484B
BD869D0B
3D8E9C98
BD9D5630
BD348746
BDC5CC1E
BC4588C4
BD23557D
BD740C3D
BD692E9D
BD61C945
3D8146C9
3D3DF221
BD0EE573
BC41FA9D
3CA922C7
BDB612FB
3D7D60EB
3CFB067F
3DBA5EF0
BD988E19
BD06FCBE
3DAE26B7
3CF5CF3E
BBE4DED0
BBB12DD9
BDA2205A
3CDAE80C
BD147050
BD56F240
3C9A1A2B
BD344EE1
3D9108AC
BD2B4855
BD35A96D
BCD4525B
BD7EBC48
BD32EC6B
BD2E25BA
BD5388F7
3D4E7078
BD85FBF2
BCCE4484
3D8502C5
BCAAB98F
BD39B9EC
BCA5882A
3D422D0C
BD27E666
BD987C99
3C876511
3D9A8E1F
BD13E964
3D95B8C7
BC08EE26
3DA4A0C0
3D931170
3CC2A193
BDB766B4
BD5933AF
BA9A381B
BD870084
BD5D9D4E
3C2262BB
BB4B1588
3D53B395
BCD3E186
3D44B801
3D3B4D31
BDA72AC5
3C51D509
3D5A97CE
3D95B679
BBED9E91
BC2D1F98
BCF51B6A
3C34CFCD
3D73150A
3D8DA93F
BDB5A0A0
BD9B7DC3
3D3D44FD
3CBBF73C
3D142934
3D42B3E4
BDA48E9D
3DB3C7F7
3D8A2B6D
3D0E3504
BD920F07
BDBBFF20
BDB9FE14
3CCC9ACC
BC2B6A2D
BC0CD630
3D65F78D
BC74B53A
BD9F2C6B
3D89007A
3C3C5452
3DABAE4B
3CC8DDC1
3AE62957
3D814F0A
BD09BAB2
BD30A817
BCC242BC
3D389818
3D968F06
BD095B2F
3D8678D6
BDBC2E72
BDA91884
3D8F2009
BDB5FEB4
3D4772BC
BC9C08B4
BCEAE94A
3DBC5607
BDB2651A
BD24779B
3BA79625
BDB65B99
BC59DD38
3D72DD8A
BBC8D27F
3DA73911
BCC2A246
3D08248F
BD98F659
3D1BF70A
3C1A4C6B
BD88AB9B
BDAAA136
BC5BA09C
3BB5B22E
BC11886E
3D34C68B
3B947342
BDA9D13D
BC8E2B88
BD12B704
BD141458
3B539F31
3DB160CA
BD245FD4
BCF0FA36
BDB8D7AF
BD737C11
3CB25002
3D0D7613
BD361376
3D8FC9C9
3D1933AE
3DB0F90A
BD9452A5
3D4C15DF
3DD5DDEF
3DA5951F
BD9004D5
3C3973A5
BD2C47DF
3D616D48
BD7724BE
BB18750D
3D515423
3CAD1AB7
BD67515D
3C510993
3D82E9D5
3C91F6DC
3CE51BFF
BB64F017
BD669F02
BCFF9EAC
3DA6FE28
3D21ACA6
BD99CE24
BDA8CD40
BDBBF284
3D6B56D0
3DA83E26
BD175783
BCF35909
BCEE0812
3D0728CE
3D4583E9
BD9C2034
BABDE8C5
BDAE4B29
BD6D9354
3D8B8E37
BD75F482
BC8A278D
BCE958FD
3D9442ED
BD803848
3D5CB9BA
3C8FB2D4
BDE71521
3D81354D
BD773AA0
BD3D71CE
BD9DD4D8
3D1DE5A4
3C2A975F
BDB9B696
3C07F20C
3C49A489
BD985274
3DB9E72C
BCCA3F36
3D75FB36
3D59DDAA
3D206479
BC953E2B
BD1DC5D4
3DD7A4D6
3D4E83C7
BCEC894D
3D7D0895
BD208831
3DABEFBE
3D2DC706
BDAD957E
3D9C8B16
BD9D3B82
BD0F9CA9
BBD30C68
BCC15B3A
BCD339D1
BD1BC8F0
BD82AA32
BD5DBBA0
3D44A50E
3D12AE4C
BD253922
BCD5543E
BDC677A5
3D7D55B0
BD32C0F3
BD8FCC3D
BDB471BA
BC8CF636
BB7F8190
BD1A0735
3CA2E59E
3DB84EAF
3D13E19C
3D0FBB7B
3D562EEF
3D90A645
BD3DD9A1
3D8A6230
3D437BD5
BD45F313
BB2DC8E6
3D0363BD
BC23103A
BD176329
BD97194E
BCFE9F80
BD23BE92
BDA89D21
BD881AEE
3D937ECB
3CB967F8
3D245AE2
3D42616A
BC25AF7D
BD9E5657
3C4F4A04
3DAC1563
BD03B311
3D8C35CE
BD1142AF
3D3AD9DF
3D9C17FA
3CFE3462
BD374B54
BD7AD9DD
BCCDC245
3C34D4B0
3DC01555
BD64B2C2
3D8B1FB4
3DA2D7E3
BD196E36
BD8507E3
BDBC2E56
3D0E3E1F
3D9ACF8E
3DAA2627
BCCCAF19
BDA78A4C
3D3733A7
BCF6B120
3D8424A9
3D8E7E8C
3D68F296
BCCA4423
BD8A9881
BC035809
BC1DD2C7
3DB894F4
BD9E319D
3D8CE066
BDA6F4BE
3D96F452
BD917B3E
BD4B8A0C
3DA10825
3B65E584
BD96E8D4
3D74BB1C
3D86EE40
3D9BF554
3D04F10D
3D499A05
BCD8602F
3B9A49FD
BD9BE35B
3D4D4A02
BBC2969B
3C88E5DF
BC6A6F43
BDAF3B84
BD65AFFF
3D17481D
BD94747B
BB0516B3
3CA5EBF7
BD0C5C42
BD444825
3C8D30F7
BD99EA2B
3D07A678
3D95FD70
3DA8C15D
BB5347FF
BC7A1CBB
3C4149ED
BCED5805
3D672A52
BD3F4211
BC6B9DF0
3CA562FF
3CBE0332
BD9AACA3
BDAC1D6C
BDAF0DFF
3CE1A9D5
3D273345
BDB5A9A7
39E641DB
BC30763C
BCA038A1
BDABC67E
3DB60764
BA935AE2
BD9564E2
BD8FDADC
3DD37D65
3D9AA7AE
3DB91F5D
BD45F37D
BDB214B2
BDC0024E
BDA520AC
BD95FC6C
3CAA6EBC
BDB2EC05
BD27BAE8
3D623328
3D104512
BDA40821
BCBB410C
3D798CC7
BD970803
BD563750
3BA4D479
BC166008
3D87DD6D
BDA6BDF2
3D39A232
BD2DE93E
3CCF8761
3D278196
BD899620
3D07166C
BD7F08D6
3D81EAF1
3D090C6C
BD729BB0
BD50242E
BD93C207
BB854AAA
3DBA1ED8
BD8EE6FA
3D96E535
3D092F9B
3D97797B
3C0C6726
BCF12D1F
BB8E250E
BD93FEB1
BD9196A6
3DA28964
3D3313CD
BD5B8AAD
BD5E4841
3C647AF7
BD928C35
3C52EB42
3C83D460
BD642CFD
BDA32CE9
BDBA7DCE
BD06AD02
BDB1E7C5
3D26B8B3
3C04610A
3C078E30
BB46A94F
BD04BEC5
BD37F335
BD0925C9
BD98495D
BC664916
3DB9F416
3C960013
BD4DA945
3D8987D4
BD9287F0
3C78BBE9
3D62E29E
3C230833
BD1DA6A7
3D1DC1C2
3DAF0C45
3A51F4F0
BBDF27DE
3D3B5E38
3C12AA23
3C275612
3DD5D5DD
3CEB25CD
3D08BCFA
3D468511
3C5C345B
BD3DB1F0
BD949A75
3D4FB902
BD290B92
3D9DE891
3B6C36E6
BD83771F
BD975C4A
3D292E1B
3C4937A2
3CD4FEB2
3DBA1501
BC26657D
3CDBCF37
3BBDA004
3D84A5B3
3DA64042
3D482BF4
BD441CF5
3D310267
BD907B4D
3D997034
BBF319A8
3D0597C7
3D5686C9
3DA7BFAF
BD43E4D0
BDCEA870
3C856A89
BD2B97F0
3DA52F50
BD7A1368
3DBCCE3A
3D65CD79
3D3A8276
3CE0EEE9
3BC09C75
BD16DF4B
BB050E16
BC7F2C42
BC2C897B
BC26FEF7
BCCA7313
3C07B446
BD2B1AE8
3CA9FEB0
3DB8AE72
BC0D9FA6
BD1F6AC1
3D766550
3C83E4EB
BCA1E954
3D8BB7C0
BD8B22DC
BCECBF40
BD060802
BD66A208
BDA52BAE
3D56C51E
BDA5A5FB
BCCE0D64
3C9772D4
3CFF7991
3CD2BBD4
3D67B98F
3C855F54
3C4F956C
BD9725BC
BC9963D4
BD80D7B8
BD547E55
3D9E53EE
BD1FCE40
3D7CD065
3DA86740
3D7644D6
BD1C7CC3
BD0BFBBC
3DA41A3A
3D3D1DEF
B99FD1BD
3CBA3078
3C98D08C
3DB39910
BABC1C7A
BCAFB7D7
3D3869D8
BCE3526F
3D803272
3CAF8746
3BA02E59
BDB28D95
BD1F8097
3ABD9999
3BEFF974
BBD16180
BD375F44
BDB914F9
BD345C94
3DAB520B
3D7CE862
3DA2EBDF
BD5129F7
BD614713
3DB354C0
3DAE8AF0
3CD333D0
BD93D1D1
BA5E9C27
3D5B926C
BD9E6086
3D99EDA0
3D0DEB49
3D5F469B
3D0EAEFF
3CD81E04
BC87D973
3D958826
BD9CA8DD
BD4FCCA9
3D426B68
3D40A9C1
BD1F17BD
3D702F36
3CE610B3
3AD4C7C8
BCD76E9A
BB7F7572
3C5F835F
BD665521
BD9479C2
3C27ABEB
3D88724A
3D1318FB
3BB9C50D
BD881290
BD573031
3CEA5504
3B8F1F19
3DB11733
3D0775DD
BCDB6BE8
BD6B8319
BCE85ABA
3CC4F752
BD7D4C1A
BD0AF24A
BD263D1A
BD2D921E
BC6103D7
3D6EC1E4
BD04D9E4
3D641F4A
3D374BB8
BBF633B0
BD5261D0
3C6F1569
BDBCCB26
3D9C71F3
BCC9363E
BDA26209
BA6A7E01
3DAF8924
3DA38BBF
3D20D47B
BC096A17
3D09882B
3B2AB769
3D76053B
3D3ECE06
3DBA1E57
3D7D839C
BCF5A665
BC10ABDC
3CC4E4A8
BC5E85B3
BD826219
BB26FA1D
3D89440E
3DB4A9A9
3C1AD4AC
BD6B70C7
3D988F57
3D72D735
3D286313
3CBE06F5
BCD5A641
3D9BC7EE
BCB51745
BD9743CD
3D8C3296
BD0D56DE
3C2C014B
3B68314F
BD2A95DF
3D40FDA0
BC958A4D
BD831324
3AD34031
BD3AF035
BDB73918
3C856935
3D611599
3D50FC63
BCA11365
BC6926DD
BD4E5A9E
BCDABEB0
3D870191
3D94DA83
3DA8FFF0
394D654F
BAFC9559
BD97E81F
3C44AA8A
BD851ED2
BD0FB500
3C8476F9
BC23A403
3D817E97
3D26975D
BC41DEBD
BCC33E4B
BD76C3DC
BCB0AA06
3D994112
BC70EA01
BC808A4D
3D7F2043
BD1F5426
3D128003
3B5B3418
3DA818C1
BDAFE9A8
BD5EF7D9
BDA6B93A
BD2398EF
3D42FCD8
BD8B3FD6
3D2205F6
BC962AD7
BD092A5C
3DA46965
BD03421E
BDB4856D
3CF3EA8F
3CD74998
BD585E83
BDADB7CB
3C4011FD
3CFC39AE
BC691491
BD25A75C
BCAFD73F
3C6A675D
3D993632
3D500594
BC88776D
3D3514A7
3DAC3FB3
3DB8B5F5
3DA0E104
BCC6876A
BD52BFA3
3D82F4FF
BDB52978
BD36F109
BDB080F8
BDB7C8B3
3D6E1433
3D8A61CF
3DBA60E3
BDB6EA9D
3D96DF6D
BDBC2F86
BCAE1636
3DB0900D
BD3BEF41
BC932601
3C87B573
BD97FC17
3DB27235
BCB447FC
BC7D55A9
3DA000A5
3CD58FF7
BD6CA357
3BAF9F39
3D0B74AA
3D107EA0
BC14B53F
BD9DCF4C
BD439151
3D722BA1
3D879E37
3D14D1A4
BCCBED93
BD02698F
BD4181CA
3D41AD55
BCB1B14A
BC9F404D
BD787AC5
3DB847AE
BD5C4CA1
3CCD1CFB
3D8E1135
3CB6A775
3D4971BB
BDB41C48
3C760070
3DB51E3F
3D79C69A
BBDFD7DB
BCBB754D
BC5F7E12
3CB4A1DD
3D2475F6
BD58205F
3C85399C
39D48662
BDAC4F1F
3D7234D8
3C4913C3
BCDD2810
BC854479
BD8783A2
BDB17E45
3C678B89
3CE95CAC
BD6690D3
B9C81A80
BC1F5B52
BD7A538B
BD85C23B
3D149010
BD5B4EED
BBF3C73F
3D8AC988
3D5FBEB7
BC8E351E
BD1B7B95
3CC15F9E
3D54464F
3C08A459
3D3DD344
3BDC62EC
BDB8C61E
BCE53B46
3D739D36
BC5BE4BF
3D459CE6
BD34FBF6
3DC17987
3D672727
3DB5D74A
3C8515EC
BCEE0162
3C9F2104
BDC20C4E
3D9459CD
3D8B7177
3D4A03B3
BDBC444B
BD7FD612
BD35E144
3D1FFA49
BD05C2FE
BD95DDF3
BDBAD1E2
BD741C64
3CF03299
BD5656C6
BD4EBBED
3D7C2EA0
3D1D67C9
BD1432C9
3DA427A4
BD561B16
3D91D449
3D1DA2C2
3CE69F54
3DBB2D6C
3D168AB5
BD1CBF3C
BC98F83A
3C34C92D
BC4C8951
BCD9E324
BCE4078B
BCF54A1D
BCEC4019
3D0838CB
BDADBACC
BD69C255
BD039BE4
BCBE222D
3CA6ADEA
BC4DB1BC
3AC06D03
BDB873BE
BD9D6DB8
BD8732F1
3DA34418
BD91A611
BCD41719
3C6C3193
BD11570E
BDBB0B84
BD8BDA70
3D6354CE
3D0620AA
3D9B8400
BD8A03D5
3D9D33B6
3D8DC899
3B3DC68F
BD33939A
3DB1A93C
3D8A7147
3C264629
3D56B00A
3D532F6C
BBA6A725
BD047E7F
BB2574B5
3DC976F1
BD7F898F
3D79E5F1
3C64C412
BC91DA13
BD84C266
BD3D3773
BBAC3DC2
3D1B5AF1
BC3A01F1
3C9F2235
3D3424E8
3D9D0ED6
BDA7690E
3D92F276
BD93AED5
3D486465
3D05BB2C
3B858E11
BC5D2F4E
3DB47615
BD999D33
BD88FCF6
3D8A377E
BD78F8FE
BAC700BF
BC8EC523
3C34174F
3D1545C3
3D96B161
380C2565
3BCEC929
3DBD8331
3D53416D
3C5CD3D7
BDAD2DD2
3D3F780D
B9BDA8AC
BD249D65
BD4EFC37
BCC27037
BD4D3AF1
BC092368
BC449EDE
3D1B91BE
BC0B8A50
BA6D7379
BDC10DEE
3C36F459
BD8605A7
3D76BA3B
3CDECA12
3C93537F
3D2E8D6F
3DBB4C96
3CA88927
3D735B63
BCCCF5FB
3B8AB624
BD6F9F09
BC34456B
3D09F643
3D90B239
3C9B8F98
BD707FCE
BDA383B4
3CCC363A
3D420F5E
BDAD6A4C
3C44CB54
BDA4AE0D
BC712CA8
3C3BFBA9
3DB782FF
BCA6FDF0
BD47D3F6
BD08FA1F
3C0CCE85
BD8F8819
3DBE1E68
3D2D6A7B
BDA20B46
3D7D18B6
BD9A4D64
BD93B087
3D75A8B5
3D3931BB
BD8CB630
3C11C1A4
BDAF07FC
3D74AFF1
BD405C64
BDA1E10B
3D57736C
BD34F4E5
BD4B950A
BDA70B54
BC12D337
3DB14971
BDA404DF
3D99385E
BDBBCD3E
3D14FC6D
BC98111C
3D8DCD5A
3A8DD2A8
BD02F5CE
3D845B81
3D78D2A4
BD84DDBB
BBD19F8C
BD758F2D
3C8C29E5
3C8B27DF
BDBE26C1
3D9A582D
BC983702
3C2E8B63
BD76552B
BD21A095
BD92E2BE
BD03DD60
BD68CD97
BDA0F39A
3D749C4C
3D0D0B77
BC8B8A64
BD29082B
BD2D36F4
3C71B0E7
3D830A52
BDA517AF
BD8A0C64
BC223DDA
BD31F505
3D807081
BDA6B51A
3D04DC3B
3C8D13E1
BC34FAE6
BD9C1B49
BDA06C2E
BCDED879
BA974CA6
3CF6E759
3DA109EB
3D92DA57
3D8E3777
BD9F0A1A
3CE04768
3C992293
3D8F55BD
BDA414D9
BD2675C1
3D2DA630
BD8D8F01
3B486EC6
BBFE6472
BC606F61
BD94F6D0
3CD81F07
BCD8D7EB
3D23BBA4
3CCC6DFB
3CAAF8E7
3C8E9000
3C03E89C
3D8EEB51
3C7A7052
BD9BB329
3A5E5D10
BCDED772
3D6869E8
BCAEC825
3D6BBB01
3D16E461
BD9C9DE9
BCE005A0
BD8F5E01
3D98A529
BBFCFB29
3B4441CF
3D7C41DF
3D09897E
3D204993
3D833CF0
BDA0242C
BC52EFC1
BD1EC900
BC32D566
3DB60731
3CDF3CE8
3DA6F6C7
BCD6227C
3D135432
3D148C8E
3C8C9D91
3D3D71A2
BDA5B4D6
BD9B81F2
BDA6B066
3D185922
BDA5A529
BD307AB2
3DB08970
3D33FB14
3D22CDFE
3CB63F1E
BD2C86CE
3C16C9B7
BDB557D2
3D8642CC
3D9F4CBD
BD8D421F
BD960219
3DB03B18
3DAA6DE3
3C5AAC63
BD1C5DE0
3C90E526
BD29477B
BD3BA5AE
BD4BA6F8
3D5FF237
BD9779E7
3B2D4CE0
BD932FB2
3D092C33
3CF2FABB
3D827BF7
BDA9D81F
3CC625F7
3C9B9D96
BD1DCE92
BDA2C507
3D5E2187
BD0D5CB6
3D75B790
3D7ABDC9
3D9E5559
BD279BBF
BD93EF01
BD815DAB
3D216C2F
3CF88E94
3C69600C
BBBCB55C
3BD5B5DA
3B547BD3
3C4A9A4E
3DA44D4B
BC2C592E
BD95CBAC
BD864D17
BD8E2873
3D5BF9AE
3DA8937A
3D0CCC50
BBF34749
BDA8C798
3D46EE3C
BC8B9DD3
BC694B5C
BBC1C08D
BC658D80
BC9EC45F
BD2B73A8
BBC81B18
3DB0D95F
399F11BD
BB427346
BA8EE6AC
3D5FCBCE
BD19F90B
3DAE573C
BD20CABE
BD0D295C
3CF90089
BDA63813
3D3FEA06
3D5EAEB6
3B9B4E38
3D1E975E
3D21EB93
BC4E338F
3CA2B254
3C83BE7D
3D38ABC5
3C54CF03
3C00890B
3D97268F
BD8EA972
3DA6159E
3CFE8455
3C9B5EB9
3D977CA9
BD0147F4
BD25F2E2
3D3030CC
3CD7949C
BDA35EA5
3A67EBC0
3DB76D85
3DAA63BD
3D94E524
39A6155A
3C2A5B1E
BD865F79
BC8DDEDF
BD8175ED
3D3EB76D
BD8BEDC0
3C845BA1
3AF25561
3C8FF87F
BC9E150A
3DB16942
3C5903A1
3DB798BE
3C8A6699
BDB20AE1
BCBE4323
3DACF91D
BD1FDAA7
BDAEB9B2
3D17A543
3CE56EEC
BC8B725B
B9A73BC1
BD850E57
BD0F5515
3D12DD51
BD3454D2
BD4039DB
3D60C62F
3D5969DB
BDAC6926
BD4B41EA
3D1DB376
3B9106DD
BD328CF0
3D9FDD1B
3C6C06B3
3C74EC3A
3CF193A3
BDA10046
BC5723AE
3D847C04
3D4ABE3C
3DA365C8
BDAEB738
3CB19ECD
BDA55DB5
3D7EE41E
3B772C52
3CD04ECC
BD1C183B
BDAF6FB1
BD0E2BFA
BD87802F
BD68CBB4
BCE0A46C
BDA0651E
3D62898F
BC77928A
3CBC03B6
BB4C3032
3DBB050A
3CD59A73
3D6C2DA2
3D4B3B59
BD2C78BE
BCC30DFB
3BC36315
BD4AD0CD
BD0A00F6
3D60B04F
BD070FC3
3D2573A8
BBD888D1
3CFA9DBA
BCCBBF4C
3D9DE736
BD65121D
BD26FDE5
BB7B289D
3C2E280A
3CB40976
3D83D67A
3C8FE840
BBFFFF96
BDA2CE5B
3D0A409D
3D338347
3D8B4E43
BDADBA6C
BD938D1A
3CFC9F01
3D9DE8F1
3D9B7382
3CED0BDA
3D4D09FF
BD0803B2
BD77EEA6
3D3F3505
BDB0E13B
3D4182BA
BC98BD56
BD31346B
BD58C66F
3D24411D
BD2B6588
BD27E983
BD62F8F9
3D00DEC8
3C767DDC
BD2D8526
3CDB7298
BD94AF7A
3DAFE70F
BD24D57B
3CE75F61
3DAF09C5
3D8C59C0
BDB85EF7
BDAC30DF
3D831B3E
3DB94D11
BD0608F1
BDABA664
BD25D7F7
BCA4FB6D
3CD85A97
3C4A8794
BA0DF83D
3DAB9727
3D9D23FA
3CACBE8C
BD5885DD
3D901508
BD30CBBE
BC0A9AA7
BD78E715
3CCF3682
3D203467
3D4CDC5B
BD964992
BD3FECAC
3D54513D
3D1C532D
BC2D91E8
BD8DDCD1
3BFC7788
BD16E4A9
3D9334EC
BC921B90
3D9FD7B2
3C7D2922
3C1E6AFE
3D53AEBD
3DB5B396
BDB1601F
BD574274
BCE8B852
BD874770
3D49E646
3CE42A56
3D026442
BB1B8E90
BD785E0D
BD8BEDFD
BD5ED8C2
BD78B7FE
BD202B24
BDA13C66
3DA61CA0
BD9818EE
BBAD86F5
3D83EE63
BC2B3720
3CB9BBD9
BDB62D3A
BD785305
3D4E0EB0
3B56326C
BC043523
BDA654A4
BCCE36E6
BCE6C744
BC592B8C
3D8AE5FA
3B494EA9
BD2B6613
3DACAA96
BC55CD95
3C5989D4
BABDE798
3CE7780D
BDA1F24D
BC393678
3D9E1E31
BD521ECD
3D7C96D7
BD4F7CF3
BA6234C3
BD20046F
BD25D1B9
BD879A2F
3D8B1C27
3D066A72
BD5A2878
3D69C192
BDB5BD6B
3C491780
3CF47725
BD1C96F8
3CAB932F
3D09E7C5
BCF4A3D9
3D0A1965
BD8FA05D
BDBED23F
BD001691
BDAF6E82
BD93A80A
BD887C62
3D190F0D
3D3AEA4E
BCDE93E9
3D4917F6
BBB9FF5B
3CDD88EE
BD21C5CB
BD951AB2
BD8ADAF7
3D9CC0CB
3D919163
3D2C2C63
3D969DE3
BD524F20
3D54E336
BDB8D948
3D7984C4
3D8DF0FE
BD072C50
BD168B1C
BD7AA78A
BC016E62
3DB57324
BD533CD7
39A65EFB
3CDECE4F
3DB72F8A
3D7635D9
3CE49471
3D34D90D
3D860812
BCB08216
3CFD6EC3
3D50E9CB
3BEB2E1E
3D525921
BD4CEFAA
BD9E3EA3
BDAA1B40
3D873536
3D5EBD06
BDA9E53D
BD065FD0
BD239167
BD9250EC
BD9B21F5
3D274D66
BDA08F6E
3CA3D662
BC1BBBD0
BCCA79D9
BB453F3D
BD02E014
3D7CFCCD
3CD9B5AA
BD58C38A
3DAA713F
3C8B34DA
3D9089F5
BD1ECC31
BCFC4079
3D9770CB
3D8E4A0A
3CEC16BC
3D820EC3
3A7B83C6
BD8EC0A1
BD1E1B97
3DA1AAC2
BD64FE68
3DB36635
3CEC9C07
BCFD719B
BC091F05
BD3BB39B
3CEC992D
3D8B0B8F
BD8236E5
3D930361
BD851B10
3CC77686
3DA0406D
3D6E858B
BD8D600F
3C9A89CE
3C045909
3DA1FAF7
BDAD8469
BC72179D
3DA63750
3D81A1F7
BD9F308E
BC7F57C4
3DA2F084
BADB3F53
3D3050E1
BAF1509A
3D5B0CFF
3C963818
3D83A6BB
3DAB5A96
BD6EFBB8
BD1D7ACF
BD7D2CA7
BD979303
BC168641
3D22C031
3D6C098C
3D90177E
BC0ABFF7
BD83AF70
3DADB732
BD34A754
BCF0B689
3CDD3BD4
3CFAFBBA
3CE77B7B
3D0A8CF9
BC958C54
BD6F8D0C
3CB3439D
BD4E3F6D
3CA19915
3BA74F2E
3D0C761B
3D884AA0
BDB09729
BD6C5E3F
BCED78F3
3D57CC99
BCA1A648
3D1A6C4F
3D178CF1
BD68B7BF
BD950BBC
BC1467AD
3DB6E425
BD050448
3DA78619
3D20A4C6
3D9FC761
BD7BB918
3DAA25A4
BD5B4FCE
BD8C6E7F
BBE0F4D6
BD72353B
3C5883AB
3DBD9307
BD86747D
BC9255C8
BD08EA21
3DA909C2
BD02856D
BCD12BD2
BD9BD7F9
BD760E50
3DB733C6
BD741F8A
BDB3C819
3C9B7BA7
3D4051FD
BDB1B68C
BD6A6E9A
3D21EAB7
3D609A99
3C66989B
BD4198E1
BCB9566E
3DA269A3
3AD25212
BDAD36C4
BDB2A97D
3B2F00E2
3D8D2DC9
BD2C27F3
BCD04F06
BD0D4F3F
BD4A1ADD
3C56D129
3C87998F
3DA7B1CF
3CA6AE49
3C2FFB01
3DB45BB2
3C57C47C
3C705A03
3D1FE1A0
3D41A39C
BD8DA404
3D96B037
3C0B71D7
BD5BFAE0
3D537650
3D2E82A9
3C5382C7
3DB2D4C6
BD809976
3D244F80
BD7D27A9
3B9EF08A
BD61F539
3D1F5558
BBB238FE
BD761431
BDA0DCDE
BCFEEBF3
3D17C5A9
3CB51A18
BD8F6337
BC4BDFEB
BC9613F0
BDAE9430
BDB22CE3
BC54CF42
3D462844
3D84877C
3BA77826
3D5E31C3
BCBE3E7E
3B909AF6
BB64E952
BD877FFF
BDAE1FEC
3CD59162
3DB8B739
BCCC6E24
BD485B10
BD7CC670
BC77F4A9
BD00965B
3D60BFF1
BD9DB13A
3D3411D3
3D80A45A
BDA3E5E1
3D193737
BCCBC539
BBD6E75A
3D048BB8
BCBA69BD
3D841BC5
BD0DBFBD
3DB89B55
BC841CCC
BDAB9B1E
3C06BE6B
3D76AFAC
3D1F648A
BD4C373F
3DA17303
BD739F05
BDA5B451
BD94AA16
BCFDFADB
BD4A150F
3D32702C
BD3C35BD
BCF409EE
BD8ACD24
BCCEF1F6
BC289A3D
BCCAF1EA
BD2B7A12
BDA179DF
3CB5CEF4
BDA80B8D
3D392417
BDAAA556
BD1B5496
BD10358C
3D25A618
3DBDE45F
BD8752CA
3C946DCE
3D66C391
3CCD105F
BD3DB62E
3DA493DB
BC934EDA
BD9A7C10
3D738D4F
BD6F6F74
3DA855B0
3D9CE04D
BD9CE26E
3CB3BC34
3D4A4342
BD86CC52
BCC21E52
BCCC8921
BCCEBE73
3D049625
3D9F5302
BB514B8F
BD9A1441
BDA0E594
3DA3E5F7
BC773742
BC42E550
3D891814
BA4B5294
BDADAC09
BD534306
3D2C6E93
BB9BE7F4
3DAAE14A
3D999A28
BD802CE6
3BCF637A
BDB1CF12
BDADA925
BD68B546
BD705D44
BBADCDDF
3D1A0A75
BD0D4A39
BDAA7B1B
BD497393
BBE511D2
BD9A0A62
3D7D914E
3C391D2B
BDB4A854
BC1D6C5C
3CAC2A35
BD466FDE
BDB5ECDE
3D641918
3D23E413
BA58E7B6
3D5307AE
3D068624
BDA29964
BD5756D1
3DBD7367
3D70DC22
3D619CC3
BC5F048E
3C34505E
BD7EF309
3D8F45FA
3C9CB4A4
3D1CE4A0
3D29F2A0
3D85C234
3D1124B4
3D858AB7
3C3D3B64
3CA1F95B
3DB6FA59
BCC1912E
BCCBE7EF
3B347BB1
BC9767C7
BC457B95
BD9A3A82
3DABBD87
3DAE6CA9
BDB51908
BD5F0E20
BDB0F7E1
3CF3741F
BD96CD0A
BD594146
3D73D0AF
3D9F4B30
BD16F24B
BDA60CFA
3D5C3DA3
3CB1F81B
3C6A38AB
3DACCC0B
3D27CC59
3D2D3C3D
3DAA83C2
BC62FCEA
3C53603E
BD9AB7E4
3D3B9881
3BCA6E93
3C28DD95
BDAC0582
BD17A00D
3C858114
3D318C9B
BD7CEFAC
BA52E03E
3D25C62C
BDBB4B64
3C50803C
BDAF86E8
BD9386E2
BD91D525
3D31EF56
BC270885
3CC5FFA9
BD4C4A76
BCE28D9D
3D9D8818
3D573FA9
BDBA50D3
3BF1AF6C
BDA62DE9
BD356727
3D86CE55
BD15A0D9
BB44BE13
3D7D21E2
3D53BD41
3D076FEC
BD5E5608
3CEEB06D
3C667059
3C7B2572
BC6C4F79
3D1FE5BF
BC83C1FB
3D912FB2
BD2B9062
BD8CEE5A
BC18A466
3DB6F901
3B49CBCB
3DB02C99
3D6B7B5E
3D6138E2
BC5A313D
BCD560D4
3CE825A1
3DADC085
BC57CC36
BC3176BB
3DBA66E1
3DA87D84
3D052B79
3D93A609
BDA6D40C
BD268B93
3C194889
BD32696E
BD7591FF
BD48BA53
3D598258
3D2A1AA7
BD2FEFCF
BD8255F2
BD907A48
BD736E26
3DAFFFC3
BD71FB99
BB621FA0
BB26E913
BC78F35D
BD6BE96B
3D0730CC
BDBA9DB9
BD6AF265
BD6364EB
BD9B86D2
3D70EB00
3D896AC2
3B07AEE4
BBD71877
3D893862
3C8B36A0
3CB64BE4
BBC6A64D
3C3B1079
3D00D4D4
BCDF2388
BDC2FEAB
3CAF94C8
3DBB3778
BD2ACC21
BDBEF3F0
3D4C9DAA
BDCF8DF9
BDB640B9
3CAB6E3F
3D2E984C
BCA13248
3D901857
3B967D4D
BBD36E78
3DB44A17
3C2DDF2D
BD6E36A6
3D880DAC
3BFB5E84
BDB638EC
BB233736
BD629595
3D94326C
BD88E1B5
3D28F98D
BDAD4568
3DB30033
3D55F150
BD87DE30
3D4D5A4A
BD83B253
3C25C14F
3D8B5133
3DA89AA9
BD97430F
BCE3423F
3DB1F068
BB9822DC
3D6BAB82
3D8B197D
BDB4752D
3D3A6CF1
BD9A17C8
3D52C920
BC002AF6
3C49DCB0
BD310161
3D5BCD88
3D79670F
BD11A70A
BD465A48
BC868896
BB9112C9
BBBD1E96
BC3569D5
BC05FADF
3BF3427E
3DBCBB2D
3D398867
BB12F870
3D2161FF
3DAD7DD4
3DACF636
3D81793E
3CC4D609
3D923C00
BD328D3E
BD99900E
3D8B1E85
3CCCD2CC
3D45C73F
3D93A850
BD6522AD
3CDE2E88
3D01D160
3D3779C6
BC38BF0D
3CBFD285
3D5C98AC
BDA7257B
3D4AB03A
3D5BD646
BDAC8C48
BDB40B30
BCBB6D5E
3D683613
3DB00B2A
BC01788A
3D795279
BD6976B8
3D2C5068
BD5A9AA0
3D7FF580
3BCF5291
BD0B32C0
3D24C47C
3B53A74F
BDB9F82E
3D3EBDA5
BD83C52F
3DB45E10
3C6C7861
3D90D55A
3D190975
BC8CAB9C
3D896529
3CA728CC
BD1C7D1F
BDB70377
BBE777F6
3D0AB754
3CC6C55C
3DA796BC
BDAE143D
3DA7C08C
3DA3D4FD
3C98063B
3D88EEA7
BDBC531A
BCFC07F0
BD2ECAD4
BD3EE9F3
3CF7F491
3D9C910B
BC9BD335
BD06FDE1
3D4E6E4B
BD783F31
