037
0D0
0C0
3C4
0A3
3CB
01D
009
0E1
3EF
2EE
0DD
00E
01C
3A8
33C
02E
08B
3D7
03A
0D6
062
3F3
3E8
00C
37A
12D
087
04D
3E6
3AE
396
0E0
39D
375
054
05F
0C6
359
3C9
3FD
024
3BA
342
03C
0CA
3BD
063
306
023
08C
0B9
3E2
06E
32E
0A8
01C
046
014
018
3A8
016
03A
03B
33F
04D
3ED
3A7
0E4
02E
39D
3B9
004
33F
3B8
020
011
092
345
341
3A7
125
3B2
36D
038
025
10D
3E1
089
093
3F1
39D
01A
385
030
073
0CD
3D2
3E4
05C
38A
0A3
307
071
330
016
366
36E
373
061
038
068
0D1
383
387
047
384
36A
347
044
05A
31E
38D
030
070
027
3CE
3B6
38B
3D7
028
046
3EE
009
396
3E2
0DD
3DC
3A8
317
329
35A
2EB
065
314
05F
387
075
3AC
009
0CD
0AD
033
0A7
003
063
3F5
05E
2F7
018
391
38C
3E7
363
3F4
0CE
0A9
3E7
3AC
3E1
37C
3BD
020
31E
023
0E1
09E
0EB
36D
09C
310
31A
372
037
0DD
379
3E7
0EB
054
0BD
01A
017
00E
013
38E
063
3AD
3D0
01E
3FE
050
010
01E
0E7
01D
078
374
399
049
359
3D1
093
044
3E7
3F0
3AC
035
09D
331
388
073
025
380
340
395
041
064
04D
0BD
012
353
3D2
34E
303
3C8
3CA
04E
046
3D5
06B
3E1
3C8
319
3F2
3CF
3FC
018
06C
380
01B
0A4
3FC
0BD
057
3A1
028
3B7
030
3E3
033
00D
37E
022
068
051
02A
0D2
378
3BD
056
0EB
3E2
3AC
3A7
3AC
3D9
01D
30F
018
32E
076
3EC
361
3D0
01E
028
356
00A
3F9
3CE
374
3D1
03B
033
055
2E2
379
3CD
0C5
359
349
31E
087
374
069
055
328
349
052
2F5
364
05F
035
099
388
3E3
00A
020
107
075
076
3FB
3EA
028
3DB
0EF
09A
3C5
048
3CA
11C
3B9
03D
3DD
3D2
3A9
3DA
387
047
02D
3D8
06D
398
3B3
057
020
3FB
3FC
30B
099
0BB
09E
0A9
0F9
3DA
339
0F8
39A
0D8
0C7
0A8
39D
0B3
3EE
072
055
038
0BD
05B
3C7
016
090
0E8
351
041
350
110
3E3
00C
3EA
077
0CF
028
3DD
333
0DF
387
025
3E0
002
094
01E
393
383
33F
3C7
00E
000
033
08A
079
0DA
3C7
349
3FC
315
3D3
3D7
038
398
3D7
3EF
053
3F0
050
2F1
3F9
089
3AA
110
361
05A
035
3B0
009
2FD
071
03B
060
3A4
3A2
07E
00B
012
0AC
051
053
3D1
3C7
360
067
022
028
012
3AC
3C4
000
3FA
3CB
0B9
075
346
36B
3E4
08C
034
010
3BA
3BE
3CA
382
397
021
37D
3B8
0D3
0D4
011
3BB
02C
36B
0E4
02D
3B4
048
007
385
36D
3E3
3BD
029
35E
078
320
36F
08D
078
352
39A
3D7
0A8
302
023
030
3CB
3D1
05E
396
3BB
3E9
03C
35A
05C
002
334
3E5
359
38C
3FD
3CB
3DD
3F7
06E
045
098
06E
3FD
066
2F1
024
04D
044
3AE
3CC
3AF
3F8
04C
049
397
066
051
391
03A
3C4
3E1
104
00E
041
3F2
3DE
3EE
0D7
010
050
3E8
37F
3CA
05E
3EE
392
3D3
016
3DC
3D2
036
3DB
09E
3FD
3E4
03B
3D1
0DE
041
330
05B
055
035
023
34B
040
325
0A6
003
017
065
02F
00E
01C
00D
386
099
3AB
2E3
343
37B
08E
0BD
09E
090
3BD
012
3EB
33C
090
3F4
075
0D1
02E
027
071
33C
3E8
359
38D
02D
3F2
064
3CF
01A
3CC
3B6
070
3D9
080
3CD
064
3FF
00D
089
048
019
067
390
395
109
3EA
3C1
3FC
04E
332
3E2
3DE
098
34B
00C
010
0CD
050
3FC
3C2
384
0FB
3FA
0B1
3A6
00E
3EE
102
399
3FC
003
3AD
3A1
37A
10F
0A5
3DD
05A
3D8
3ED
314
3D7
3FA
3F6
009
05E
376
106
39B
103
07E
3F6
069
074
353
3FD
364
3C9
07F
130
0D9
069
013
04C
384
335
017
3DF
08E
032
0DD
03D
018
378
3CA
072
03A
33E
3E2
015
3F8
05D
066
3BC
37C
3EF
0A5
016
379
099
027
04A
033
3B5
328
2FC
05C
014
3B9
0CC
3BF
0D5
3EE
098
007
074
33F
3C5
0C2
3BA
392
060
3D6
3B1
384
018
3A0
017
06D
3D1
06A
00B
393
2FC
006
0AB
07B
03E
01A
3B3
3BF
06E
00B
39C
060
0EC
3C8
3BE
037
0E6
005
086
320
35E
13B
090
0B1
356
09E
38A
3D5
3B6
37A
3FF
0CA
3DE
0FB
3AA
038
3FA
396
3B1
315
3DD
3BA
3C0
062
387
3E3
025
048
058
3D7
3ED
3B5
3F5
09C
070
0EA
018
008
388
051
034
0F3
09D
003
395
3DF
096
06F
3EC
39E
3E7
03E
026
373
39C
0BC
09A
006
057
345
076
399
3BC
372
004
04C
3E0
058
004
3E6
017
382
381
355
365
02C
394
0B8
317
3D3
001
091
0EF
389
397
3A5
3A8
031
044
3D1
3B7
05D
05F
015
38D
01D
07C
357
003
02D
3B7
085
3A2
391
34B
047
394
3E5
3F0
06A
397
3ED
017
05E
0C5
364
06D
0A5
02A
3EB
026
062
103
059
001
3B3
3E7
046
021
074
048
044
3FF
3F2
024
04A
31A
035
335
38F
376
35F
01F
3DA
3D9
3EF
3E3
0B9
0D7
3F0
07D
020
085
048
08B
086
3B0
077
3FA
3B7
016
031
0A5
049
3E0
3D4
10E
3D3
3BB
338
056
3FC
028
05C
04A
02E
05B
3EC
3AD
3F2
39D
01A
0CB
0BC
370
33C
3CA
3B8
0A0
001
359
39A
3E9
3F9
073
3A7
06B
335
3D0
339
2EB
3DB
38A
373
10E
390
3CA
010
102
357
383
3C1
3E5
3B6
0BC
3BE
31B
059
041
3BF
353
08D
0BA
0EB
080
003
34C
3BF
035
3F3
3C0
036
0E9
3DA
080
05B
388
3F0
06C
01A
01E
08A
3D4
3D7
3B1
063
3D8
02C
388
092
061
028
031
35C
38C
057
3C4
3A1
3AF
067
392
03F
3DA
000
3F4
398
2FC
2F5
3BE
03B
04F
378
0C2
041
321
0FA
002
033
3E4
009
04A
00C
3D3
3C4
3CB
084
081
09B
041
0D2
033
06F
30A
01A
352
0FB
0DE
06E
00A
2EE
0BF
37E
0D7
3D9
028
098
068
0F2
39E
35A
02E
34C
0A2
05E
3C5
2FA
008
061
35F
3A3
08D
018
089
00A
00B
3E9
06E
061
2E2
033
0A2
067
133
3B9
0E0
070
3F1
373
029
02C
06F
046
072
126
3A9
3F8
0BC
394
042
3B7
058
3C0
3E1
08E
3B8
3C1
3DC
3BE
354
3AE
01D
3E8
0AF
362
3C9
03E
307
3AC
071
0E5
3C0
0CF
3E7
3F6
33B
3B6
01A
311
3CF
0DC
3F3
07D
090
3EB
348
037
0AF
3AE
367
01C
001
391
09B
025
3B1
07D
072
0BE
35D
305
36E
3D2
068
3F0
018
3E2
0E0
00B
0F4
394
095
06F
3EF
003
04F
04F
310
031
3A8
09C
392
025
3DC
075
067
360
3DA
013
382
073
334
09C
008
121
373
087
329
095
38E
3D8
3B4
355
049
369
005
03A
3A5
3DD
016
3FA
372
3CE
3F9
306
3CE
001
0E9
099
3C0
3CB
09D
00D
3D6
33F
337
036
354
327
0E4
3CC
38B
357
032
33E
3E9
009
0A6
35A
0F7
3F7
049
0B7
094
019
300
083
050
35A
362
091
001
031
0AB
3F2
3D5
378
2DF
3C9
02A
006
3E3
00B
3E8
34D
05A
02E
045
39F
3EF
026
006
0F4
3C7
3E0
3E9
02D
07C
375
367
024
332
08A
010
0A2
007
066
3A7
0A6
3C5
00D
043
3F4
396
3FD
039
2FF
31E
06B
072
3A5
381
023
3D7
3CE
3C9
3F6
024
0DC
073
004
3AA
32E
386
031
3BE
3B8
02A
33D
06D
332
065
342
054
3FE
04D
0DA
3FD
013
3AB
005
3BF
072
05B
0D4
3C2
0CA
377
0B7
07A
071
368
3FE
053
063
095
0B0
3A1
3D4
371
3AF
079
03D
3BA
0C1
33C
3CB
04B
3AB
3E7
3EC
37D
00A
3A8
001
07E
3E8
06C
3BA
3D1
3F0
31D
074
00B
0AF
3AB
063
3E9
086
081
3D1
37C
067
308
06A
026
0FE
04D
082
3DA
39E
0CB
3F4
0AB
016
0BB
0A9
008
3EA
0DB
067
353
044
37F
3B3
3CF
3B1
3A5
02B
057
3B3
3E0
37D
0AA
011
35F
05B
06E
09F
0A4
3DE
016
009
022
3C9
352
379
35A
04F
360
0B5
04F
3BA
3B4
3A4
01D
3EE
38D
096
324
333
3A3
381
3FA
347
0DF
3B0
03F
0CD
38C
104
3FC
06E
025
383
055
3AE
350
055
022
3AE
3EE
03A
3BE
3C2
3E4
02D
06F
387
03C
3E8
054
399
0ED
037
035
3A0
050
007
0C2
378
2F8
059
077
09C
02D
383
090
015
3D5
040
3BF
3D7
024
3C6
309
327
006
334
3C6
374
0D3
06B
3B0
0CC
0CB
070
3FE
020
3F0
07E
10E
381
3E3
056
327
3F7
083
0FD
04A
00C
058
0BB
016
044
342
3A5
3C7
036
053
081
36E
334
394
3FC
3C3
3DE
070
3F1
3CC
04C
36E
399
011
376
36E
026
33B
05C
02A
0EC
07C
3A8
337
02E
349
326
3D0
3A8
020
397
040
34E
306
396
0A9
329
05D
308
37B
38B
33D
3FB
0B5
038
059
344
057
01F
088
067
374
372
022
05A
04F
362
3F7
36B
35C
2F3
0A2
04C
092
3EA
3EB
043
372
39C
09D
3F1
2F7
3FC
058
068
04B
3C1
006
06C
018
09C
0C4
326
3FC
3EA
028
3D2
0D9
04B
070
385
3FE
0C3
3FA
39D
01D
000
38F
0C3
0D4
04C
383
00E
009
382
3FE
005
338
3F1
356
05A
00E
3E6
086
056
093
3F7
36C
3F9
3F1
0D5
0DB
3DC
019
375
00D
09C
070
3D0
04F
05C
35A
399
387
04E
3A7
010
006
3D1
08A
355
11C
368
03A
00D
353
05B
389
3FF
3BE
3A0
006
3C8
0BF
00E
3F3
03D
0BF
3B2
3F8
3A2
032
01A
0A5
03D
0D7
381
393
344
072
0FA
06F
3EB
0AD
372
01D
307
3F9
3D3
041
320
03A
011
056
032
3B8
326
063
06D
04F
035
3AE
050
3F6
30F
00B
3A3
37F
08A
2FF
0FD
02A
36A
391
0B2
029
3E4
31C
026
3A6
0C2
3BF
3F0
0F6
3AA
3E6
0C9
09A
0A1
0B5
3BA
0C1
320
00C
388
05F
090
043
3C3
05F
00D
3F7
061
355
083
38A
35D
37E
392
053
3C2
373
36D
11C
075
03D
3CB
3F3
06D
3DD
3A6
003
36D
394
3BF
30A
318
009
37C
3BA
38F
04A
3FF
0A0
3C5
3ED
04E
07F
02B
00A
397
0BC
3B0
0B2
308
001
2EF
017
3C6
38C
0F0
34B
316
01B
3CC
3BC
066
034
027
025
396
325
039
09B
056
3A4
033
3DE
006
35C
041
34A
3C8
032
35F
38E
016
3D8
041
32D
3E7
037
0A3
3AC
00A
00C
3E4
0AF
3CF
062
3D9
061
3AE
05E
0AB
00E
342
052
39C
3B5
3DD
3C7
0D6
3E8
39B
04F
39C
07C
051
04F
088
391
00F
379
38D
32C
0B7
0C4
043
028
388
3CC
3B3
36E
3D0
02F
3A5
0A3
38A
31D
099
369
0A5
3BE
386
00A
07D
066
3EB
3FF
02D
3D5
015
3B1
09B
08E
3A9
3AE
3A4
374
058
03A
316
051
377
33B
01B
03A
002
3E2
00B
031
074
359
05E
376
0BE
2F2
099
3CB
13F
3ED
0F6
026
371
04A
044
36D
3DA
3F8
0E5
2CF
059
078
059
08B
3A6
3DB
0AE
01A
05C
04A
35E
3AA
038
023
01B
0A6
395
08C
05C
2E6
3D0
029
3F4
085
38F
0F1
05F
351
3B5
05E
0C3
3C6
08C
3B5
05B
0F3
3A7
033
072
3B7
2FD
062
062
3C6
03A
0A6
063
3AF
07F
3DB
3BB
0B6
0E1
371
01A
0AC
07F
34D
293
011
3FE
033
03D
002
34E
0E5
01C
3E8
397
070
360
3EB
034
05A
0AC
3B3
12F
03B
3D7
0DD
3E1
019
37A
04E
386
3CE
02B
3F9
3B2
310
30D
044
0FD
2EA
364
3BF
33F
038
3C2
02A
3C6
3C3
01A
3FB
02D
3D4
00E
05C
009
048
31B
03C
310
010
37F
01A
056
0C4
3F3
048
3AB
3D4
031
010
3A3
359
05C
3FF
3E0
3A2
354
312
007
32C
36B
3EA
392
339
0F8
05C
3CC
367
06D
06D
3EE
3B3
345
093
3B9
078
05A
3EE
030
3A5
003
094
07A
393
300
0FC
037
35F
067
0F2
036
3D3
049
3B0
3DD
055
30D
013
3C7
34B
344
01D
071
3D8
3BE
391
0AF
0D3
361
3E9
063
387
314
3DF
30C
035
322
118
0EA
0E4
03D
028
35D
033
3F7
327
0AB
00E
032
075
0EF
3E8
362
320
083
0BA
3FD
3CD
002
0F1
31C
360
0B1
3EB
375
05C
3AB
3BD
3B3
00D
3FD
011
363
3CA
35F
033
3E3
3F9
390
065
318
03D
00D
363
2EB
3E2
389
39C
007
313
062
397
03B
05E
3D0
03E
3CA
017
04E
026
3C4
3E8
39C
387
09A
3A8
01C
3F1
0BB
09A
060
062
0AC
368
04E
098
08E
03F
34B
35A
3C2
039
341
354
3EC
0C9
035
3AC
3AB
053
3CA
3D7
00C
354
3A4
3B9
02F
33B
052
3FD
3B0
308
3E8
3B1
02F
33D
3CE
05E
3B0
3C6
043
3DC
2F4
0B5
04C
033
391
0A2
3DE
378
3E3
372
33F
336
33B
3D6
3EF
02E
3B7
016
08C
3BB
38E
3C2
080
0F2
38A
2FD
00C
3AB
367
3D7
397
063
2F1
01C
01D
059
39C
3BD
013
398
0AC
04F
3BD
302
026
3DE
0C3
3AA
3CE
372
3C9
072
020
00F
027
3D2
08E
01A
2F9
3BC
371
3AD
070
063
089
0A5
3F8
01E
3EB
3F2
30E
3CF
024
3AD
054
02D
0A7
0A8
35A
02E
367
018
02F
3EB
042
3F1
0A7
04A
3A4
35B
041
3F7
322
067
042
078
388
018
3DF
019
3E2
3A2
363
003
048
38F
38C
057
086
3C6
012
359
017
3C2
03B
030
382
3CF
3D1
3BA
373
070
0BA
3A8
393
00F
374
3AF
3FB
00B
3FD
0DD
3C9
3B0
34C
036
3DE
36D
071
34D
001
064
390
070
09A
090
0A6
391
079
355
37B
00D
008
0DF
0D1
3DE
31E
3B0
3B3
0B2
35E
077
3E8
3BA
0E2
3B2
3E5
3CC
370
04B
091
004
3C7
017
009
379
3FB
38D
098
37A
3D5
005
044
395
38F
0A1
02B
016
3C9
3FC
3DE
0C7
3FC
028
036
340
3B6
3FF
3B4
093
312
3A8
055
01F
376
088
062
36A
027
017
086
392
00E
043
356
014
041
3ED
04A
3BA
001
037
02B
300
34D
351
01C
025
075
0C6
030
02E
3B5
04F
3C7
34B
32C
054
01D
3EC
3EC
005
062
3F2
092
03E
022
3EA
044
00E
376
07B
35B
3F5
06E
00A
064
0EB
014
3B9
3F9
08B
390
3D0
0B9
0AB
011
335
0A5
2E7
078
056
11F
3A2
3D3
005
382
075
3FE
04B
027
12D
3AA
3D2
389
39A
3EC
35F
3FE
07D
009
02F
396
30C
3A4
363
094
3E5
0EE
3F6
3D2
06E
3C8
06B
393
3C8
0A1
369
3E8
129
3DF
01B
0BF
3E4
319
373
2E4
30B
077
3A8
028
3F3
3FF
3CE
056
044
043
37E
101
3D2
371
3BE
057
04F
014
05E
029
012
0FA
064
013
3C8
04E
39D
3C7
3DA
345
3D3
065
370
092
3CC
387
00A
0D0
05A
072
013
3AE
312
3F6
3A9
3C2
0C7
376
3E4
056
0C2
034
03E
080
3EC
0AC
3CD
3B6
08C
33F
0E1
034
0D5
37D
006
073
3D4
017
019
3B8
031
3FF
077
36F
3D3
3AB
39F
3AF
005
3E1
0BF
056
006
042
093
086
3FA
3CD
051
025
3E4
3E3
008
013
363
04E
318
0AC
3D7
09E
06B
083
024
3C4
080
3BE
37C
019
058
025
3B2
351
39F
390
388
370
3FD
3E5
098
042
398
094
355
02E
31D
39C
39C
039
079
3DA
3BC
3D8
033
004
3B7
0FB
34C
3C2
3CD
0C1
101
034
067
344
09A
3A8
011
04C
3AF
051
054
383
39C
3A4
3F6
3A4
3BB
058
367
327
0AD
35D
3CC
3F0
388
03F
3BE
387
062
012
009
02C
3AA
05A
090
09E
033
36B
34F
071
33C
3DB
3A4
064
3F5
06A
352
008
052
0E1
2F3
3C2
04E
3E4
397
0AE
320
04D
3C7
3BE
399
08A
39C
3B1
3D9
058
3D6
055
34A
3ED
3DE
014
009
342
01A
363
00A
3A6
368
3AC
3B0
3F8
39D
0AB
0AF
3CE
00A
353
09E
361
086
3E9
3AC
01D
337
02C
056
010
06C
001
3E3
0CF
3EE
06C
3DD
39F
2F3
3AC
385
067
3EA
33C
03F
345
37C
065
33E
017
064
35B
3E7
057
056
390
005
03B
3DF
0AC
372
01D
310
0F6
3B2
3E3
3B4
049
03D
3FF
357
10B
3D5
047
3E1
376
005
3B9
08F
01B
3F1
3FB
36F
386
007
012
0CC
3E8
3E7
049
39D
065
393
3DB
36F
3AB
005
089
01F
078
389
3D0
3CF
00B
33B
3FA
31D
08A
2E1
09E
088
0D1
0D3
0F5
395
01B
13F
056
060
3E0
3CF
057
0F7
010
3F3
372
35F
000
394
042
0BA
0D7
081
09D
00C
3D7
0DD
042
34C
096
3CF
06D
363
393
3D4
3BC
030
3BC
3CB
3A9
009
00D
0DC
064
3F4
058
3EE
3AC
06A
088
064
097
0C7
0E3
327
3E5
02C
312
389
05E
3DF
387
075
3E4
33D
306
33B
004
036
3A9
0BC
017
37E
05F
129
02C
116
039
0F0
3CF
3A4
024
3BC
3D7
347
3FA
3B9
04B
3A6
32A
084
342
316
358
0BE
3F7
35E
386
38A
053
357
02B
05B
03B
37D
3D3
027
309
3DA
058
05C
11D
32F
3D3
3A9
3CC
31E
390
353
308
315
3A1
34A
00D
06A
394
063
3BA
0D2
04F
028
341
362
3F3
075
041
0F5
04B
3BA
02D
07B
38A
3A4
0A0
37F
036
0EC
3CF
38E
00C
00A
3BC
3BA
35D
07D
3DC
03C
007
002
06F
03D
04B
3E7
0BB
03E
097
2EC
394
3CF
3EC
3D0
0CE
0AF
3FA
3F7
03B
38D
3C0
3F1
0FF
086
3FE
37E
349
08F
08E
020
328
3EF
0C6
35E
39E
086
3ED
370
001
06C
2CF
3C6
03A
32A
302
3FF
025
012
38F
0A8
001
072
00E
3BA
04A
058
049
071
326
0A7
3DB
000
3CC
3BE
391
0E1
02B
0DC
39D
044
0D5
3B7
001
096
03D
0F9
018
00C
02B
089
343
001
038
093
3CB
11D
3DD
397
329
088
060
055
0C8
042
3B3
090
379
3D9
364
3A8
38C
00B
04F
2F9
03F
382
04F
076
3FD
3C1
3CF
01F
099
042
3FF
3FB
089
3E4
36A
009
3A4
063
3B1
02D
3C6
35B
00B
035
33E
3FC
0AB
3ED
056
0CE
3F3
053
3B2
04D
0CE
019
01E
36C
09B
05A
3B3
06A
3C6
38F
3B9
386
3E9
03B
3BF
0E4
080
048
011
06C
338
02E
3A8
38B
01F
346
04C
3BB
396
0C7
044
394
09D
3DE
372
064
0E0
382
300
3AE
057
07F
3B6
375
305
07F
383
3DD
370
095
3F0
0EC
345
0F5
3E3
0D7
047
094
060
06F
3AD
3F2
333
029
004
003
023
026
3D3
066
39D
02C
3C2
088
394
389
084
338
3B3
3EF
2C8
373
02C
372
3A1
0F3
006
3B4
3C3
008
3DB
3B6
3FE
3A5
39C
00F
081
3EE
392
395
034
351
38C
048
3FB
0C0
00E
0B4
3D3
08E
086
008
390
016
021
3DD
3E8
3F9
06B
3E4
00D
3F8
3FB
03A
3FF
01F
39B
398
3A4
336
363
0D2
029
3DA
015
3CF
3B7
016
3BE
3D5
3F5
37C
081
3DF
36E
062
048
04A
077
3EC
03C
026
00A
08C
0A7
106
3B4
3AE
011
07A
3BB
076
020
3A1
3AF
341
3FE
3A0
34E
3A9
344
33F
079
377
01D
019
051
0A3
32C
091
3B4
06E
0AA
3F3
393
37F
11B
3B0
00E
357
347
3D0
3D4
3D6
0DA
3EE
069
114
07C
306
088
3CD
390
333
076
071
101
3CE
005
032
3AA
3F4
0DD
11C
32D
3D4
053
073
3BC
012
3E6
017
0DD
320
34A
052
36C
07F
029
3D2
3A7
3D6
359
01F
071
018
09F
0C4
02F
09F
38F
375
008
040
011
3F3
04D
3DB
039
00B
3CC
3A8
397
394
092
07E
076
020
3EB
386
02A
3B4
342
08D
3F4
3B3
02F
3CC
3CF
36F
3E8
396
03A
379
377
058
028
3CF
08E
0E6
04C
3D6
370
3C7
35C
08B
3FF
110
0B0
376
0AD
026
38E
397
3AD
3DE
0AD
021
373
034
3DF
3C5
33F
104
0C5
07E
017
3C5
0C2
041
35E
05B
053
3D4
3A6
03B
3FC
3A5
36F
307
3F3
099
3D6
02A
3A8
098
3AB
01F
3A1
314
0B6
02C
051
0D2
3EC
015
014
347
0E8
3B3
3DB
3A3
3DE
2FB
041
3D8
38E
308
028
39B
0D4
3BA
3DE
054
092
34C
064
329
03B
3AD
04B
073
394
37E
0D0
06F
3E4
3BD
32B
36E
036
3C6
08A
3FA
3BE
10C
393
00D
3AA
329
077
00D
3E2
398
038
3B3
3F8
3D1
076
01D
059
029
062
3FD
2EF
3CA
038
3F7
003
36A
000
3AA
013
078
041
3FE
39B
010
03A
053
3C5
085
083
3F0
348
038
370
06B
3FC
3D5
394
056
3D3
0BA
03C
35A
00D
38D
088
38D
39B
332
3F2
036
07A
3EC
095
3FB
351
014
3BF
3DC
3CF
060
364
3A4
3C3
36C
0EB
091
056
0AB
36A
119
3DE
00F
0AD
02B
017
078
0A5
313
33E
319
3F2
369
00D
05C
047
0E9
3E2
000
081
0B9
059
364
02E
3DD
04D
002
032
37B
054
020
337
006
0E7
074
029
368
0C0
3EB
38D
38A
00E
001
373
02B
35A
3FA
082
33A
010
042
3E1
020
37D
3C8
00E
3A9
3D2
3BB
00D
3E3
0AA
050
3F2
381
3BF
097
38B
3AB
39E
33C
3CB
3B6
334
38E
0D6
048
395
03A
0D9
041
36F
3CB
02D
3E4
041
3AA
07D
3B2
0B4
00D
002
2CE
018
3D9
073
058
060
371
0A2
0D5
3EA
316
3F3
08A
0CE
00E
014
069
3EF
0BF
389
07B
3A9
059
37D
34D
05B
3CF
056
07F
3B3
331
392
3C7
318
03C
023
3BE
3DA
3FA
0A2
0CB
0A8
3ED
008
37A
37C
399
2FF
3EE
055
3AC
0D7
3CF
0A3
03C
37A
3C8
0A6
3C1
3F8
398
32D
088
005
3C9
314
3CF
390
390
3F8
057
0E5
024
39C
37E
3DD
3B3
3E0
053
3AC
085
07C
3BA
3E5
0AC
00E
394
297
08A
3C5
00B
3AA
099
3C7
383
334
3BE
008
08A
08F
3F0
3C5
113
023
024
07A
3D3
05F
09B
310
011
08F
035
3EA
390
059
0A0
03A
055
0BD
057
3F6
023
3FC
38B
340
3FE
0BB
362
09A
36A
35C
09C
393
03C
0D3
155
3D3
3B6
3C2
080
07E
3C5
348
078
044
023
021
39D
3ED
381
3C7
00A
038
0A7
0CD
010
2FD
32D
345
3E9
06A
018
377
0E5
0CB
3CF
05D
370
32E
0A7
064
38E
01A
06C
2ED
3C2
080
02F
0ED
360
3EC
3B1
0BF
01A
040
04A
00A
0A3
008
3BA
3E2
08D
38B
07D
375
311
3CD
05B
06E
392
011
10F
2F3
0F0
017
0C1
3EF
37F
3E5
39B
369
35A
384
367
06D
02F
36C
3EE
388
02E
3B0
050
0B3
3AC
01B
087
3A8
03B
333
0A8
3FA
3DD
057
001
005
36E
011
3E3
0F7
08B
0E2
3A7
3D9
041
0EB
040
391
0B1
0E0
3C0
004
049
387
033
3FD
387
38D
348
35C
3D0
36D
3FF
3A3
39E
01C
025
0EF
3DA
040
035
01E
3EF
00C
3EA
374
095
3D7
097
030
03D
3F2
044
01F
0AF
030
047
0A1
366
086
390
3F0
018
089
3E7
079
3CD
3F7
3BC
3A9
3A8
022
04E
014
0C6
019
36F
041
06D
3BF
349
078
04C
3F6
39D
3F3
069
3F3
3A0
35D
013
064
079
3EC
3D8
378
036
0EF
399
01C
371
3B3
05A
076
3BE
349
089
0BD
059
3AE
042
088
365
0C8
39B
3BC
389
03D
337
3BE
016
3DC
029
00E
002
10A
001
018
03A
03A
0AB
382
38A
050
006
393
3B3
00E
3B1
010
092
3CF
359
07E
035
2F1
001
369
076
36A
072
06C
3A0
3A2
05B
3F2
01C
310
386
33C
038
0F9
080
09C
32E
381
0A7
361
0AE
39B
388
384
383
041
33A
092
3D9
3AF
092
069
3D8
382
345
3AD
045
09B
38B
3B1
335
0D9
360
046
07F
073
372
335
388
3B6
036
3A2
04B
326
029
388
02C
381
012
050
007
3C3
35A
37B
3B6
3E9
049
064
32E
084
0D8
378
02D
3F3
005
00B
03E
115
05B
3F4
379
3D5
37B
3CB
070
357
033
3A0
36C
3EE
097
3CC
3C3
086
329
3CB
3FF
047
069
0C2
00A
01E
016
320
3FE
02B
00C
019
3FD
031
038
38D
38B
3FE
0A7
3B2
02D
053
3E8
053
019
3B9
3B9
03B
033
024
013
3EC
3CA
032
39A
02C
00D
3C0
3AE
080
0CF
046
000
029
027
38E
0CB
094
066
015
335
06B
01F
0A9
065
099
32F
3D4
36D
016
053
3F3
00C
35F
04F
078
3F4
39B
049
02D
3C8
354
01E
003
38C
3C6
39C
2F7
370
03B
033
3E3
08E
013
3C9
0A9
0C0
013
011
37F
01F
069
09F
3C4
07F
028
060
3D8
095
00E
0F5
3F5
3FB
3E5
009
341
3DD
032
06C
06C
3E6
384
3F2
3EB
3F2
3FE
39B
3E1
3E3
050
07E
3DF
3AC
01E
018
3F3
01C
028
06F
0CD
017
35C
103
3D3
3E3
035
3BC
047
05B
3FF
3DC
3EB
2FE
0CF
377
3BB
396
053
3DF
3BA
32C
0A1
39F
05D
0C9
3C0
2E0
3D7
060
0F6
34F
3C5
30D
349
3F0
0DC
101
053
07C
037
353
348
35B
089
3FB
0FD
3BA
3FD
3C5
394
3E9
073
33A
327
085
3FD
015
35E
057
115
039
31C
357
3E5
021
065
3D4
3DC
033
048
3F3
0DB
311
0B9
3A9
34D
35B
393
009
01F
3BE
34F
09A
03F
0CC
332
03B
309
0C6
3B4
3F2
0CB
3CF
076
05E
2F5
3AE
082
37F
36C
303
076
028
047
380
031
05E
3BE
3EF
3A0
3DB
083
110
3CF
0FF
3BF
028
044
379
3C9
020
303
0CE
05E
3FA
000
026
395
397
3BC
053
0A9
051
09F
01A
3D7
001
3E1
3F3
36C
3B8
080
08D
382
12E
3E2
094
02C
39A
33E
3D5
3EE
3FA
3BC
393
3E0
3D6
3FA
016
083
099
0A0
31C
396
383
09E
019
03F
085
0B6
337
32F
013
0DE
3FF
348
054
3E2
093
094
035
047
3E8
0EF
36F
3DD
3C7
065
023
076
0DA
3B2
035
05A
365
348
044
3C2
380
360
0A5
02E
3C2
37B
09A
3BE
0A0
053
028
091
377
045
03F
388
047
355
382
00D
06C
03D
015
31A
3AC
3E8
00A
377
36A
09F
31F
017
04F
3E4
3B3
0FA
3CB
3CF
08F
053
015
01B
334
376
014
3E8
3C6
066
370
3B0
37B
3CC
018
03D
3B5
048
3FC
06C
359
05A
3D7
37F
38B
06D
3DC
398
005
36B
3D1
04C
01D
3B7
36A
089
078
3E1
362
0E9
073
060
3B3
3D4
3B9
3BD
383
08A
36D
05A
00C
071
3EE
069
090
012
091
347
0C5
015
391
33B
040
00C
02D
396
3F0
3C4
2F1
311
095
317
014
0B2
02A
000
353
3D2
075
00B
087
3C7
378
3FE
3C4
048
0E5
3FA
003
084
3EB
04B
34B
068
08F
3EE
3FA
030
081
0C4
0A0
3FB
035
043
3B1
0B3
09B
36D
382
3AA
369
3ED
031
010
39E
008
074
3AC
049
3D4
052
3F4
3B8
01D
018
00C
04A
059
3E8
041
381
089
0A4
383
3F1
05A
3F1
016
346
379
3B6
360
3FD
35B
044
013
10D
3E1
370
32E
09C
0A1
337
3A1
3E9
38E
0EC
048
3F8
10C
3F3
348
3D0
31F
390
106
093
3DB
050
04F
027
004
2F2
381
393
38A
0AB
0C2
09B
3E8
02D
057
392
399
037
095
050
053
0BD
032
02A
04A
3D8
03C
07B
3DB
3C7
013
053
39A
085
385
017
056
3F2
399
33A
022
3A3
37A
3CA
39D
3C6
06A
02A
0D1
004
063
306
0B2
3D5
07E
331
057
3CB
061
3D7
01A
3E4
3F5
025
061
007
355
01F
384
34C
3D1
072
025
012
361
365
3CB
038
01E
3BF
3E7
374
3B1
021
00C
041
08C
01E
0C1
06C
01B
3DA
3CF
0BE
07A
3DF
3E4
384
062
32B
045
042
3C8
06A
01A
3B6
091
083
3B5
04D
02A
024
0C9
34F
3E3
315
108
01D
378
35C
052
044
3CD
05A
006
342
01C
0CF
0C4
078
009
3E9
039
018
39A
020
017
31D
062
056
37E
06C
39D
360
001
022
019
3CB
3EE
05B
317
3D9
139
09F
367
02E
003
0D3
3AD
3AB
07E
3EA
04D
3D2
0C3
069
390
3E6
0A3
3AC
344
000
3CA
355
3E9
3D9
3DE
384
010
384
008
070
39F
37F
0AC
01C
3A0
009
0C2
3EC
38F
37B
3D1
079
087
3ED
3C2
022
096
0E7
0A2
3E8
3F5
0D5
304
09D
0B8
371
3EB
391
3C9
3F8
07E
341
024
062
32B
3E8
0A2
046
35A
383
3E2
394
3F9
008
389
3B5
09E
0CF
028
001
09C
0FD
057
3C1
325
3B6
3E1
3AF
332
01D
3FB
3CF
0B4
031
005
36B
3B5
007
3FE
3EC
08B
0C5
04B
113
06C
3FB
396
0DF
34A
348
00A
39D
03A
3FC
091
38C
3D9
03C
0A9
39A
34B
3CA
3EC
040
30D
38A
017
004
039
343
3FA
0AE
024
0E5
080
02F
0ED
328
087
3F3
3EB
09C
015
3EC
0BC
03B
073
043
36B
000
3B4
081
07F
089
01F
329
0BA
065
372
39C
092
016
3B8
32F
067
08B
00E
051
34E
009
02E
386
373
07F
0B0
06D
34A
0C1
071
038
34E
38A
01D
00C
01C
099
3F1
0A2
396
0A4
07F
3CB
355
39E
3AB
3C6
055
319
0A2
307
055
3DD
04D
3A6
335
3D0
3ED
038
0AB
3A2
00F
015
318
061
015
02A
016
09C
34C
03F
0B8
070
3A3
3D8
087
05C
3FE
3D8
3B5
0B9
37B
055
386
36E
014
34B
32E
026
050
39C
05E
3BC
34B
064
3EC
31C
34D
3F7
39E
03D
05E
01D
343
056
033
03E
375
088
00D
39B
311
2DD
03E
343
061
3DA
094
320
32F
08A
3F6
3E9
01A
383
0BA
318
00E
35F
390
001
0A6
0F9
030
066
074
081
3EA
0A2
082
00E
351
3CA
3E2
0AA
050
366
35E
384
009
3D7
3D7
003
0F7
025
00F
357
3B1
01D
399
07A
0AE
02E
370
01F
3D7
3DB
07C
3A7
3F2
0A2
0BD
06A
006
07E
02F
3F1
031
006
337
3BC
070
0BB
35E
3D1
3D2
040
3C6
02E
0A5
38C
00E
3BE
370
02F
3C0
3E2
0F3
334
327
3D7
325
383
3E0
00E
3D0
050
0A2
00D
016
336
03D
3B6
3CF
00A
04C
35D
3D8
3B6
004
043
36F
019
3E4
350
3AB
3B6
003
3DD
3FF
3E2
3FB
0A4
375
010
3D2
02D
03D
062
3AB
023
036
38D
074
36B
083
3C1
0A3
03B
3B6
0C0
348
27C
029
3ED
3CA
110
035
03B
3E9
00D
0B7
3CB
3C2
01C
033
3AC
04C
020
081
34B
128
01C
07D
0DE
38E
3DB
0E0
3F6
053
0A7
091
3E6
2B1
3AE
3E8
138
057
074
04E
3D6
067
002
3BF
085
3C6
35F
085
3D6
3C9
32B
01E
399
03D
03D
070
058
37A
02B
08E
000
0A7
397
051
007
393
3F3
380
3EE
3BC
09E
07D
0B9
027
011
3C5
3D3
3B5
2C8
386
0D7
040
0DE
3F1
369
3B6
048
040
0EE
26F
39D
331
080
345
3FC
3C7
391
385
325
018
00A
3A5
3BB
0BD
157
3FD
05F
124
36A
3C1
37E
047
0AF
03D
3D6
34A
0C0
082
022
005
04B
07E
06C
3C6
096
395
016
3A2
0B9
3EC
01D
00F
3DF
3AF
3B0
3C3
027
2FF
3F8
07F
029
02F
0A1
04B
097
058
3BF
3CD
32E
365
3B2
396
3B0
06C
038
3C7
3FA
332
397
362
005
3FA
3F5
062
3E5
0BC
129
387
05F
3C0
36C
07B
3FC
031
03B
335
3A3
3DB
340
03B
386
068
39F
3D9
3F6
003
3C7
07D
3FD
019
3E8
361
382
065
394
362
3BD
333
3BF
0AB
0D2
051
3C6
3FC
36C
36E
035
060
088
054
3AF
097
0D4
042
3B7
3F0
03A
3AD
00C
32C
05F
016
388
09E
396
354
3C4
04A
070
34E
04C
01D
053
34D
0D4
076
3B4
34E
06D
09D
328
2FC
3F6
373
3BB
031
0BD
039
3B7
3AF
021
033
0DC
03B
059
3CD
0A8
3AB
017
01E
3BE
0A5
006
0A3
047
021
3C0
050
31D
377
05D
046
00F
09C
0C6
38D
3A2
04C
3E4
3BD
096
3FF
396
391
02D
075
3FF
029
3CC
382
06D
08D
3A1
07E
03D
088
023
036
373
393
363
047
028
379
308
070
07F
351
022
32F
2E3
037
04E
3D3
3F1
0B7
34C
0E6
361
0FA
041
03D
001
037
3DC
017
3FA
012
035
3E2
3FA
054
0AC
058
046
07A
021
3FB
001
063
037
057
04D
3F0
3E5
31D
06B
3A9
3F5
02C
366
383
380
3C2
0A7
31B
033
05A
3D3
10C
129
110
307
032
349
0EA
3F7
00A
0F0
024
3F2
018
0DB
3E8
05C
360
39C
088
0C9
3FC
021
3EC
3CE
3AD
3AF
3BB
3EE
398
372
3C4
3AF
39D
3E6
2FE
020
31D
092
010
374
076
0DF
033
005
0B7
350
039
3F6
07D
3F1
0E7
38A
344
31B
379
065
364
3F8
3DF
3CF
046
004
0F8
3BC
3CC
10C
35A
04B
3C1
00B
08B
09A
3D0
369
00C
0E6
035
3DE
0CC
3E5
37B
3C3
3AE
311
3EA
083
2E8
067
042
00D
066
3DD
3AB
04D
016
3AC
05F
00B
087
365
3B8
00C
02E
3E2
3FF
004
061
3E8
0CF
3BE
38B
059
3B3
112
042
032
024
3DF
033
095
371
06B
3A7
02F
3DC
337
37E
0A2
084
3A3
09C
3A4
33A
3AD
3E7
068
358
323
004
3E7
080
393
3DB
3F7
0A7
3F9
3E5
0B4
00A
0A7
05C
084
38D
033
3F1
0DB
3B9
006
3FD
0DE
051
07D
317
31F
3C0
3E8
0AB
354
3D4
039
3AF
03B
3F9
0C4
072
3C5
3C0
371
3AC
080
01C
08D
010
05E
3A9
0F6
019
082
002
061
036
03C
3D2
101
03E
3A5
089
3C0
3E1
11E
299
10B
0D5
021
3CA
020
339
06F
3D8
077
3BC
32D
37A
075
3DE
3D1
097
3CE
3A6
3EF
01D
064
087
0FA
09C
0FA
078
3B8
34F
33E
08B
3E3
3FC
0B7
044
006
3B4
00D
036
3F7
3D7
393
049
3CF
3B3
3C0
34C
38A
03E
135
06A
384
00A
020
3F5
051
00B
2E5
386
3C9
350
046
0FB
09D
396
0A1
07F
068
0CF
356
3B5
000
391
105
026
3DE
12C
0D7
0E5
027
05F
399
082
08F
046
2DE
3CE
01E
3D5
055
3BA
3BC
06E
3A4
03F
3D3
029
369
313
3A8
0A3
026
398
3F0
029
13F
329
0BF
3CE
0A5
03B
07A
012
343
398
037
35C
0BF
39D
3EE
3CE
04C
34C
065
01F
2B8
31B
075
071
046
07D
342
35B
073
07F
023
075
06C
09D
343
08B
366
3B0
05A
394
09F
3C1
05E
3A1
05F
102
384
05F
0C1
03A
31A
3E7
062
079
35D
32D
342
08B
034
3F3
044
004
00D
397
3B2
003
087
37A
3E9
0D5
2EA
2F0
044
390
018
359
012
01E
3FC
03D
0D9
303
3AB
3C6
0B4
31B
03B
038
3CB
0EC
374
050
3B8
367
066
3DC
362
08C
367
06F
09E
015
3CC
00C
3FA
3EA
343
075
2F9
087
036
382
342
0AD
3AD
01F
3AD
3B6
313
32C
318
333
393
392
3D0
3C0
084
386
071
3BF
014
0A0
31D
3C1
061
043
000
3AD
3ED
015
3E2
016
0AA
39B
3EE
0DE
0A4
3DA
013
3DE
01E
362
028
073
035
053
35D
399
092
04D
039
3F4
025
099
3C9
00F
074
08C
0A3
016
02E
3E1
362
3ED
36E
03A
38F
02F
393
023
08B
388
011
3A1
018
036
3AD
088
07E
004
06B
029
0AC
3AC
092
3DA
02D
01F
3FF
022
3C4
3BA
346
039
3A7
064
0C5
39A
3CB
31E
3EF
077
3A8
008
02D
36B
3C2
3DA
010
079
07A
362
334
009
067
015
0B0
088
001
04C
021
05F
0B2
3EE
04F
067
39D
06D
33F
37B
0ED
018
0E3
3DA
31E
3A1
399
01D
35E
050
30D
3AD
3A4
093
035
0E5
0B4
136
03B
0FE
3E2
325
346
017
0B1
3CA
03F
34B
084
037
3F2
040
052
018
390
033
0DC
374
00B
3C8
05F
361
3F5
0DA
391
0EA
0C4
38C
3D5
3C9
028
33E
329
02B
009
3C6
086
3DA
044
3EE
062
395
081
043
11B
0B2
357
028
038
00B
3EA
01E
3F8
04A
3F0
3B5
090
369
361
3E6
09C
37F
047
062
05E
389
014
3E4
36F
3AF
01B
004
04A
02F
01B
01E
08F
0A0
0DE
3F7
3ED
3D4
030
099
399
069
003
07E
3DD
3A8
39E
3EC
3C5
0A0
353
39E
024
0C5
3B6
307
03B
2FE
060
3AF
051
025
3F6
3D6
0F4
3D2
00A
0D4
3DD
044
3FF
39D
3E1
085
3A6
360
050
032
375
0DD
049
3A9
3D4
32F
39B
38E
3F3
0A0
030
0B6
34D
3D7
389
032
06C
008
38F
076
122
395
0C3
0B7
3FD
387
3CB
02E
360
3DB
395
001
0B1
032
119
045
3B6
006
094
3A0
3C9
019
3E4
03F
355
059
05C
36B
0C1
35C
392
13B
3AD
029
085
38E
0BA
0B7
3B6
00E
04D
023
01E
01E
3FA
3E3
018
07B
2E5
0CB
39F
383
33A
395
3BB
373
3F8
317
3DE
366
324
068
362
087
021
3A9
02D
3DF
019
16D
025
002
391
3D8
06F
3B3
355
000
3D4
0B0
3DA
06D
035
020
06E
070
3A3
353
3C0
074
08F
0D1
0F6
370
31E
3CB
0B2
06D
08D
011
390
3B4
0FA
38A
065
01D
0A7
004
3BA
024
04C
052
3E5
3CC
092
01C
0AB
396
39D
05C
3A6
397
3D2
2E3
337
379
006
0B6
0EE
3DD
39F
381
3DF
0BD
0B5
0C7
36B
070
061
040
344
3F9
3FA
315
3CE
051
3FA
319
3D2
05B
35C
3F2
339
3B4
380
380
08B
3FA
3F6
03B
3C9
390
3B8
382
07A
0EB
0AD
0ED
3EC
332
3AC
3CF
0DD
03F
3A2
376
0C1
37E
3EA
3C2
083
001
037
0F7
03B
077
007
3DB
030
01D
0CA
004
072
34C
083
3D6
06C
3B1
371
3D7
08A
370
09C
068
01D
367
3D7
039
081
39A
04A
00A
3FC
060
021
010
3E1
075
0FF
0BE
364
3DD
0EB
050
3ED
101
0E7
3A7
08D
301
01C
02D
0DE
3AC
380
07D
07C
398
3DB
04D
006
028
344
04B
045
3E2
06E
0CE
3E5
380
052
383
3EA
377
0AD
042
3B6
0BF
039
3ED
00D
3F1
0B4
3F7
3F5
3E6
336
0D6
2FB
3D6
112
01D
34D
38B
030
3D2
064
035
0A9
3F7
353
0D7
0AD
0B3
058
314
38E
3C0
314
3FB
02F
019
06B
3E3
3A5
018
3D3
39F
09E
086
3F5
367
063
01B
02F
0B1
380
3EB
38D
362
3B1
0FE
3D5
35C
390
359
04F
005
3D3
3EB
3BB
08D
33C
06C
09A
060
0D3
007
02A
0D7
35D
342
02E
344
3BC
01A
020
3FF
3C0
081
0F8
0D4
031
041
3BE
356
3D9
389
3AF
033
0F3
08A
043
35C
380
072
3CE
08F
04B
038
00D
38C
3D4
37F
04A
008
3CE
0C9
013
020
3DE
045
3B8
042
3D4
3E1
076
044
3BD
3FE
099
3EB
02A
016
38A
03B
2F5
359
374
0F6
09C
095
3C9
09D
3C3
3B8
324
009
0CB
02F
3B8
3DC
087
079
320
0DE
080
109
3BE
39A
001
3E5
3E8
051
0CD
0A8
0B7
3BA
008
019
375
110
01B
006
335
39D
3C5
07C
027
0AC
39E
015
06C
3C4
33D
35E
39F
0A2
0AB
089
00A
0EA
347
352
350
390
3D3
37C
041
02A
084
309
04E
3A3
058
0D9
3A7
3F0
021
0A8
042
047
3C4
0CD
01B
03E
3D0
3BF
001
3BF
084
37C
3EB
32C
08C
0D2
3CE
079
3DC
0FB
008
014
004
01F
131
2EF
015
0C1
3A6
2ED
364
382
3B4
039
0A9
3E9
3EE
372
018
09A
027
3ED
01B
10F
077
38A
020
04D
3F6
0B7
3C3
04B
012
0A8
3A5
3B1
02A
3CB
3F2
3F4
056
3BA
0EE
34B
0F4
3F7
3DF
3AC
020
03D
3D3
372
2FD
3C1
381
349
0E2
3AA
007
356
004
046
2D7
37C
06D
0E0
081
3F4
01D
3CE
3B8
2FD
3CB
011
03C
027
0EE
3B6
0E8
35C
070
3BF
3EE
110
387
328
088
3A5
088
08F
04A
3C9
3A4
00F
026
3D7
050
347
3BD
368
044
024
3CA
3F2
06A
033
104
04B
3E1
09A
037
00A
3D0
32D
3F6
3EC
079
3D5
06C
311
310
391
038
08D
06C
07D
3B5
104
358
3ED
055
084
31F
116
321
109
3F9
368
05A
0A0
3E1
364
3BC
312
00B
33B
3F2
05F
2F8
349
380
0D7
3E1
058
04F
3F3
39B
3C1
3C8
35D
0D8
073
04F
36F
094
397
09D
3C6
39A
354
2D8
026
3C6
015
057
3B3
029
03D
34B
0B7
03F
36C
0D8
3A8
097
0D9
357
355
3A8
3DE
0D6
3E3
06D
0AF
0BB
33A
3F8
025
3C6
073
34D
0C6
3C6
092
08F
3E0
351
3CD
06E
08A
35F
012
30C
3BD
069
38B
34D
029
044
05A
326
398
096
031
389
051
054
011
07F
3EB
3CA
051
3FF
030
334
3AB
06D
01E
388
0B2
0B7
05F
10A
04C
0F7
3EF
3D7
36B
3CD
366
3D8
3E8
03A
040
060
002
38F
06B
00D
372
3E9
37F
126
04F
342
3E6
3DC
3FB
39F
3F2
3C3
02A
381
002
0DA
0EF
3E7
08F
06F
3CC
3D1
378
3B1
07D
321
3F2
047
035
081
072
025
0CD
021
02A
349
0E4
000
075
01A
39C
3FC
009
35A
32C
02D
37F
3DE
3A9
389
35F
34B
3C9
02D
062
3E3
337
3A0
003
08E
0DD
3D2
37E
3CB
06F
380
0E2
384
3D7
044
34E
3CB
33D
059
3DE
3FE
0A8
386
06D
3FD
065
39F
3BB
37D
338
0BD
005
3F5
38D
3E1
0A4
340
3CF
3BF
3DD
391
085
03B
3FC
019
079
3C3
078
3D0
015
3A9
001
079
3F7
3A1
005
0C2
358
0AF
3FD
004
3EA
327
051
3CB
04C
336
0C2
351
075
2E0
3FA
00B
2EF
3CD
09C
04E
3DF
0B4
076
3C3
0B5
141
381
051
0F0
00C
023
3CE
32D
052
391
2D6
3B9
0CD
3FA
098
2B4
08C
395
0A0
0B0
3F6
02B
37B
01C
3D9
01F
00E
004
3F1
0A9
3AF
051
002
3F1
0A5
3C2
064
3C7
3D1
39C
044
357
11B
33D
3A4
2FA
0BD
3DB
3AC
0C5
344
3DB
057
333
108
00B
35C
33D
002
396
3BC
0EF
369
3C4
0D6
3E5
360
3C8
06D
359
3C5
075
3D2
3D3
05C
07C
389
074
004
37C
3F7
025
08E
3E1
005
3D2
024
0D7
06A
3AD
11F
0AC
3A6
33B
3E5
3DD
3FC
01B
031
0D9
0EC
0B9
338
076
00B
038
3D3
0AD
01B
047
05C
3B3
109
016
377
313
32D
3FB
326
3E8
02E
050
0E7
3FE
303
085
096
093
3CC
028
3E8
00C
0FF
375
004
095
339
396
095
3E9
05A
3DE
087
08D
0DE
07D
33C
077
05C
3B0
000
073
07B
3BF
3F4
382
058
3B7
3A0
0DF
032
04E
088
08D
055
2EF
01D
056
389
013
3CC
03B
0C0
030
3F1
0AE
390
023
064
099
05E
377
36F
3AE
3D8
093
093
38F
027
031
0AC
035
311
0D4
3C3
06C
3F7
3CE
009
0AB
099
39D
00B
01E
3D4
391
3BA
087
343
3AE
3F6
028
3E0
3F6
3FC
08E
370
000
06A
028
056
3B1
058
3BB
03F
3FB
06F
0CD
359
33E
399
001
39F
3B3
05A
328
06C
037
397
042
3FC
3CE
054
026
051
378
3F9
341
087
043
33B
012
359
3EC
039
371
3A6
3FD
07C
3A9
0B9
378
0EE
0F2
0B4
054
395
00A
00C
383
318
375
07A
0A5
3B6
01B
3E3
042
3B8
043
025
3B7
3DA
3C8
0D2
049
085
030
08B
327
378
338
34B
389
2D4
360
090
3B7
072
3BD
015
37E
0A4
015
008
02E
33F
35C
003
3F4
3D2
3CF
037
0BB
05A
354
0CA
059
3E2
084
047
350
378
06D
06A
3AC
060
068
026
3CD
081
03D
062
075
3BD
3D3
104
0A9
005
119
3E3
3A7
2F2
382
081
024
02F
099
075
3D3
3D0
353
3BC
38A
003
3B6
35B
3FF
09D
0BC
33C
045
39D
08D
3DA
103
3A4
3BB
01E
084
05A
03C
3E8
05F
3F4
025
35C
380
097
359
3C4
36C
36E
022
395
352
335
00C
330
0D6
396
078
00A
3E7
0C7
3FF
3D6
0CC
3F1
0C2
372
048
063
35D
024
33D
0C5
03B
37B
029
376
011
06E
088
3AB
32D
31A
09F
327
048
3D7
024
3A0
31A
058
049
3CE
31C
04F
3D0
0F8
372
07C
3DD
3AA
378
365
0C2
381
04B
0F9
024
101
047
322
05A
390
32C
03D
389
3CD
092
3AC
08D
05E
07D
01A
038
3A8
3A1
366
3EC
32C
352
011
3F6
09B
352
0A7
022
373
3B4
0B0
3B0
019
0C6
03F
356
075
04E
315
3C2
353
075
0A5
049
07C
0D7
3D7
066
386
027
08D
0AB
3D9
351
381
35A
3D8
3EB
37A
366
3FB
350
01C
3EF
3F1
3B2
3AF
3C0
09A
04E
0C9
3D4
39E
34B
367
385
36D
30F
3E1
022
3E9
3DF
38F
037
0A0
3F1
003
09F
3DC
023
372
39E
3F1
3D2
059
044
3F1
3C2
04F
321
009
086
3FD
071
044
006
3C9
3FA
3E9
029
04B
139
387
03A
3C3
0D3
3A3
038
035
0A3
063
076
3CD
3CF
0A8
04F
3C3
37A
00A
0D6
00B
05A
04C
339
380
0F9
014
0B0
06D
3D0
363
3B9
3ED
395
345
3D5
2FB
019
3E7
397
0AB
369
3F4
370
0CF
3DF
341
0BE
3A7
0B1
0FB
363
370
35B
102
3F4
014
35B
398
0AA
06E
05E
3C9
3F9
397
00E
358
349
3D8
016
311
03F
3A8
37C
065
007
093
3FE
3F9
130
3DA
382
037
2DD
01A
3C4
37D
0B5
018
389
0A0
042
06C
058
00C
3E7
3F0
01A
094
077
081
35C
05E
3AE
3DE
35F
397
3EA
3FA
342
029
046
0D0
010
38C
336
064
345
389
005
3A0
004
079
357
3AB
34B
316
04C
39F
0A6
08A
3C3
3AC
089
3A4
044
302
007
3A5
0CD
00D
0C1
358
06B
0AC
012
09E
3B2
3C8
125
3FD
069
008
032
06F
02C
0E0
09D
04D
3F7
36E
389
34D
07F
3F6
06C
399
018
0A2
3B0
076
390
0BC
3F1
08E
003
076
3F6
007
00F
01C
3AC
3A4
3B5
039
38A
327
063
3CE
018
08E
3E1
326
042
324
0A0
3B2
02F
3E2
028
096
05D
36E
033
074
026
04A
057
3BA
016
039
3D3
051
02D
09D
315
3FC
0F4
3F5
3D9
06D
389
3D7
3F4
07F
01C
3F2
3DE
3A9
363
079
02C
3E3
001
026
03A
021
126
365
3E7
396
385
05E
3A3
384
047
058
094
3B3
038
3D0
032
338
032
092
36E
3C5
3D5
06D
3C8
0BE
07F
3A2
38A
096
3BD
003
011
04E
390
390
103
386
097
02D
07E
3C7
3E1
00C
08D
3D4
000
381
064
364
028
06E
01C
315
3E3
04E
012
36A
3B3
112
3C1
094
05C
041
085
034
371
03A
06E
031
0A6
09B
07A
01E
3C7
3CA
3DA
3B1
371
3EF
32E
3AA
048
018
3EB
3E1
3FA
3B9
3CC
069
0BB
3E5
376
043
083
0A4
015
05B
3F5
06B
049
0E6
377
3E9
032
04B
023
020
01A
3BE
3F0
3E4
0A2
02A
3E2
00F
3AA
3AA
363
38D
05C
060
02F
094
3BD
062
3AE
048
352
3E3
0C4
39B
00F
0F3
03E
05B
3CE
361
0DA
068
06D
046
033
004
3C0
377
041
074
05A
334
020
3E6
0B3
369
005
0D5
080
3BD
083
02A
3F6
3CE
012
323
389
397
04D
021
011
013
372
12A
3C1
3E2
3D9
325
103
022
043
002
2F4
04D
09B
032
3AC
376
07C
363
390
332
384
000
324
3F7
3DE
08E
3E5
006
384
3F5
2EA
371
3A4
3B0
3D1
3FD
3A1
0BD
3A3
09C
3C0
3B6
022
348
003
3A4
08A
004
3CA
00E
3D2
364
08C
3E3
0CA
05F
3C5
397
037
3A0
033
009
0D9
368
051
048
3FB
073
0B6
027
365
07B
035
3E1
359
39F
31C
04E
0D5
00F
3E5
104
32F
2FD
01E
342
3DB
3B1
077
304
349
3F4
032
04F
31F
3F8
3FA
0C0
3D0
003
087
019
092
037
3CF
2EB
0A0
3C1
001
3CA
065
326
0D0
030
32C
3AF
3BF
38D
3AA
3B5
0E5
007
02E
35E
06A
09B
001
3B1
38C
3C0
33E
119
04B
3A8
009
041
3AA
053
27E
006
079
092
397
374
30F
073
097
3B1
316
3A0
078
3D0
0D0
3DF
010
052
3D7
12E
3A6
3B8
0DF
008
3F2
351
3C2
07E
375
0A5
3ED
002
004
04C
076
39A
059
005
31C
066
343
39B
33D
034
019
3E2
366
3C4
339
0BC
12A
34C
353
08F
38A
3AC
03C
2DC
3B3
3EB
019
397
3C0
3CE
33C
015
326
0B7
056
03F
086
025
090
3CA
339
0E5
32F
377
06B
079
3DD
3D7
0DE
34A
380
3C0
053
3A0
3E0
3B0
38A
0B9
0C5
332
026
3B3
025
0C7
065
0DC
060
05F
107
376
052
3DA
3F7
108
03A
33A
3F9
061
056
377
3B0
03D
048
015
0AF
09E
3B0
073
060
035
332
391
38F
029
058
3D8
049
0A2
09C
382
35F
00F
3F0
050
0E8
3E2
08F
3C9
006
041
3AA
03F
005
03E
3F9
0AB
3EF
08E
3E6
087
01D
054
081
37D
336
3A2
3CF
36B
0CC
014
3BF
369
3BC
07E
38E
074
0C0
003
081
068
3F6
04D
391
047
3E5
04F
300
3AC
3E8
37A
09A
049
389
3D6
03F
0A0
027
05B
3A6
3DA
0A2
065
3B6
090
30C
09D
0C0
3BC
3FB
04E
00B
389
3C6
357
05B
05C
2EE
388
367
062
358
37C
07B
3B8
3F0
062
070
0B3
097
0A8
01D
007
3E9
3EE
089
065
0BE
396
0D7
32F
3F0
3F1
3E4
01A
0F2
047
059
39E
0BE
3A5
0E9
0A5
070
36C
013
04B
005
033
018
05F
3E0
3FD
012
387
00C
08E
0AD
061
011
039
0EC
332
102
3A7
03C
3D6
38A
3EF
009
01B
343
3F7
0CA
39A
083
09F
021
3DA
3C0
363
02F
043
050
030
0B3
066
085
3F1
005
0EF
366
014
30E
389
3C2
0B1
098
0DC
0CA
01E
305
37E
0FF
069
305
00C
376
3FC
01C
3F0
3BD
3BB
020
325
36C
3B2
332
108
086
3D0
360
040
38C
071
077
398
007
3FC
053
01C
392
040
33F
348
3BB
384
0F2
109
015
388
3F9
3DA
014
095
002
029
3D5
01A
03D
032
340
036
3E7
3DA
3AC
0BF
085
3CB
02F
3D3
3DE
05B
394
350
004
0CA
092
316
3BE
3ED
087
3D3
076
022
0B5
38A
08C
012
3D7
3A3
3F2
365
0E6
06A
039
3B6
389
02D
36D
04E
04D
02E
0F0
02C
039
0F8
3A5
061
391
000
0AB
079
3E5
060
3FB
3BC
3A3
38D
047
023
0BF
071
35C
33A
089
3B6
39F
06C
399
02B
0F7
04A
35C
3C7
003
345
34E
0B8
0B4
010
34C
3CB
019
3D5
3C4
33A
096
332
39C
3CB
354
3AE
00C
03D
0B0
2F0
3C9
381
3C2
02B
0E9
11D
023
01C
045
3D4
013
3F1
03F
045
01E
321
09E
042
0A2
39F
063
347
0D3
3E4
018
365
06A
3E6
3E6
025
3C5
2DD
38A
384
3D9
3AB
3CD
32E
0B7
399
356
3DD
2FF
0E1
3EB
06A
0BA
068
0D4
041
3F2
0B8
3EF
071
03A
047
3D3
0BC
066
0B2
047
3AD
37C
028
355
007
3C7
039
3CE
3F5
066
3DF
3FD
040
0E7
02C
3F6
3C2
3FA
0A4
360
3C0
2DB
05E
3A1
031
38C
3F1
090
3C6
391
083
3D4
3D4
3F5
3AA
07F
073
39D
3A1
3DD
00F
04B
067
363
0C2
00B
032
027
3AC
3CB
2E4
0ED
3B4
0D6
330
021
351
3E1
11F
0F2
038
3C3
3F4
063
368
379
389
01A
3BB
3BB
005
31F
005
3D9
3F7
3E5
04A
051
010
0A2
38E
30E
36B
3F6
36F
075
3CC
39D
020
3CF
0BB
05F
39D
38B
356
057
3D7
3C0
3A4
3F3
0B9
002
3E3
3B3
0A0
37F
3D2
3A7
03F
0BC
03B
3F9
06B
3D3
3FB
3DA
392
028
361
074
0FF
045
3D3
047
0BD
008
099
3DB
030
023
0D9
3E6
301
044
0A3
013
352
3DD
084
39E
04D
047
06D
004
036
327
04D
055
0FF
102
313
392
3C5
3C6
2F6
06B
383
08D
3EB
00C
0BB
032
3B1
01D
3A0
3BD
36C
021
01A
3B6
070
0CB
022
38D
076
3A7
050
343
3EF
34B
060
344
3D8
383
04A
399
0B3
072
3A4
031
3B2
3D1
0BD
017
34C
3F1
011
051
379
3E1
094
017
384
3F1
36B
033
383
015
0AB
044
0C2
087
04C
073
0DA
3B6
3A0
367
083
07D
328
051
3DE
07E
062
025
37E
018
026
08F
391
0A1
068
058
03F
393
0CF
026
067
066
0CB
3A6
06D
071
064
0FD
001
32B
00D
30B
38B
0F1
010
131
082
37A
3AD
060
3B4
04C
071
05A
334
3E4
07F
3E7
03A
348
01F
3D1
06E
008
0D4
0DC
3EF
00B
072
3AB
05B
02C
00C
350
3DB
359
033
0E0
3D6
3CD
030
338
343
03C
05E
08B
373
01E
3C0
0ED
392
3C6
02A
3D4
024
071
052
2C2
010
069
089
048
05B
0C7
01F
031
088
108
3A1
3A5
3AC
016
004
04F
100
3B7
03C
2E6
0AF
0EF
3FD
3EE
3BC
2F1
345
3A4
040
022
09D
387
3DC
3AB
2EE
0A0
2F1
3B8
3FD
055
090
03E
139
030
3DE
302
2E1
3B0
35F
3DA
041
019
0B4
3EE
3EF
0E2
308
3E8
0FE
06A
35B
338
0D2
016
39F
3B8
380
313
3E0
3C0
065
3E2
056
06A
0F7
2E1
072
35B
36F
39C
36D
006
01F
04A
03E
023
39D
39B
3F1
35E
08A
37E
3D3
3CA
02C
368
3E5
2FA
37E
3DF
04E
2E8
336
3BE
02B
322
330
3AB
38E
358
003
3F1
37C
358
363
3D8
381
3CF
116
357
398
063
3B3
339
3E6
027
342
003
35C
3DD
3AE
351
005
3AE
05E
324
09D
3A4
0A2
3F3
335
368
086
055
38D
343
061
053
00E
056
039
0DC
3FE
3B1
3E8
36F
003
0E1
37A
3C1
332
361
3FB
3EE
3EA
03C
3B7
057
02F
035
0A7
37C
088
37C
3CC
033
393
3F4
3DC
3D3
3D9
074
340
061
34E
3DD
3E9
3E2
3B5
089
05D
359
028
014
092
3E3
004
005
3BB
007
0AE
36E
08E
3C3
386
09F
04F
0B3
065
102
020
312
09C
39E
0BB
052
375
09A
001
02B
3E8
021
073
033
369
3C2
04A
364
0DB
018
380
3D4
0B5
097
3FF
36D
05C
393
0C5
316
00A
115
03F
3DD
05A
102
016
0DD
014
33F
3C4
0B7
3F1
3F2
00A
3F5
399
368
080
041
3C6
3AC
067
0B3
0AC
01C
387
08D
051
34F
02D
3D0
00D
0AF
094
06C
349
3BB
3FD
39C
06F
0BE
03B
3A7
3E4
37E
0AF
3A8
07A
3D9
3F8
011
361
030
3D4
04B
309
076
3EF
033
000
0EF
3C9
398
0DB
390
36A
004
088
3D6
07A
0FF
359
3A3
3F3
3AA
3CA
074
3C9
3F5
38A
3E5
01A
3C1
061
3E9
055
3E9
00B
3BB
085
0BF
0CA
04F
003
094
37C
35C
040
015
39F
3E0
35E
3FA
354
06D
053
338
3D8
072
3B2
34C
05C
364
394
0D6
022
061
067
37E
01C
3D1
36E
354
01E
395
3C7
12F
3C3
3ED
0F2
01B
036
0D8
02A
098
029
3CC
015
3A0
0FE
060
388
3FA
012
011
3B5
0A8
3BC
3D7
01A
06B
014
3B1
035
0E5
337
00F
3B7
091
0AA
097
3E9
2D6
3EB
0D6
070
017
39B
37D
0BF
393
000
32B
3FB
0E9
3B7
39A
034
0A4
039
358
3AB
066
04A
040
3CB
36E
034
030
334
099
05C
02D
05A
3E6
02F
019
3E7
050
3F5
033
3E0
370
009
04F
0AD
3F7
379
047
080
092
02F
3D3
024
03C
323
030
3BC
003
0A5
06C
389
394
01C
005
3EF
311
0C8
375
3BD
3A7
3D2
058
021
06E
33B
3E0
3CB
3D4
0EB
00E
37B
051
08E
3E1
03D
095
03F
077
007
377
080
3C5
0B0
077
327
3C8
10D
32E
00A
00E
357
007
072
32F
31F
042
02A
092
387
3FB
0B0
3D7
3E6
029
07E
3B7
072
3C8
3C4
0A0
3A0
05F
3CE
030
06D
3EF
001
052
3C4
122
067
3C9
3AF
393
3F1
054
36A
08F
3E3
03D
089
38F
03E
3A3
007
3A0
0EB
3D1
385
319
383
0FE
31F
3FA
3C2
034
3C3
03C
3BC
3B1
358
056
0D6
029
3A3
3E8
0C0
3A6
383
366
38F
3AA
105
32C
073
334
3F8
043
36A
397
3FC
0A1
052
3CC
02D
069
00D
05D
076
3DA
05D
3EF
006
093
062
0B0
139
2D1
392
021
0D6
3DE
35D
3DD
345
39E
3DC
00C
055
003
376
3F1
0EC
045
049
01F
0CA
0A2
039
029
363
09C
039
3A6
00C
046
3F8
012
37D
009
3E1
356
3CC
3DE
34D
392
358
350
383
093
01E
3EB
01E
094
0CA
0B9
083
01B
097
114
3F2
341
3EB
3AD
324
002
041
088
32C
027
07C
0A5
3ED
3C7
376
021
00C
396
355
39A
0F1
033
00C
011
076
01C
386
2D6
383
3FF
316
061
002
35C
3AD
3E6
3F6
009
3F7
0A1
03C
032
036
041
3C9
3FF
03A
04D
34F
0A0
3B0
3F3
395
043
343
387
017
029
0A5
355
359
2F4
322
0F3
044
3D3
0E3
010
09C
392
06D
04F
302
381
3D9
3EF
04F
0AA
00E
38F
3E4
0B9
3AB
38C
3C9
044
096
368
3FF
3FC
37E
3DA
03A
069
32E
088
0A4
02D
03B
0B8
059
03F
3DE
35B
3D0
029
3DF
3C0
0D6
324
01B
070
02B
006
0CE
0C7
00A
353
02C
35D
01F
37D
001
095
2DF
3D8
04D
0A7
10B
088
01E
385
365
07F
3B4
048
007
2F8
3F1
0AD
023
3BE
023
087
35A
081
3EF
077
3CF
3D6
3A6
3DA
35F
04D
3E9
003
05B
040
05E
3D0
06C
37B
376
366
053
2FA
02B
065
091
36F
3B0
0EC
356
337
3FC
029
3CD
3A1
3F7
2EF
3B6
350
08E
05C
03B
2E3
13E
3A0
048
004
3AB
00E
34B
3F2
339
03F
3CB
38F
052
3CE
2D8
081
062
02E
125
020
095
3DB
0A4
062
3B4
0CE
3F8
100
341
013
054
058
39A
032
380
071
054
062
39C
3DE
05C
3A5
047
3C2
2F7
04A
038
012
098
079
035
376
05F
01B
056
082
065
346
390
068
3F2
041
3C2
377
32E
3F5
3E8
0A8
05A
011
003
312
35B
37B
0E4
3E5
300
068
3A6
3D8
04B
3D8
366
0B6
306
3E8
338
32C
3A5
02A
3C4
12A
003
2F7
3F1
027
018
111
372
083
398
03B
39E
3E1
0E2
3E7
3CD
35A
03F
3C7
31F
3E4
07C
3F8
03C
3CD
370
04D
02C
02C
3BD
3F4
000
3A6
37F
067
0F8
01C
352
33A
392
34B
35C
039
332
3DA
3E4
341
033
391
387
007
3A9
0BF
3B9
371
010
029
0E9
063
09C
090
386
395
010
399
3AA
006
02B
000
009
339
39E
35E
3A0
3A1
02A
37D
12F
0F5
3F3
05E
319
372
3ED
361
3E3
07A
08B
2EC
0BA
033
35A
3B8
39E
05F
00A
3D9
394
11B
394
04A
3B4
3D6
0C2
36F
3E1
03F
368
04A
32C
056
3D9
00A
023
356
3C0
0AB
322
05C
028
3B3
001
0CA
017
029
071
016
3CF
0BE
3F8
0AB
041
049
046
3C3
3D9
03D
36D
0DA
040
01F
327
3C9
045
03A
3F6
008
385
3D6
078
2D0
3BB
3AB
3B6
3F9
07C
3BA
3A5
3A3
01B
3DE
0EF
05C
3DF
3B0
32C
3C7
0BB
06F
302
009
3D9
025
09B
2A8
33E
3C2
3F1
3FF
35D
0BC
3F8
3DE
00E
06F
30F
380
05B
3A7
0B5
02C
102
3C9
3D1
380
37E
0B8
04C
0E7
306
04C
15D
3EA
396
3B4
3A2
022
3D6
3E5
2CF
356
395
01E
33F
3F2
3F7
36F
03B
38A
3E4
05D
337
38C
08B
045
3D4
369
02F
3CC
086
354
2F5
042
347
363
32B
04F
3C9
355
05A
3A3
01A
00D
094
0E8
3EE
014
305
02E
01A
0A0
030
392
06F
362
3CF
028
31C
03B
344
3FE
095
354
08C
087
3CA
3DF
020
00C
0CA
3D4
07F
36B
329
37B
003
026
3DF
0D9
3C4
3BB
01B
371
3C3
006
328
02B
070
02A
381
35D
103
0D2
10E
3BE
02D
00F
3CD
046
356
02E
035
003
3A7
03A
306
3EB
07D
107
392
017
077
0CF
366
369
39D
3EE
092
3D4
0C9
36C
083
3A1
3C2
3B6
11D
3C0
020
323
2F1
370
018
3E3
034
0CE
382
3BD
3EB
3AC
009
3F2
3D0
347
051
10C
3E1
074
35D
043
07B
3D6
351
06F
3CC
391
374
043
2F4
2DF
026
00A
11B
375
013
3C1
3AE
028
033
3D0
391
0A2
337
350
054
3DD
0A2
3AA
051
3E9
070
0A1
01E
025
071
0AC
370
3EF
03B
365
394
389
3E3
044
3B5
37C
0D2
09C
007
013
051
001
059
3F0
02B
3ED
399
066
035
3B1
0B1
3C5
06E
046
0BF
0A4
3E1
3C2
387
3BE
089
397
340
0C4
367
391
38B
2FE
38B
3A8
036
04C
036
3F9
060
34C
062
0B0
3FB
371
011
3E7
3D9
0A1
036
08B
349
2E8
0E3
3E8
003
0A5
3C9
387
334
372
3DD
2D1
025
032
3A0
023
2B4
338
0CF
076
39E
378
3CA
346
32B
02D
39A
385
392
327
3E4
05D
3FC
09A
037
080
09C
33A
04A
0BA
330
039
096
340
3EB
001
315
028
09E
007
34B
102
33D
026
04A
3EF
0A3
3F8
01A
056
34F
088
37D
01A
349
372
08A
0A3
067
388
35E
05B
0D6
0A1
023
0B6
038
010
3BE
324
3BF
0A5
363
000
3CA
03B
021
3B2
024
055
116
39F
052
086
0C4
371
3DB
0A9
38D
39C
39C
062
0BF
3C2
017
029
385
3B2
01E
0D9
00C
063
090
05E
106
3E0
02B
14C
07C
34B
029
3D5
0FC
052
084
3F5
3A9
006
05D
323
027
01F
3EC
004
3DB
3BC
030
3DF
09E
07E
07E
077
0DF
090
089
3C3
00B
0DF
03B
075
085
3FA
068
349
3DC
38E
0B3
3B4
39D
044
057
042
07C
3E5
3A2
343
047
028
0A2
0DD
3BD
0FD
080
13A
39A
3BD
0FB
0DB
006
030
3FA
071
3AD
10F
059
09B
04A
0A7
061
081
3F8
035
399
02D
064
049
021
3FA
361
019
0A7
352
396
0DA
3BF
3AB
07C
005
3B8
3AF
007
3F0
0C8
389
36E
03F
345
00F
083
08D
377
399
3EC
030
3D1
3A0
3C6
0A1
3A0
3D8
397
3F7
384
004
335
07C
3D6
3F6
000
31A
0A1
059
3CC
054
2E9
023
04F
01C
3B8
016
361
3DB
06F
3A5
383
043
3E2
080
3A2
3D7
3E2
2E0
05E
015
109
3A2
3DD
37E
070
063
326
0A1
3E2
3B0
35C
3D8
019
38F
343
3AF
3C3
0A7
068
04C
356
3C1
3B5
38B
0CA
3D3
382
021
035
3EF
3F3
31E
3F6
398
040
017
3A0
0A7
057
331
0B6
005
053
398
371
3C3
391
032
3E5
3B8
072
3D0
05E
396
3F1
3E4
045
012
344
08A
032
038
01E
00F
3C8
071
3D8
3D3
3ED
02C
3BF
2F6
005
0A6
397
3BB
063
03F
38F
00E
3BC
00D
0D1
333
007
0AE
3E9
0D2
3CE
3FE
054
36C
01F
0B6
006
075
084
370
356
375
05D
3B3
031
028
3CF
314
351
004
359
3E9
02D
063
002
3AD
3F5
024
35E
390
047
31C
09C
0B0
0EE
381
35E
3D1
368
0E3
0BD
03B
064
365
386
355
0FD
09A
0AF
021
2F9
3F5
38A
0CC
012
074
00B
019
3DD
302
3E9
3E9
3ED
3FC
393
3BA
0CB
03F
3ED
3F3
3CA
35A
3AF
39C
079
361
383
36C
3AD
088
3D5
04A
3A6
059
3A2
3BB
3A6
0E4
3B8
06B
0A2
387
3C3
024
056
0A3
37D
023
006
07B
033
0D7
3F2
011
3E4
0A6
059
075
378
06C
0A8
08C
399
3C8
003
2E1
0AC
377
076
395
38A
02D
027
3A0
3F4
087
011
03D
3BE
00E
3D1
012
3FD
3E4
039
31F
376
3E0
02C
057
0B6
038
0F9
33F
05A
3A2
3F9
3DC
389
09A
3AE
3F0
088
2AF
027
0AE
373
3B8
0BD
0BE
3C2
3AC
315
388
3E1
016
353
36A
107
0F5
3E8
0D4
315
0DC
35A
0F9
038
389
3D7
082
3E3
161
3D0
064
376
03E
006
123
397
0FF
305
10D
3C3
002
3F6
0A4
3DE
337
39C
07B
3DC
0C5
393
042
07E
385
026
3C9
3C0
07A
0DF
070
3A2
32E
32D
07C
06D
33A
02E
092
04E
350
3E1
395
35A
3BA
3C9
398
2D0
0E2
3EF
33A
0DB
063
3E3
052
060
3E5
006
09F
3C5
3B4
2D7
37A
02B
3EF
070
35A
0A7
3F5
065
36F
361
31E
3AD
02A
309
107
08A
3BA
0E3
086
06F
3E4
391
32E
07D
057
3E8
349
046
3E5
3A2
3C0
37F
019
37E
321
083
37C
3B8
0C7
340
08B
0F1
3DA
033
367
3FB
3FE
3DB
010
074
0B1
3CD
03D
0D2
373
349
3E8
3EA
047
3D4
327
3FD
39E
139
2E4
36B
010
0AA
388
05E
3D1
0D5
099
3C6
37E
3ED
026
374
365
2AF
038
3D6
3D8
3AB
06C
0DA
04F
103
085
06E
3D0
00D
3CE
092
025
07E
3CC
3DF
15A
3E8
3D1
387
03D
396
044
3FB
3EA
2BE
37C
04B
37C
00C
074
3FF
2B5
32A
066
3DD
060
2F6
05D
2E2
3EF
022
063
097
01F
37E
04A
38F
09F
3C7
018
367
05C
11F
04E
38D
018
04E
05A
05E
072
3A6
3FC
3AB
3E2
343
05D
08F
3D9
383
076
377
38B
395
3A0
06A
326
04E
082
3A3
3C9
3D6
03E
073
0AC
08D
048
34C
02D
0D5
0F3
0F3
398
0C0
337
062
0E5
394
378
39A
36C
003
304
31A
036
0FB
02B
12A
075
3FA
0A2
03F
012
3E8
3A3
08E
018
037
3E5
06B
00B
045
026
335
039
03E
3ED
017
0C3
3FB
3D8
0FE
063
01D
399
051
00C
3E5
04D
385
0A0
3F8
3CD
399
365
361
0D5
3E8
007
3BF
3D0
005
2F3
3E3
06F
37F
09D
090
036
027
34B
041
046
3C7
088
3E9
0AE
0B4
017
100
398
3DD
0E2
0FF
33B
3C9
3F8
3E4
0F9
387
033
3D9
03F
0BE
3DB
0D8
0C6
01D
2EC
055
076
023
03E
08C
3F0
395
317
370
097
3FC
3BD
023
082
041
021
34A
027
385
0E2
01E
055
3CF
00C
3BF
376
3CB
0A2
040
034
3E7
2DD
3C3
05C
022
0B1
3FD
03D
047
336
3FC
01E
3A3
355
3E9
041
039
345
0A6
09D
0C3
065
0DC
3FA
02E
37E
0A2
339
121
3EC
030
3D1
3CE
06B
009
075
359
374
3EF
038
378
089
3A1
34B
372
383
3D6
3D6
3BA
035
11D
3A1
004
31C
05B
120
07B
005
378
349
0DA
02C
399
3E5
01A
0C9
023
3CF
3E2
050
0AC
372
086
3FA
06D
002
045
3ED
01B
03C
2EF
32E
042
12C
3E1
02B
04B
031
00D
3FA
39A
033
303
3B8
056
343
038
3AF
0D3
0AB
110
01F
38C
36E
0D4
082
02D
09B
0D8
3D4
350
3D6
113
072
07A
2F8
3CC
3B4
0E0
046
399
033
0B5
3E5
00E
01C
04A
00C
0AF
035
086
0A2
0B9
3BF
065
007
017
3D3
2E6
3BF
044
3AB
05C
3D8
03B
04D
069
08E
3F1
3B1
00C
3EA
3FD
0FE
071
039
3C0
3EE
02A
009
05E
3C3
060
03D
3A1
03D
343
34A
057
375
03B
393
031
380
3BB
381
08F
356
0B1
054
009
0B5
00B
0A6
377
027
03C
3BC
3C9
00F
031
019
0C0
3CB
106
384
0D1
38A
0A6
3F9
04F
09C
031
099
3A8
3A0
068
3AB
02A
3A1
042
069
388
04C
034
327
072
09B
00C
017
011
364
39C
073
017
07B
020
05C
07C
01F
383
339
006
3BF
387
3A3
3DB
056
36A
3AC
026
010
3DB
3CF
3F9
011
095
3E6
068
3F9
3E0
342
06C
047
3BC
3E7
34C
34E
08C
06F
3DC
089
0F8
002
0AA
3BD
324
058
01B
038
3D5
020
3CA
02B
305
002
013
020
046
0CE
07F
3CC
3EB
3D3
08B
04A
3A2
3D1
0AC
023
06D
036
03E
07F
388
0AE
39D
128
030
3C7
040
335
3E1
3A7
001
011
021
02A
0C8
097
3FC
34D
054
3DD
395
3FC
305
37F
2F1
38B
04C
0D1
0D7
098
0DA
051
029
0EB
3B4
358
040
339
3F8
0AB
3D0
31B
005
02E
0B6
025
3DB
088
02B
015
002
001
06E
0B7
3E8
030
022
3EC
2FF
073
3B4
356
367
3F3
028
047
052
34A
019
320
33F
3EC
37D
093
031
364
2F0
08A
042
09B
3D1
341
384
036
342
072
362
3D1
071
0D0
059
088
006
011
009
0D7
085
3B7
031
106
041
353
013
3B1
3D6
041
037
3A7
39D
03A
2C0
0C1
3F3
051
396
08D
3C1
3B2
3DC
079
07D
38C
05E
114
09C
073
0A4
034
05F
07D
00D
02E
04F
2F8
004
0F9
040
098
041
3E0
01A
3E3
370
3F0
3B9
02A
059
018
3B0
3FC
3B4
02C
018
3E2
05B
05C
04E
341
310
012
0CB
045
363
036
316
014
02A
375
3C2
04B
3B2
39E
3DB
3D5
029
3FB
3AE
3CE
044
37D
00D
3CE
3AC
0C1
391
016
37F
08D
031
3CF
3ED
01B
3F4
3C1
3CD
056
008
032
3AF
3B2
000
053
055
35E
398
353
3FB
066
05F
3FC
024
3F0
026
016
025
021
339
3E3
3D1
095
038
312
370
3F8
3CD
098
381
013
04C
025
3B1
3D4
3D3
0B9
3CC
052
38B
061
34A
3E2
3E2
05E
2FF
07E
0FC
084
392
3EC
070
370
013
38D
3D8
3F4
3D2
3E2
013
0AB
3E5
020
07F
3AA
374
039
3AF
395
03E
01E
061
0EE
081
344
3F8
377
059
3DE
029
3CB
02A
02B
0C6
03A
040
3A8
3D8
011
3DD
001
077
2FC
045
00C
05A
370
3F2
371
3AF
340
0C9
3CB
361
0DF
0E5
3AC
3DD
078
3C6
3DC
08A
042
35F
06D
031
017
040
3C9
005
032
3F4
061
3F7
003
058
00F
080
3D9
3F9
357
049
012
01B
395
0E3
049
0FD
3F8
023
388
034
035
047
3A1
393
3A5
011
04F
06E
043
037
3EE
2FE
378
0A6
073
3E0
07A
048
3AC
003
0CC
059
00C
3BF
046
03E
07E
38F
026
3CE
042
002
3E3
35F
3BE
05D
030
3C8
101
3FC
0F3
064
35D
0DD
395
0D4
3CE
02C
389
3D2
081
399
3F0
349
38E
03E
0C5
0DB
085
016
09B
0A9
09F
3CB
393
3C1
39E
039
363
07E
3A6
368
3F0
066
3BF
30A
3FE
3E3
06D
022
3B7
0E9
3C4
2F6
007
3AF
3BC
056
022
3D6
2D3
075
3FA
36E
0AF
315
02C
013
04D
3CD
011
38B
028
0AF
034
3D4
37E
3E4
0DA
387
365
069
076
3A2
3C2
377
090
38C
083
08A
3BC
05A
360
371
0C1
3A8
019
3B2
3CB
337
04E
3DC
043
103
366
02C
008
044
326
0D9
32D
030
00F
3E9
005
075
384
0A4
06D
3C2
3EB
0F4
31C
382
099
392
004
388
04F
319
3C6
018
00E
3DE
062
3D0
013
007
011
3B7
35D
3BF
3A7
3EA
076
3BA
0D7
327
117
3FE
3BF
034
008
3B6
3DD
0C1
375
02E
38C
05E
376
3A9
3AB
00E
3DE
3F8
3C5
3C7
3DC
3D0
005
3F2
2E8
058
3F9
023
3F4
3F7
017
002
3A5
321
3EB
085
0CD
3F4
34F
03A
088
056
029
024
0BD
3E2
046
3A1
370
390
02F
026
3F4
025
0C2
3EE
0FA
2FB
005
3E4
39D
33C
3FD
00A
3AE
3A2
039
399
3BD
013
3E6
39E
06D
337
3D4
3C4
3F9
38C
0EE
029
3A5
099
3DF
08D
02B
0BE
09B
045
00F
377
02F
045
373
3B2
323
38C
32B
3A6
034
3A9
38E
3A1
3A5
399
3B9
318
053
071
034
3F4
3BC
38C
058
3CF
091
015
345
05F
039
39C
3CB
3EA
351
05C
017
3FE
3AF
2E7
3CB
00B
37C
3A7
0E8
327
3D0
021
005
04B
3C0
3D0
0E3
3FD
085
3A5
394
02E
04E
346
321
37B
02D
3EA
37E
0E2
3F0
024
034
3AC
03A
358
3D6
3B1
3DC
018
3F8
3F8
3F2
000
06F
325
3A3
3C2
031
039
0F1
394
33B
3AF
140
3B6
00C
3DE
030
05E
3C4
37A
3DF
002
0C3
0A1
3F3
080
02E
0CC
010
087
34A
023
35A
3A6
3F2
083
3DB
3C1
3E8
36E
0C1
092
04D
0EB
052
39F
0AA
30E
00A
3D0
048
3ED
0F9
000
01E
03F
062
3FB
00D
3C9
37C
0CE
0B1
3BB
04E
376
3C9
043
028
091
088
00A
009
38B
08C
329
35F
066
390
00F
3C4
016
3E6
37A
049
06A
02B
361
352
03B
06F
3FD
061
3E3
33C
039
05E
3DD
397
368
015
060
3FA
390
3F1
320
36B
092
3CA
01D
067
040
00D
06A
07B
2E9
3DF
018
3EF
383
38A
08E
006
3F8
078
3D1
075
09A
389
312
35B
07D
072
056
017
387
377
3F1
3F6
32F
0D7
3D4
3CA
0CD
049
392
0A2
3BD
38A
3E6
01D
0A4
031
328
072
078
3C5
3CC
099
05A
3F3
116
356
3CD
0A1
014
3D9
073
3EF
06A
367
3AD
10C
3D1
089
3EA
006
022
2BC
353
3EE
3D5
3F7
002
018
3B0
3E5
31C
3B8
3AE
003
009
3FA
366
05D
365
029
3F7
357
3B6
026
04D
3F4
3CE
2E7
340
379
084
082
39E
3C0
394
033
3D3
3AD
3FD
345
025
3E3
069
001
3F4
016
067
064
3B5
3C4
313
3E6
0D0
08C
003
32D
346
059
045
080
3E2
02A
002
3BB
3E5
3CA
3E5
04A
38F
3B3
3BC
06A
087
3BC
36E
388
0AF
3F2
007
05B
3E0
067
3AC
360
3DD
094
0B4
01D
05D
096
3D9
0A0
07D
3CD
024
3F6
33D
3A7
085
3A7
062
06B
3E9
3D9
0B8
2E5
034
02C
300
0A2
07E
0A9
091
3A5
391
036
315
013
3AC
3A5
3ED
055
019
3B9
394
3AF
057
054
3C8
006
3D0
3E3
3EB
3EF
025
054
0C5
396
098
020
3E1
3AE
3EA
3E9
0DA
00E
06C
056
3D0
053
3A4
3BE
3D2
0B8
061
398
39F
05A
3B2
32C
37A
027
3EA
3A2
099
30F
3C4
09A
05F
39A
3E7
39C
08F
06F
003
377
06E
372
302
09F
0D2
011
36F
389
36E
3BA
3B3
3C5
089
045
3BF
047
024
083
333
032
3BE
0B3
3C1
065
081
095
013
009
0B1
3E3
0B1
3E6
3C2
097
36E
031
3F8
3CA
04F
033
04E
06F
018
0B4
3DD
3F5
35E
077
39D
356
0A6
03E
382
2CB
03A
36D
047
34A
04B
024
318
076
100
036
386
3B4
3F5
09D
351
3D4
388
38E
399
073
3B6
02E
3A2
024
3F4
3C3
3AC
326
396
078
03F
364
3BE
039
020
37F
05C
3E7
3B1
034
3DF
0C0
3B1
3FD
39F
006
0E8
030
03B
058
0CF
046
06B
04B
0B8
09D
04A
054
3B2
055
082
0CC
36D
3CF
042
063
334
08C
352
0A4
3EF
052
037
009
062
01C
385
028
030
349
016
3D1
040
063
3DD
0C0
069
06E
012
04B
007
3F2
01E
038
03B
379
3C1
3BC
321
3A5
326
3BA
32A
023
081
043
3D3
3ED
33B
3E7
022
383
3E6
010
0DD
372
354
0CF
3E2
3C5
319
08F
0BF
3D3
115
056
30C
0BB
03D
08D
3E0
3A2
3ED
394
0D4
3F8
3E7
363
34C
3F8
02F
051
3D3
017
3AA
042
016
080
3DB
03D
0D9
3ED
388
00F
060
369
048
3C5
3D0
03A
088
37B
3DA
3D0
008
352
0FA
040
054
0F2
02F
093
3BE
0A5
360
017
0AD
3F6
393
34D
3DE
33C
3CF
3CA
0E6
36F
083
3F9
05A
0DA
01B
3C8
04C
094
378
3FD
3CA
01D
389
3B8
3E8
0EE
0A3
38B
064
034
038
08D
0BF
034
096
36A
3C0
0B3
004
090
070
3A4
395
379
061
3BE
030
010
004
0E5
01D
3E0
0AB
058
077
31B
083
3C5
3AE
000
37C
067
380
376
0F2
3DE
3E4
361
3F2
05D
06D
04C
3B6
3F3
3C3
026
308
0CE
031
047
3CC
3A7
3A4
389
3F6
04D
3D0
3FB
3F5
383
061
06A
3D7
087
0AF
009
104
3A1
3C8
02F
047
095
077
01F
3BE
005
08F
325
01F
06E
0AA
3FA
044
3FD
34A
34D
096
3BD
3D8
3FB
09F
018
395
0AB
036
00C
3B4
3EC
3B8
0FA
37E
380
36B
04F
026
066
3E6
3D6
3C7
060
060
3AF
3CA
062
3F4
32C
3DB
0A6
3A5
024
10E
3F7
011
007
058
3D6
3DC
3F5
3E1
34B
06D
3E0
385
3A9
3FE
2F7
05D
101
3F4
019
397
3D7
3ED
3EE
3E4
01C
375
34B
062
033
02C
058
059
3C3
3B9
08A
094
39D
03B
3EE
09F
007
37A
3F9
3CC
0AB
07E
0D4
018
3B1
02D
022
08F
032
383
3CB
0D9
0E5
3FF
39C
3B8
3F2
318
3BE
087
339
009
075
3CF
060
398
042
049
053
03E
3F8
368
3CC
3BC
01A
3ED
32D
3CF
09E
066
389
3B6
376
32D
0F6
38C
021
32C
3CB
089
319
348
32B
357
3E7
3CF
034
047
398
05C
08A
018
01A
042
3DA
31A
000
3DE
0CB
0CB
39D
019
000
02F
35A
3CD
00C
377
3C5
085
368
08E
056
06D
3EA
39F
0FA
3B1
3D2
399
0CA
009
037
095
0BD
3E1
067
132
36F
0BD
301
3EC
039
3BE
381
09B
025
3F9
065
071
035
020
025
377
3A2
02D
0F3
383
058
3E0
05A
394
300
37A
357
02A
02A
36B
0A8
3F0
053
3C3
3C0
02C
3F3
05A
069
018
059
394
344
37C
350
0C0
3E9
3ED
0A1
3CF
3E6
3C1
091
09A
02F
35C
3CF
093
2E5
3E7
08A
0A9
388
3F2
36E
008
3EE
003
019
098
3C7
3A4
02F
3ED
2FF
00B
010
095
03D
089
3BA
334
3ED
3D7
32A
37C
011
3A2
32E
000
381
096
364
027
359
37D
05A
037
075
051
09B
37C
3D7
396
3D3
3B3
00B
3D1
33E
073
3EC
063
2F3
04D
061
36D
359
09C
0B0
3E2
02E
39D
096
3E5
127
04C
3FE
3BD
3F6
05B
024
3F6
000
03B
067
37B
3B9
3CC
3C9
0E1
373
0BE
041
3C2
043
3F3
061
3BD
369
097
01B
3B8
384
129
305
36A
049
08E
0E8
370
39A
0D8
00C
319
011
015
06E
062
0D8
3A7
014
305
00E
01F
021
2FF
052
34C
05A
30F
3B6
079
053
398
318
346
063
02E
093
36A
36E
0BB
0AE
0E2
056
3E1
31D
085
05A
347
094
015
3C8
04D
351
35D
3BD
331
01D
3E8
3A3
38D
05F
07A
3E5
054
397
370
0E0
3BE
38F
098
3B1
03F
371
058
3FA
3D7
032
044
336
3B1
3B8
079
3A1
03E
3D5
398
3F2
082
042
03A
035
3A8
3ED
04B
3B3
025
053
2FB
3DE
3D6
3D5
0FA
380
3B8
3C3
00F
390
385
01D
078
352
3FA
3DC
35C
3C9
31C
38D
06C
0F2
3FF
040
066
029
397
03E
003
3A6
058
3DB
01C
3BD
022
348
0AB
031
013
35A
39C
069
025
380
098
2D0
3BA
004
351
0AD
0A3
3DD
147
01A
3EB
3DD
3D2
375
0AD
35D
3D5
356
021
3F5
05A
0D9
056
069
396
0EF
3E1
0F2
322
3DD
337
399
3D8
39A
2F0
35F
076
038
382
3F8
38C
0BB
37D
0A1
3BD
05E
361
3E8
3D9
39C
005
0EF
073
0BA
359
048
0A9
0F0
095
001
3F3
032
03A
05C
3CB
356
35A
025
33A
044
032
067
05D
3A3
056
2EC
3C0
3C1
023
3CB
3E3
025
3CF
362
336
37D
038
02B
075
3FC
35E
3A5
057
02D
081
3ED
0CA
110
0A0
368
3F9
38E
09D
38A
03C
0CA
023
0FB
042
058
399
3EF
398
034
018
3EF
023
37A
01B
3A0
360
3A5
0A9
3B6
3F6
350
351
3AC
3D2
3DB
34C
3F0
01D
3BC
019
3F9
362
090
3DC
3A8
3EC
3F8
3C3
029
33C
391
353
355
050
3BB
028
115
3C8
071
3B2
3DA
3CD
0C7
065
047
0A9
062
0E3
008
086
395
01C
05C
37D
015
0E7
00C
3A5
07A
0CB
3DA
3CA
0E9
3C8
3C1
399
08B
056
01F
0DE
31E
043
0B6
354
3D1
006
3FC
0E6
07B
3E8
3C8
308
336
3EF
005
0CF
073
3E2
378
3C1
3AA
00A
048
071
00F
3B8
326
097
084
0B7
3F2
033
372
037
06B
3F9
338
3D0
029
016
3BC
3FF
38E
030
304
09F
044
05A
080
355
34B
3F5
3D8
00D
01A
0C0
027
038
110
0D2
3B3
045
019
085
3A4
368
0B1
09B
3F2
377
099
037
3A3
0B0
3B9
026
0AE
046
39B
024
02F
0B6
000
03B
0C6
393
022
0D3
07A
04A
00E
0F3
38E
36D
105
3F5
3B7
2F9
025
0D6
0B1
049
06A
3F5
3E0
042
3E1
3DC
030
063
0EF
010
30F
363
3E8
05A
3F8
3AB
386
371
3AC
0A7
022
369
2E4
3A7
009
3F8
3B3
00D
06A
055
088
3D5
3FA
36A
37B
04E
377
33E
0D4
3B9
091
014
06E
3B2
3DD
076
349
0EB
063
3DD
085
3D1
073
06B
040
3E3
01D
379
09B
0EF
056
016
3DC
333
00A
36B
0C8
3B2
0A8
01A
3DF
02B
003
349
3D6
384
068
3FA
335
053
3DC
3E6
05A
074
019
0A7
3E1
3D7
01A
3B6
3AA
396
2E6
09E
3D7
3A8
3F4
034
044
00B
060
371
04E
0ED
3D5
098
08F
335
2FC
01E
300
3F7
00A
330
05A
3EF
3F2
05E
3F3
0BA
0AE
321
359
332
332
3DF
00B
3B6
3DA
070
35F
3AE
02F
3C5
0A9
3F6
0D0
3F1
343
09D
331
38D
050
3CC
10D
39C
086
030
3CB
053
39B
3CA
02E
066
03C
39F
023
3DC
00B
0D8
001
0E7
377
04A
3F4
3D0
3AC
3FC
0BA
019
3A0
081
035
0A5
00A
3D2
3D9
3B7
04D
026
38B
3B2
067
035
367
302
042
090
3C9
001
3D2
0B0
3EC
3A0
2CC
03F
0B0
3F0
3B5
3A2
025
030
362
344
09C
083
3DD
3FD
360
025
3BE
01B
3E6
3AE
378
0A0
056
019
398
310
3CA
33C
30B
3D9
058
36E
051
093
2F4
3DB
07F
0FB
3C2
3D3
3BE
0A8
07E
03A
02B
075
0A0
051
3EC
03F
063
01A
3BE
3BC
01A
00B
026
3E0
039
073
3E0
040
05B
2F6
39D
003
3C1
3C8
3F8
071
094
3C6
3E6
068
337
362
034
32B
340
098
39E
36B
30F
3C1
043
315
00F
094
05B
33C
3A6
07C
01A
397
34E
0BE
3E2
3DC
081
392
3CF
06C
3D5
065
3B9
3C6
3C1
3BF
059
01F
362
3BE
36A
3BD
074
371
318
34D
03C
0B8
3F4
3E1
00A
053
044
3E2
381
3F8
025
02A
387
020
37F
337
3CC
3EA
043
3D3
023
03F
064
3DA
301
3C3
3E3
00C
098
3A5
3D9
090
3F9
360
3B1
073
027
32D
00F
048
330
3ED
374
02C
375
00F
3F7
05E
01D
390
360
02F
37A
3AC
342
3C2
086
38C
358
3BF
001
05D
06B
322
019
049
3E6
046
0C6
37B
007
331
3F9
3DA
3D6
359
3A3
3A5
008
012
055
071
0C0
106
0F3
039
063
37C
3A0
3B9
306
3AE
362
38A
070
008
0F6
3FE
096
39F
05F
0AB
0F9
062
08F
10E
0DB
376
3E3
335
062
09C
373
04D
39B
3D2
376
386
019
3D6
3E2
011
043
050
02D
360
360
3AA
05A
0D9
06A
023
3D7
3A8
312
001
3F4
054
3B3
08B
3C3
3E1
09D
379
30B
33C
086
3F5
057
354
02A
3D3
399
36B
33C
07B
3E6
009
042
0D3
3C7
348
074
009
071
32A
388
3DC
060
3AD
35C
081
386
3FD
3F6
029
3F9
34E
023
018
124
3CE
3CA
0C1
34D
326
3D5
3F7
3E4
39A
33F
324
0DC
0C5
347
3E8
3AA
021
05E
009
3F9
3D1
3BA
054
397
029
0F8
3A9
3EA
0D3
3D9
02F
014
3DC
3DE
3E6
037
3B6
386
335
3C8
000
3E8
0F0
378
059
35E
06F
09D
09B
037
019
01B
36A
399
0D4
313
3E4
04D
39B
3FA
372
3BC
071
397
088
030
11E
0D0
3CC
044
35C
086
0A8
3EE
149
020
00A
353
3C4
036
35F
3FA
379
3FF
386
01D
3CD
0F1
03D
3D4
066
3D3
3EE
025
3D9
058
000
07C
3A4
364
370
113
361
0FC
05F
3E1
3D1
3B7
3E0
328
066
3DE
3A4
074
037
03A
085
3FC
385
012
019
374
349
0AD
3ED
08C
0B5
006
3BA
3DC
2C2
3F7
065
04E
393
07D
337
36D
3E1
078
0DE
3CE
086
3ED
36B
0F0
0CC
067
3F0
38C
3B0
393
01A
387
3C7
373
036
051
0AB
0AD
3E5
395
05B
06C
050
0CD
0B4
3FD
0C3
316
3CE
0A3
35B
39A
319
3A9
38B
04A
0A7
3BA
051
3DE
12E
2F2
3BC
3BA
0AB
060
02C
3D8
3A2
0D8
025
06C
3DB
0C5
0D9
03A
38E
37E
399
3D1
3CF
100
3B1
3F1
3B4
3CF
067
37E
00F
0C8
026
3E4
008
34D
38F
039
055
01A
046
123
3C6
386
072
3C3
394
0B5
085
0B9
3F9
008
2F3
04B
2FC
02D
3C5
380
3B2
121
30E
39E
3F8
383
36A
3C9
016
0A5
062
039
07A
3C4
030
394
00F
385
380
0A7
356
32C
36A
39C
047
3D2
39D
3BB
373
3A6
09D
3B0
030
01D
05E
3D9
3F3
3EA
3E2
3BF
3E6
04A
01E
019
3C9
0F2
09C
03A
097
3C2
074
328
366
398
044
30C
015
029
3CC
32D
081
033
012
333
066
09F
3D8
38D
3AE
06A
3A2
30D
09A
3DE
083
004
0A1
074
2C5
3F9
372
38A
367
011
393
347
365
025
087
08A
381
02A
39D
3B4
062
0A9
3F8
32C
39C
010
3F4
01E
369
3FC
030
0F4
0B7
028
3BF
124
38D
391
395
37C
3DF
082
02D
379
312
378
300
0A3
397
32E
010
056
389
05A
37F
00F
3C0
2F9
02E
3B8
01B
3D8
3CE
03E
3EF
338
3A5
2EB
036
04A
05E
018
3D1
3D2
041
10B
0C4
0B4
3C8
097
07D
2F2
3ED
3CE
3C9
3D4
309
3E7
06F
086
3C0
052
000
0EC
315
09D
394
013
034
3E3
3F2
00C
385
08C
040
004
322
395
396
034
2EF
005
0E1
01E
0A2
379
08C
3CD
34E
344
05F
008
3AC
01A
3B9
061
0B7
07C
06C
09D
378
3C6
010
054
3EC
088
02E
0A8
318
085
00B
3A8
3F3
3D6
3B7
362
3E1
069
302
3D0
371
3C6
3E1
009
057
0CA
10B
38F
07D
0A2
00E
36C
3D9
356
00C
028
371
3D4
072
00A
0A6
038
088
084
3B1
095
3EB
060
376
028
0B5
049
397
08A
3BB
0C5
0AA
039
041
387
353
0EE
32D
02C
3D4
102
3FC
357
30F
2DD
35E
31B
3C5
3CF
3A3
0FA
024
08E
2F4
03B
046
015
3B7
00F
3D2
381
023
024
05F
3E2
39E
039
39B
379
074
042
3E2
030
010
3FC
3FF
072
09B
075
07E
3F6
3C7
11D
0C1
02F
3F2
0AC
3C8
00F
164
010
38F
0CD
3E3
394
087
053
129
3C2
3FD
3D5
07E
2D3
006
058
3A0
035
3C7
35C
3CB
3C0
06A
064
3DF
332
3B1
04A
3E9
0AD
382
028
342
0B4
009
06B
010
3F5
095
35B
03E
037
012
380
3D3
00A
3C9
2EA
067
386
3D2
3B1
3FC
107
0D2
387
3A7
07B
3FF
2C9
02E
0B1
371
062
3D8
022
3B1
3D7
008
36F
011
33F
334
3F0
3A8
035
0AD
343
063
3FD
39B
32B
39D
06D
39E
364
035
328
3F6
389
3CA
3F1
3A4
3F6
398
340
01A
010
091
050
3FD
09B
044
045
341
0E3
034
0BB
052
0E6
391
315
066
0DA
060
359
094
098
025
059
06D
0A1
324
077
3BF
3FA
036
3EB
3B3
0C9
0B3
37B
055
099
09D
3DF
3D4
104
0A8
08D
3DC
3B3
06A
39E
3D0
04F
094
3A6
38B
3AA
390
087
07F
05E
038
376
32E
02D
034
3D9
380
3ED
052
3C0
007
05D
080
039
008
3C8
096
028
3B8
38A
360
049
036
3C0
033
3B6
3DC
3F0
35E
38C
0A3
38B
3D6
05E
3C4
38A
09D
0B3
3F1
3CA
306
3A0
398
03E
10C
003
344
07D
398
055
3B8
3A9
057
323
3AC
3EB
393
115
3A9
3E5
3C0
029
3A9
3D1
04B
129
3A0
3BB
0C2
33B
314
3D3
32E
35A
07F
084
3BD
027
36D
3B8
350
35C
3DB
3D0
3A3
093
087
3A7
394
099
09C
0A2
00E
019
02E
008
393
00F
020
06D
008
3F1
38A
3CA
2FF
3C2
3DE
0F6
360
2ED
05B
063
363
0BE
05D
03A
3E2
37E
3C0
034
3F7
05B
337
3AB
3B9
3B2
3FE
3A9
05C
031
0E7
338
3B9
08F
0EA
02E
07F
076
354
3DE
3D6
093
064
053
070
0CC
078
3D4
04A
0BC
3AE
019
3F5
350
07D
00F
046
3C2
053
3A9
072
3F7
3B6
3BB
38C
015
337
38C
387
090
35F
3C4
036
076
3C8
31F
397
3D6
3BE
06F
053
3D5
057
027
00B
371
007
3E3
052
399
3BF
0CA
038
095
346
3EF
028
097
086
3C6
3D9
0A8
3A9
054
074
0D8
3F9
388
048
03C
370
0CC
021
047
080
02C
073
017
3E2
0DA
0A8
391
3B4
02B
00B
0B3
069
059
08A
087
045
0B4
042
0CD
3B8
082
00E
087
084
01B
0FD
021
3E8
3A7
092
017
3B5
3C3
06A
07E
396
043
01F
01F
081
09F
34F
3A4
3D0
3D5
051
036
065
07E
37C
378
0B7
086
083
348
09E
04E
3A7
3F3
3AC
3F3
03B
051
399
3F1
3B2
07E
00A
06A
385
399
084
07C
37C
3D5
373
00C
3A1
06D
048
39A
3F6
388
03C
353
36A
05E
39A
065
38A
345
088
37B
3F5
000
011
3D8
028
0BF
3A7
092
38D
0DB
025
386
36F
08F
364
379
027
01D
028
057
364
0AD
0CB
0EC
0CA
0C0
06B
3C0
3AF
3D7
059
048
073
0DA
2FC
3C7
3DE
3D6
2C8
3C8
321
11A
0BF
073
317
33B
13E
0D5
07B
02A
3D9
3BC
37E
054
05B
3F0
34A
066
047
3C2
334
363
2FC
3FE
36C
3EF
04B
30C
0F1
051
0A9
3D5
32B
0C9
330
059
32C
0D9
396
3CA
01A
0DB
049
006
004
3ED
00E
0A5
0BC
30D
0F2
2F0
0B0
074
097
3E4
015
3F7
01B
11F
337
3DB
3F4
011
082
3C1
02E
01D
3DB
3B2
116
015
3AB
3F3
065
014
34B
07B
3DC
37C
046
02B
086
39B
379
05E
053
352
34E
05F
3D9
054
0A0
3DF
3DF
38C
2F7
0CC
0AD
06C
08A
3D3
37F
3A5
355
05F
360
3AD
058
01A
05A
364
37A
01A
075
046
3A4
2FC
0D2
07F
3A4
2F9
03A
013
08B
089
30E
38B
065
300
0D5
084
3BB
0B6
368
339
3D4
3EF
00E
3BA
0C5
08C
081
38D
3B9
3FA
01F
3C5
392
32D
2FB
06E
3FD
36F
314
028
3AA
3D0
392
020
00D
393
3B8
0C8
03D
039
0AC
3BD
38D
043
03D
03E
322
0D6
345
369
09A
048
0C6
3F6
3DF
3FE
08A
0AC
34C
046
0CD
06B
0A8
3F7
2FF
38F
01A
368
3A7
33F
08E
072
355
31D
008
02E
3D1
028
37D
086
3CB
3BC
3B4
030
3BC
3B0
38E
3E2
059
08A
347
07C
03D
131
350
044
370
022
346
047
0CB
37D
30F
03E
078
3F4
3A8
0B7
3C3
091
034
3E8
350
056
3F0
093
0CE
01C
023
037
3FC
2F1
015
376
36B
326
018
040
2D9
0DB
3E0
371
0EE
3C2
3B6
330
2EF
051
09F
021
3BC
0DE
037
00F
354
3A6
00D
3BD
07A
3EB
3AA
02D
3F7
37C
3B9
3C8
06A
3CC
3D8
3E6
2E3
351
0D2
076
071
00D
057
0A1
060
3EC
0DB
3F0
331
004
022
094
37B
114
003
057
3C4
08E
022
375
0B0
3FC
062
01D
32B
387
3CE
081
3C1
3FC
360
391
11D
07D
32E
3DB
392
065
03F
3AC
03B
3D9
059
3B6
039
3F0
3CF
060
02B
39E
04B
3BD
3C4
3DF
35F
344
334
372
391
3CA
3EA
0A8
38A
30B
02C
346
07C
0FE
0BE
3F5
025
08B
36F
38D
3DA
3B5
0D8
3CD
06C
031
015
3DE
054
063
005
0AF
05D
3E6
38E
00F
036
3C8
0E5
3CA
3ED
067
04D
029
3ED
049
3D2
049
36C
076
397
0AF
08D
34F
32F
00E
02D
385
029
377
36A
016
02A
346
065
39F
39E
0CD
3DD
38E
388
3E4
329
017
3BB
3EF
2FF
3B7
364
3A3
082
0E3
02F
3FC
085
332
3FB
09F
0FC
0FC
0AF
384
3BA
3D1
38E
089
031
334
0B0
39B
0A7
00C
3AC
032
09A
3AA
0AF
3CA
3FF
3A6
376
05F
3E5
0E6
01C
022
3B2
3B4
3A6
0C2
3D7
0B2
061
3E9
3DD
071
002
08F
06A
0E4
02D
05B
3E6
0DE
3E2
3F2
37A
3D3
3FB
3CD
37F
037
067
0AD
3F0
117
356
313
02E
3A1
32F
3DB
091
06A
065
05E
3EC
10C
2FA
028
032
026
3D2
3E2
029
0EC
340
062
010
039
35D
3CE
3FE
034
35E
333
0CB
3DF
00C
3E3
340
3DD
335
3ED
382
026
3CE
2EC
020
3E3
353
073
106
0CD
04E
3C7
3D4
118
0B3
39D
06B
0EA
019
07E
35C
3CD
016
35F
086
05F
33C
020
3B0
07D
3F6
3AA
381
3A2
0C8
3DE
379
386
0F8
319
3A8
027
015
345
104
09F
3FB
36F
087
377
0F2
011
320
028
3E5
3F9
3CB
03D
080
00A
38E
043
3FB
3BB
361
051
3B3
028
35C
008
095
036
09C
3BE
10C
3A7
015
09C
32B
3AF
044
01B
075
3D0
3A2
016
30A
3CA
366
14E
3A7
340
2DF
3B9
393
0B3
014
3E3
3F8
000
3DD
3C6
3D5
02E
3F5
00F
041
3D9
3D4
0B7
327
043
090
02D
34A
388
30A
002
3EF
001
387
3C2
05B
037
0A7
2D8
39B
395
0B9
3CB
3D4
115
017
082
3D4
049
097
387
3E2
3A0
054
071
020
013
3F5
2FA
09F
039
008
31D
3CD
00B
3E5
01C
3EC
396
3F9
010
003
3CC
0C6
09A
3E3
3A7
0A1
3BD
375
3CB
05A
063
3ED
3E7
3CD
3E4
3F9
0DB
017
367
06A
395
025
079
02D
38E
011
02F
3A5
0B8
06A
00D
079
351
0CB
0A4
07F
3B3
3EF
076
02E
084
0FE
0AC
00D
003
348
07D
3D0
069
3F3
019
05F
089
3C8
006
3B5
001
3A4
3B1
098
0AB
3B0
04C
06D
3BD
002
075
395
3BA
051
0A2
3A2
0AD
3BA
0C9
06D
3A3
3FA
342
011
3DA
08F
35D
3C9
001
0D1
392
32E
33C
3C1
0B5
008
01A
05F
074
020
3F5
06D
0DB
375
3F3
086
3AC
014
365
022
35F
3F0
3B4
057
049
0B8
04F
3AA
028
36C
3DE
3E9
003
379
03D
3E2
38A
3B3
3D8
02B
0BB
395
3B8
3F6
031
2F1
0BA
04B
00A
3F3
3E4
3BF
327
3D5
3C3
3CD
3BE
300
3F2
39A
39E
034
014
339
37D
3DC
342
054
0EE
344
3F4
329
053
02D
367
309
09E
3A1
38E
006
001
359
026
3FC
0C9
396
393
0C4
003
379
03D
0B7
039
314
01D
35A
0E6
087
3FB
075
138
367
055
0DA
3E2
024
011
350
365
102
032
3C2
3BB
392
035
0EE
367
103
3F9
083
31D
371
0D0
397
0D2
101
328
34A
39F
3D6
381
3C0
3FE
06F
3B5
39B
3E9
3C1
026
3A0
33D
067
355
3A6
2EE
0E9
073
070
3A1
025
076
33E
02B
02E
149
3D5
02E
0F4
3A2
3A1
028
050
3BC
011
09F
018
062
12E
023
019
0C9
011
315
2D0
370
387
3B9
024
07E
06E
3F0
3C3
096
368
3ED
14D
0A5
162
397
0C1
0D8
3C6
148
3BC
3AD
022
025
3C4
30D
3E5
322
35B
09B
0BF
3EF
103
020
302
0B8
379
35C
304
04C
380
03A
0A2
39E
082
32D
2D8
007
397
0BD
3C9
3C9
01B
38A
004
0A5
014
021
039
370
04A
0B1
0B1
051
3AC
317
362
369
3E9
361
150
0AA
3DE
0E2
044
049
08C
3AD
009
00B
002
09E
0A8
12E
07F
05B
045
336
359
0B4
3CB
374
01C
01D
3DC
01B
0B6
02D
03E
301
0C2
03A
388
030
063
074
3A5
382
30C
336
3DD
3F6
0CD
36C
099
3BA
36B
025
02F
101
001
3C0
0ED
0AC
303
020
376
343
0F3
05D
0A2
3E4
028
0B5
042
041
062
047
3AA
3EB
39E
338
389
006
055
023
39E
3A9
389
09E
082
373
04F
108
02A
35C
007
031
0B6
045
3DC
05A
001
3FC
0AF
0C7
06F
059
023
05D
008
049
3E9
00A
085
0AB
3D0
0BA
3DE
00C
068
028
094
3E0
3EA
385
077
0D5
364
3DE
07A
02A
31A
027
065
3A4
351
3E4
3E5
3A8
329
3FD
0AE
030
384
0CD
02C
0D6
396
03B
063
368
3B4
024
334
036
0C4
063
343
032
03F
380
057
0C9
3B1
383
037
3C1
071
063
08F
009
024
003
3C0
33C
00E
394
0A9
00C
33C
3D8
381
0FC
394
3F4
055
3A8
364
000
362
09D
3E5
3DA
0FF
3E6
3FE
391
3CB
03C
0A2
001
38B
328
3C8
3B0
079
387
058
015
373
06A
3B5
0FE
3EE
042
3B5
3FC
391
3E4
003
06F
098
004
3E3
082
3E2
3D5
0DD
32F
381
07B
2C1
36E
3C7
029
10F
38F
046
02E
3B1
02C
046
356
3CE
36B
046
00B
3FF
050
0A9
075
361
333
009
391
08B
067
008
0DA
004
373
032
11F
07A
002
06C
3B6
3A6
309
376
3D3
3A4
024
09E
03A
01E
3CD
3CD
0C5
0B5
001
0C3
390
3E8
2FE
058
3B4
080
3E7
062
344
3C9
08B
003
300
073
323
0D6
06E
036
3E5
3DA
383
37D
38C
098
076
36B
04B
01C
394
020
367
379
034
0D7
061
06C
077
006
04D
05F
0CF
0EE
090
098
39E
37A
07B
3F6
045
007
3A8
343
34E
33D
067
01D
3F6
3E3
004
3DF
007
018
049
085
055
325
013
02E
072
388
005
00E
340
038
34B
01B
051
381
3B8
0C5
34C
124
3EA
39D
317
38C
3BD
08D
00C
36A
396
06B
088
054
01A
007
3D9
3DF
079
37B
3ED
3E6
0AD
019
3DD
0A3
087
3F6
3C2
3A7
020
095
33E
036
3C6
006
03C
34C
3E5
3B9
06D
03D
395
09B
319
353
041
3A7
3F0
065
031
036
369
0B3
379
030
015
098
37A
04C
3A1
392
3AD
3AA
048
030
3E1
3C4
035
3AC
3CF
34B
03A
357
2FE
3BC
3EB
00C
098
3FE
022
0B1
07E
105
01D
015
2E8
3AD
04E
37B
394
0C1
3DA
345
0C4
387
3A0
026
34C
37D
3E0
02A
12F
12E
39F
008
342
3EE
333
004
3BF
115
079
39E
396
2D7
097
0FD
02E
313
330
3BE
087
07C
3E6
099
015
03C
3D8
3E3
068
04D
3FB
35A
0B5
35B
373
368
3E0
34E
2FE
2EC
079
04E
37C
3AC
038
3F2
3F2
3AF
3A8
33A
03B
334
00F
36F
081
001
3DA
3A8
3F2
301
3DE
3E6
0E5
0AB
397
34E
0E8
0AC
02E
3D2
3AA
352
014
098
3E1
08B
058
016
36A
0A0
0EE
3B5
3D0
093
002
099
0B5
3C5
084
3B8
3BC
005
3BB
084
36E
100
01D
310
0F2
025
05B
330
35A
3A2
3FC
304
00A
00E
3FD
006
113
3C4
3D1
3E5
007
309
0AC
06B
360
390
365
3AB
0C7
31E
098
37A
3D4
387
355
0EB
3F8
053
01E
015
3D4
0A9
3D8
049
3CF
3B6
0A4
07B
356
085
352
370
3B5
07E
375
01F
3A6
3B3
141
382
395
308
006
31B
096
3ED
036
3BB
3BA
0FF
0B9
393
39C
012
3B3
3E2
333
3C2
036
3B3
336
39E
02A
022
04F
3CD
3EF
045
00E
030
389
3E8
308
0CC
0CA
390
33C
3FE
02F
3C4
3C5
3B8
3CC
0B5
386
363
33B
38D
3DF
0EF
069
308
3DA
07A
3FE
09F
008
048
04C
055
058
3C2
056
0C9
3FC
023
06D
3A4
352
2EA
366
044
3F5
045
047
3B1
0CB
3E3
375
02E
3B0
06F
047
01F
3EB
07D
0BB
06D
3ED
33B
002
375
3AC
0B2
39E
044
3EA
007
09D
371
3B4
03A
061
3FD
04C
032
3CD
044
3AE
3B2
3C8
3AD
04B
3AD
37F
389
03A
3BD
001
3F0
3C9
354
37B
3B4
375
398
341
306
092
091
064
3F2
394
3FC
3F4
021
3E6
048
10C
049
35C
3CF
07C
3FB
086
094
039
3D1
3EE
053
029
3AE
3EE
368
063
0EB
002
097
0F2
3F2
34B
0DA
00F
30B
336
36D
014
04B
05F
008
388
09C
088
2E9
009
01F
384
017
345
331
090
03E
098
084
085
06E
36F
34B
0B1
021
30C
3DB
081
027
0BA
338
3BE
085
03E
3E7
3E2
0AD
3EE
083
056
36B
370
018
050
3D1
095
040
3E5
3EF
3CD
0EE
388
0D1
3F7
008
331
3BF
0A1
0B9
031
148
3DD
0D9
384
3D5
05C
095
068
00D
07C
3B0
025
033
357
364
07B
00B
035
0A9
39F
384
3B6
381
372
3BB
3D8
01B
396
05E
00A
020
0D4
3C9
3B8
3D3
03A
3BE
369
024
0D9
036
322
058
3BE
0D8
2FB
078
093
34E
355
070
017
0BD
316
0E4
055
085
083
004
3D6
3C6
2FC
3D7
106
014
07A
0F6
041
372
3C1
3BE
03F
3D2
001
06C
111
0B3
0F8
123
198
03A
3A6
0B4
0B3
035
000
3D0
0D1
3D6
0B7
365
3AE
38E
0B8
329
31E
033
315
012
35D
007
397
33B
08B
3FE
01F
30A
15B
01F
370
3BE
3CB
398
01A
268
06B
3F0
033
381
3CC
06E
39D
2DF
09D
0A4
3FD
304
053
3EB
39B
315
06B
348
0A2
09B
05E
3EF
082
053
381
3C1
02B
02E
039
3BC
125
379
323
3D2
37F
0C7
067
3AA
358
32E
084
0C4
3B8
02F
000
3B2
06C
05B
016
044
049
34C
389
034
3D5
05C
0A6
00A
049
05F
3E2
3C5
05E
03E
397
062
37E
3DE
3D2
388
081
063
0A4
077
014
399
394
05E
36F
3F4
0A7
3B8
05C
350
3E4
030
059
337
3AF
04C
2D0
019
05E
036
3BB
365
079
036
3D5
030
04E
3E7
375
3E8
089
054
09E
064
3E9
32E
0B5
3CF
3E0
0B0
0DD
00C
334
2BF
09F
367
07B
0C8
356
044
3D9
361
071
03A
029
3CD
3D6
2E9
02F
3EE
334
3E9
066
3EA
0A1
097
3C5
03A
01F
0DE
326
056
077
399
00E
0C9
09D
393
098
3D0
3CB
016
032
007
079
08F
3C4
3EE
038
3D5
033
360
3CB
35D
015
3D5
049
3F8
049
3D0
077
38A
383
369
3C4
3D8
379
387
378
072
0CA
3FF
3EA
05F
3F9
016
0EE
020
060
04D
3E9
0F0
031
35D
37E
010
005
3D5
030
0CE
363
03A
37B
3E8
003
0F1
381
332
012
006
36F
043
03D
38A
3A7
3B8
3D9
080
3E7
3FF
3F7
3EE
032
01C
3C5
3C6
047
3FE
009
369
3E3
392
033
388
034
00F
3B2
3CD
367
02C
343
07C
00E
034
393
3E4
3F3
0D3
390
383
036
3F1
039
04D
00F
057
06C
0B0
081
3E8
030
0FA
36F
022
03F
3E1
3E5
051
0FE
0B5
046
010
03E
019
362
0B4
38F
315
3ED
015
3CF
3CB
06C
00B
365
06B
002
011
3D5
0F0
3EF
04C
00C
3D6
04F
343
350
37B
056
027
3DD
05B
3E2
029
375
3EB
08B
35B
032
035
060
061
008
05A
3AB
3DD
35F
37F
04B
014
06C
3F5
0FB
05E
047
068
04D
0C7
006
038
014
01E
3CC
10C
100
01B
07D
001
3A2
083
3FA
024
00A
074
067
051
0D2
0CC
04D
3AE
3EC
397
0A7
3E9
399
02A
39A
359
020
07C
3EF
0E3
3F4
36E
3B0
3ED
3E0
3D0
3AE
3FB
015
32C
3A3
02B
05C
3AC
334
089
360
068
0D5
043
32C
065
004
08E
052
039
0AE
3FB
03F
080
3D5
013
0C6
031
067
010
06B
3B6
084
0A8
3FF
045
3F7
09F
3AC
029
08A
01F
072
3DC
2F7
386
32A
014
0FD
361
38C
3DB
3C9
3FF
3E7
0D4
388
091
07D
35A
3FE
3E6
005
090
395
0BB
3F4
0D4
0CB
0B0
2C8
009
382
335
3A9
3A9
008
3C4
0B5
0A5
02E
3E2
312
06B
080
38A
2FD
0C0
384
39F
004
021
3BE
03E
0F0
001
378
05B
03A
3C4
064
04D
06B
3AA
01E
32C
3F6
0F1
077
3D0
113
05A
06A
3C5
06D
05A
369
01B
089
021
01A
00D
00A
046
053
0DD
03A
398
04F
3FB
3BE
099
018
044
3B7
01D
091
37F
388
3F1
0C4
3F7
394
3C3
36C
0D8
046
0BC
051
03D
01D
3B8
32B
0CC
33C
019
03D
3AB
01D
016
3E6
38F
07E
38D
3AA
357
034
03D
070
3EB
2A3
004
3EE
048
0F4
0EB
3D6
0B6
002
049
3EE
396
07C
3D1
359
053
3A3
3BC
06B
3B2
3EA
3D7
350
006
01B
3B3
03F
07C
3BE
0BB
010
090
3CE
39E
010
0C1
00E
3B7
0F8
3E0
028
342
09E
335
39C
377
00A
040
014
068
038
2F3
3F6
336
05A
36C
016
02F
016
025
01E
38D
00B
034
09B
028
0EC
131
010
029
39A
3FD
3E4
39B
096
3BF
3E5
34A
37D
052
380
089
01E
0B8
023
0E5
063
2E7
08D
017
3F3
02F
36E
3C3
314
117
02C
06F
2CA
3FB
3A8
065
395
3F3
0F8
01F
398
3A8
357
000
0AE
369
0C5
086
035
07E
3F1
00D
34F
31F
3F2
31B
14A
01C
338
3A1
37C
3A4
364
338
043
0A6
04B
3FE
38D
3EA
04C
35F
3F7
0E4
3CF
35A
36D
0FF
07C
012
033
366
02B
118
3C2
3F6
016
085
3E8
3EF
042
34A
01F
032
378
0A4
07D
101
3D7
31A
3EB
06D
3F5
3B1
058
3CC
00F
05B
084
389
367
099
3E4
0DB
0B0
36D
0EA
044
32C
3ED
04C
364
3B5
01F
32A
00D
0FA
3F0
39D
09D
071
36F
07A
0F4
3B1
3E9
047
0A4
3EB
080
3BC
3C9
068
0C7
057
3ED
038
337
363
097
02D
3F4
3CF
398
063
324
343
066
0DB
037
3D5
399
04D
093
093
09F
014
33E
3A7
038
00C
3DC
081
04C
0C6
0C1
3A2
03D
03E
3B5
39D
3F6
340
3D2
30A
3ED
3EE
3E8
3E6
365
024
3C7
3A7
049
0F9
392
38C
00F
384
376
30E
0F7
019
3D5
03B
048
35B
00B
0BB
09C
3FC
014
334
310
363
3D9
10B
368
3E5
339
0D1
3D0
0B7
049
054
032
051
091
046
045
096
3F1
04C
0D0
018
066
0D6
040
02A
039
337
023
3E7
3EE
3B2
3F7
33D
359
00E
35F
100
383
04C
04A
3DB
06C
34A
082
36E
007
061
063
2F8
03F
380
049
3F6
0EF
3DD
0CA
11B
3CE
045
014
052
3A2
36A
378
3E2
3FA
082
3A3
0A5
05A
37B
34C
03C
364
3D7
39F
021
2D7
018
3F0
3A8
3BD
0B8
022
03F
368
2F3
34C
008
355
3CA
37B
065
3F5
3ED
030
3B5
3D3
3A0
034
2BB
34E
3B4
31E
2EE
14C
379
365
3B0
342
391
0A3
373
040
096
370
070
342
02E
3F8
10C
3CA
11B
0FD
28D
381
02C
337
0B2
3C4
0AC
3C1
3B5
3A1
3D7
047
04F
01D
00D
00D
00C
0E5
3A4
0E6
3EE
36E
33E
365
023
0F9
324
084
3C2
3E6
05C
3FF
36E
009
060
077
03E
00F
01E
002
339
3F7
060
3DD
01C
029
060
390
04D
3D9
332
39F
092
0A7
3E8
3EB
382
00B
01F
384
0DB
3A1
020
083
363
3A0
3FE
3F0
3AA
3DF
098
3FD
023
366
092
39A
3F3
3FB
064
073
003
04C
3B1
002
3A2
386
3E0
386
030
3BB
3C9
071
077
074
023
0B9
380
33C
346
021
112
3DB
374
0CB
092
023
366
09B
37D
3A8
02C
066
04B
06D
364
383
3B8
03D
3AC
04E
043
36A
3CE
057
073
0AE
367
09D
095
0B2
070
346
2ED
3F6
077
37C
3B6
3F5
3E1
05E
3F1
046
0C8
0A6
0AA
3E5
38C
056
342
066
023
016
059
39E
010
3B4
036
01B
366
38E
361
358
00B
3B3
3DF
3A0
080
3C7
016
08A
3B6
042
369
3AA
38D
3AE
3B1
0B4
3D8
04B
3CC
02C
3C5
067
013
0F8
09D
084
3BE
341
3FC
01A
361
3A6
2D6
324
2F4
3A7
094
3FA
345
34A
383
3A5
113
04D
083
13C
09B
090
3DD
3CE
080
397
301
3B3
385
04A
378
3CE
120
382
341
33C
02C
392
324
035
382
0D2
135
0CF
38A
3C8
050
034
068
3B9
072
048
3C2
360
356
335
396
041
091
3CE
3CB
3AC
3CE
075
008
0A2
38E
00A
360
3ED
031
3E6
366
359
083
074
3E6
0FA
0B6
3D3
064
3E1
385
074
052
3F7
020
020
322
3F2
08B
08A
080
0CE
3B3
0CC
010
074
009
3D7
03E
3D2
001
3CC
027
053
00C
044
3D0
319
37C
3DC
04D
397
3E2
00B
390
3B4
375
3ED
3F2
0FC
2E3
3C3
39C
3FF
04C
018
3E6
019
125
36E
399
08F
0F4
3EB
077
347
3D7
05B
3DD
3F7
014
31F
3E4
077
01D
3ED
39B
36F
095
02B
3BF
082
3F2
059
011
05B
32F
026
36B
052
08A
3A1
35A
09F
09F
074
071
3A8
004
3CE
39C
362
05B
012
3F8
378
04F
007
037
00C
013
3F8
0A7
019
388
3A8
03E
02F
3AC
3AA
078
390
06D
0DC
3F5
045
010
072
025
07A
3CF
3BC
3FE
379
088
077
32B
022
00D
0AA
3DA
3EC
3C9
3CD
06E
375
34F
350
3B5
0DF
3BA
02F
015
04E
336
39E
399
089
0AD
3AE
02C
3BD
382
3DA
038
081
3F7
314
04C
057
019
3B6
397
0B9
071
05B
2FA
03A
077
07C
3BB
08D
14F
085
02B
0F7
0E3
3FF
38C
0A9
026
025
378
07A
116
3F7
019
05D
009
348
3C4
019
117
111
06B
389
0A7
02F
3C2
3CA
3C1
03B
32F
029
010
003
36E
067
2C9
0B0
027
31C
029
3AC
39D
030
380
0DC
02A
3F4
031
350
065
04F
3E6
3A5
386
077
2FF
018
019
37C
3A5
0C3
3B9
038
2E6
018
04C
0DF
3FC
3F6
325
10C
3E1
3F5
116
0AC
0C0
038
3E3
061
08C
0EB
0C5
090
3C1
066
3A8
054
3CB
008
3C6
3FD
023
3F2
00B
047
3F7
0D8
0FB
095
39C
064
095
3CA
38B
09B
03F
34C
388
34D
349
045
37B
33D
04D
392
08B
0EF
381
08F
01C
3C9
054
364
3FE
32E
36B
05D
2D8
007
3E4
127
3D4
36F
019
09C
3AD
387
398
3E6
0A1
378
03F
03B
308
009
051
3B8
043
384
362
0C6
08C
07A
381
014
0BC
3C3
3AA
097
036
363
00E
39C
0EC
3DA
03D
353
06C
075
017
072
3B4
035
11E
375
3F0
3E6
059
3D6
02E
384
3EF
054
385
01F
067
32D
02A
09B
33D
003
0E0
03E
107
039
054
3C3
036
0AD
351
3FC
34B
2F4
055
3B2
3A5
0A5
363
3D7
06D
0BF
3BE
020
3AB
3C7
37C
0BA
07F
092
39E
018
0A7
04C
36E
05B
029
093
3A5
38C
0C7
3BA
38C
363
382
3BA
03F
028
38B
015
034
30E
027
35F
004
059
008
399
060
3ED
3AE
06A
024
0AB
365
3B5
088
3C1
06D
049
02D
0B8
016
093
004
368
045
00E
351
053
3D5
37D
3EC
072
37D
3D8
3E7
3ED
3A4
091
0B6
08C
00E
3F4
068
35C
008
010
091
3E4
306
0D1
03B
03B
318
00B
3CB
343
045
3E4
012
02A
36E
390
02B
057
38E
056
040
0C0
0A5
372
3FB
38D
3F0
362
049
049
3EA
007
024
035
352
03A
00E
3AC
3D4
3E7
336
3C9
3EA
3DB
04D
3AD
052
3C4
097
09C
095
36F
397
060
3D1
3F8
394
3B0
000
3F6
0B1
103
046
0A2
0C8
062
030
393
3D7
083
066
00D
39D
2F3
3B3
31D
02D
38F
032
0A5
0C5
3DB
3CA
36C
122
39B
390
057
0C7
07F
39E
0DE
104
3F4
063
3BA
044
306
0A5
008
3FF
038
0C2
301
0BB
04F
313
3D4
385
351
049
033
386
383
0C8
342
110
34B
32C
033
068
074
39D
35D
0B9
364
071
06D
3D4
3A0
3E5
013
053
3B3
054
3D2
3A6
35F
320
088
04A
01C
0CF
01F
043
017
080
0B0
022
3DD
395
3A7
0A5
05A
08D
00A
31F
367
0C6
01B
3E6
04E
011
0C0
3CB
018
3E6
071
011
0FF
3EB
0AF
395
003
060
34B
059
0B8
371
0DC
3F6
10D
2B4
3D8
0B0
3F3
029
3EB
3F7
3CB
324
3E0
01F
2FE
3AF
352
068
2B8
032
01D
3E8
38E
36C
0FD
0CB
061
07F
049
090
08A
3DA
34F
026
0ED
0BB
007
079
018
079
37F
2B8
022
11B
03D
2AD
00B
2D3
012
008
05A
3CA
045
04C
087
3E6
02B
0D5
073
068
021
399
050
043
32C
18A
3EA
001
01E
335
059
046
378
006
043
0AB
383
07E
39D
2E6
00D
106
07D
005
09C
388
332
079
3BF
3F3
3F1
325
07C
3EB
0B6
098
30B
3B2
36D
314
02E
07C
049
2F5
043
0C9
389
04D
04E
09C
381
0A7
0B3
340
3C7
05F
053
05D
083
32D
3EE
3AF
0B1
0C1
02C
04C
085
3C1
3B4
0A0
055
030
04A
397
10C
3F6
027
055
048
05D
001
0B5
039
3DA
3AB
3A3
027
360
03D
072
04A
015
00A
37B
3A4
020
080
3BE
0F2
3D6
00E
093
3F3
37D
3FC
0C6
395
3AD
398
370
313
370
05A
3CC
02F
079
0DA
039
04C
010
0E4
0A5
34B
06F
395
0F0
074
0A7
3BF
063
044
3EE
36B
115
31D
095
3BA
02F
01A
048
046
38B
34F
384
3B8
037
3B5
390
07C
3F8
3EA
33A
3EE
025
399
3DF
02C
00D
0D0
028
392
0AC
013
026
072
3F9
338
3DA
394
3E9
017
3F6
024
323
025
3C4
071
0DF
39B
079
348
362
0E1
337
38E
09F
3DF
3C1
0A5
03B
00B
050
05B
022
009
3AF
03A
321
3C3
34B
03A
0C3
013
042
03E
03C
3F5
313
3D3
01E
3DB
395
03A
35D
385
3D9
3BB
35E
381
095
0E3
338
004
3E7
023
018
349
0B4
0C9
075
3D1
366
012
3D5
0AF
05A
3DD
3B2
3B0
37B
34F
02C
050
3E2
349
3A1
3B1
377
02B
01E
0F0
382
3C1
04E
34D
30F
3B5
0C6
391
2CF
060
39E
06D
3AC
377
067
0D1
31F
06B
001
3C8
3E9
0D5
017
30E
2CE
104
31F
042
3D9
317
3B3
350
31D
3F3
3F7
3B7
351
3BA
06F
0C8
3B3
04F
3A5
046
047
34A
335
027
05D
03B
3DE
0A4
339
03D
35A
3B7
00C
010
3C0
3D3
001
0AB
3FD
3EE
010
3EE
390
3FB
108
091
3CD
040
084
3EA
3B2
035
3FB
054
11D
390
3F7
0C0
032
013
3B9
3F5
3FA
379
076
3F0
369
396
3F3
016
096
0B1
35D
3D8
09B
392
395
0EE
0F7
009
3D6
2E2
063
079
0A2
36C
01A
3CD
070
3DE
3E0
084
315
391
014
34E
04A
3CE
355
396
04E
35E
3FA
35F
3CC
00C
3E7
3CF
0F5
001
33F
03F
08A
06B
0D0
3B9
016
039
080
37F
07B
027
04B
390
36C
395
008
021
0A8
087
3D5
046
03E
399
3D5
3CA
3B1
380
338
3B3
027
3FA
064
3DA
07F
32B
3F7
38E
085
049
0DC
399
38A
0DA
0C0
3B7
0EB
027
36D
3C0
359
3FF
016
0A6
0A0
043
37E
3BC
07D
055
37E
345
395
38D
34E
3FC
034
05E
067
032
3B9
3E2
012
0FF
005
0A6
10F
3EB
38F
366
2CD
3C1
108
3F9
05C
3C7
3BF
3DE
3BE
375
396
38F
3D4
33F
094
395
3AF
3D6
095
08C
34B
3BC
070
00B
041
31B
370
041
0A5
37A
00E
0BE
09D
05E
3D4
324
321
0C8
0F9
3EA
124
077
3D5
3C8
3D5
31F
090
04B
115
3A9
3DD
051
093
094
3D4
015
04F
3C5
03A
07B
028
033
06C
2F1
048
01A
036
06C
35D
3AF
39C
35B
058
0B7
07B
3AE
3A7
3DC
077
324
0D4
05C
3C5
070
04F
3C6
0E8
395
02C
0A6
39C
0B2
066
3D7
000
328
3A8
3FA
3D0
388
37F
3A0
388
3C9
3AF
006
0BC
125
3A1
3C5
316
0A2
027
35D
3DD
069
3AC
344
31B
0DD
3B8
064
004
03D
012
3C1
30F
3F2
36A
39C
31A
016
363
064
09A
035
051
02E
3A3
3A9
3F6
06B
013
040
3E2
2E2
3A2
396
3FC
02D
3A2
031
001
04B
086
3D3
00B
017
03F
311
06F
3FE
000
0A0
3D3
3C6
11D
3BD
07B
015
3B6
07F
03D
3BD
3AF
007
3A9
3AD
37A
098
06C
06C
0CF
0AD
09E
0B9
36A
3A1
081
00A
393
031
01E
3C9
03D
0D1
364
05F
369
336
010
313
0EC
0B7
05B
349
386
080
35A
061
06E
36B
3E1
01C
3BC
020
06C
008
06B
3D7
07F
0C8
08F
064
3B6
11A
012
09D
3AE
32A
322
0F5
083
0F6
3B7
3FC
05D
31E
050
04C
038
03F
3EA
3CF
130
00C
3EE
371
079
3EC
376
0D3
046
3C4
380
021
0B7
013
019
3AA
07F
0C0
01D
33B
09D
3A4
056
027
3EE
026
3FB
06B
006
3C7
09B
011
3EB
020
06E
3A1
046
09F
3E7
375
018
3D4
0B9
003
062
010
3AA
010
086
336
3DD
02C
04C
3DE
00B
36B
3E6
341
38D
3B2
380
01F
050
00A
3F1
312
08D
0D2
3A9
3A2
0A1
043
3BB
3FA
321
05A
031
071
046
3E2
061
3BE
368
045
0C4
02B
3E8
3B8
3D3
037
3C0
3B3
36C
027
3A2
022
39C
10C
009
0C9
0AE
01B
092
093
3BD
063
373
0A6
01A
3A1
373
050
368
35C
3E2
3BE
394
3BD
0E0
067
077
35E
384
3F8
3A1
0AD
070
39D
354
3F6
057
000
3F8
060
3B5
019
367
3E5
05D
397
37A
091
363
04E
309
06E
017
38D
048
380
376
3AD
392
0C1
095
3BB
3C9
054
3CD
399
08A
3BD
08F
37E
310
023
39D
05D
0BC
004
00B
11B
3F8
09D
3C1
07A
3D0
088
09C
061
06F
027
3F7
09E
362
371
083
047
35F
073
347
085
3B7
389
3E4
34B
38E
3BB
3E8
010
0BA
354
027
3BE
09C
39A
374
0ED
0FE
397
09C
392
0B7
31B
3C4
3BD
380
28B
02E
059
345
0FB
3A1
07D
027
3E7
379
025
3DD
0CC
06B
3A2
01D
0B0
04B
0BC
3B7
0CF
397
043
0CA
3B0
035
3FE
39C
383
107
045
3F0
024
3CF
048
0F8
3E9
097
078
3DD
3D1
3E9
3C7
3C4
044
034
09E
090
040
3C6
0C5
312
319
3EB
3C7
3CB
052
358
3F3
37F
32D
3E0
3B3
078
39A
3D1
3B2
3F2
330
02D
138
03B
3D1
058
047
3DC
3E6
059
01E
042
055
3C8
3B7
03E
3E2
077
0AD
060
06E
3D2
05B
04A
3C4
061
365
090
36F
3B4
01F
058
025
367
0FC
0E3
071
3A2
037
061
3CB
061
3FA
377
088
3E0
3BA
373
06E
3F6
097
380
3A2
391
37F
3CE
069
045
3E5
043
3E1
38F
0E5
3B5
013
054
005
3EE
02F
077
06A
094
3A5
074
3DE
0CB
0A6
36E
3A5
03A
00D
037
344
3B6
3E0
3E9
3C0
3D1
079
3D0
39C
31D
3D0
3BF
053
3E5
011
069
3BA
368
3F1
35F
0C3
3C9
3D2
3C9
3A3
3BA
3B4
3CD
2F0
306
39D
3DC
0DB
391
31D
009
3BC
0A2
3B8
39F
061
126
04B
3EE
37C
099
0AE
109
051
00F
028
3B1
06B
2DB
00E
05D
005
04F
365
38D
138
2D5
049
045
37F
3D3
066
3AE
2D4
373
012
39F
3F1
3DE
096
3B5
325
3E4
08C
02A
057
3EC
3F2
3B5
382
0A9
37F
072
02B
08D
05F
3C4
029
3E5
3E9
081
3B8
392
098
3AF
332
3B0
3B7
02C
340
04C
004
38D
3EB
3AB
049
3F3
387
387
08A
3C7
013
351
3C3
08B
365
0E3
37F
00E
06E
3FE
3D4
0F3
075
014
0FF
3C9
0CF
126
0CE
01B
072
056
0E1
034
0EF
0C8
071
04C
09B
0A9
015
0C5
39A
3DB
02A
3C2
002
0F5
2BB
075
0CB
3D2
050
3CE
0AE
05C
028
00F
02C
025
014
0E0
3C0
0A9
396
0A4
0EB
06C
08A
35C
3AE
085
36D
0CC
037
031
034
0FA
3BD
3B0
3DC
01D
054
383
3C9
0CC
3EA
017
365
3FE
00E
35D
021
000
00D
3DF
3E5
004
3DC
385
3D0
3E4
3C1
385
0A4
0AA
3E0
000
3DE
031
018
05E
3D9
3E3
382
03B
0A7
0A3
058
0D3
3B6
0A4
3F7
043
02B
355
337
38D
396
0B1
010
018
0E2
358
351
347
3D2
120
0EB
04E
023
01C
3F0
08C
04E
0AA
398
029
39D
37D
3B8
3D1
3D1
0FB
3D1
036
37C
06A
390
006
3B2
12C
025
308
3DB
080
026
3EE
38F
3D7
102
048
3E4
102
065
3FA
02F
33E
073
0CD
3F7
0ED
343
0B7
01A
0A2
3C2
067
026
0C8
0C8
0C5
3F3
12F
03B
0E9
382
3C0
079
344
376
051
368
35D
037
37E
056
06F
01D
3EE
37B
071
3FD
055
02F
031
3BF
088
076
026
062
394
33F
035
397
052
3A8
00A
056
3D5
002
313
38B
0C3
00E
382
054
0E9
0FD
0A4
026
3A4
352
39A
012
39D
3AB
089
02D
0AA
3B4
3F7
027
356
372
3BD
38F
368
3CC
3CD
35E
068
038
34B
02F
3C3
098
0E5
372
3D2
009
3BB
3E9
0D4
032
0B8
3C2
015
374
032
029
3B7
031
06E
0F3
032
00D
04E
3F6
2A6
3F0
3BC
088
38E
312
093
3CA
0C0
37E
338
021
03E
0F4
00F
3A5
03C
09B
022
00F
371
0AE
3E0
049
3C6
022
344
041
3D1
39C
373
00B
09B
3A8
094
34E
0BF
0F5
080
0A2
013
0AE
34A
0C0
3E6
32E
051
3FC
3B5
05C
3A0
04C
072
0AC
0CA
057
3C3
30F
048
011
073
3E9
33F
030
033
041
069
3EE
081
3F9
075
3B4
090
021
37E
091
03B
006
3E2
0F6
3AC
086
3BA
006
053
3A9
005
059
02D
3EB
04C
3F1
391
33F
3EB
3B1
04B
01E
09A
02C
0AF
0F1
3A5
3FE
3F3
37F
0EF
041
35D
0A8
3C4
38C
022
042
069
397
386
3AE
335
0A7
049
3F3
03E
062
3F8
3C2
0D8
3B5
07A
0CE
3B7
039
3FD
04B
390
00C
3F0
02B
394
3C5
394
3DE
30E
3E1
356
0A3
026
33C
38C
3D4
3C2
0CC
3F0
011
073
043
0E4
3B6
084
380
03A
088
05D
38F
08A
0B8
351
0BE
341
3EE
39A
3BA
075
018
018
011
0AA
03F
0D7
05B
34F
10D
07A
3F2
3B7
055
042
07C
3BB
036
05A
019
0F2
063
096
341
38E
3FB
3D7
3BD
04D
091
3C6
0D4
30F
317
3A0
338
00B
3B8
3DF
3AA
0B5
07F
371
08C
3CD
313
07B
04E
36D
069
0BB
052
3E6
368
03F
350
387
05C
052
3F3
04F
02B
06D
33C
05E
384
3D6
3B4
3CE
3F8
03D
048
110
3A3
3EA
075
340
389
11B
0A9
385
01D
0E3
3D2
3EA
0F0
3FF
006
39C
361
3A2
11A
063
011
3D5
101
3A2
040
03B
394
3F6
058
3DE
0CF
02F
047
3BA
30C
3A9
325
381
00B
053
37F
06C
02C
0BB
3C9
36F
3B6
06A
014
011
09A
03A
023
07F
0B5
03D
065
051
009
0D6
002
05C
375
395
3E7
34C
071
059
39D
03E
359
319
0B0
321
07C
062
3B8
0C4
0A0
370
345
3E5
37F
31D
02F
048
3F1
026
3C7
081
059
3EE
0E8
3E3
0A6
3FA
019
3D9
38C
3A0
3DD
032
34C
3B5
049
3BD
3BD
365
36E
09C
065
086
026
393
09D
3EA
3F4
0DA
00F
0D1
32E
035
3AB
32A
00A
366
350
3DC
330
02C
3D6
082
3D0
033
073
3E7
03A
0AA
074
324
024
39E
024
3D4
3B1
38C
05E
069
078
3D8
001
06E
05C
016
3AF
3DC
04A
333
317
394
0A6
06B
2D2
05E
088
05D
06F
31C
3D0
31E
3BE
039
041
0F3
03E
08D
087
3A4
07D
0FC
384
3CB
30E
3D6
32D
010
32A
3C9
137
0F2
0A4
092
012
01A
364
07E
330
398
3A8
394
3A3
001
01E
31C
0FA
39B
31E
05B
3AC
051
0C5
3DE
393
058
3B3
399
363
32E
3E8
3D1
2B4
00D
00F
012
345
024
38D
015
085
03C
3C1
093
02E
325
0D4
04B
03B
0C3
135
3A8
3A6
372
3BD
39D
385
37B
39B
3E1
049
045
002
3ED
11B
105
002
3CA
014
319
3C3
054
35B
308
028
019
008
3C4
391
0DB
3E3
06A
372
047
070
316
014
331
027
3B1
399
3DA
32B
076
3B6
36B
036
099
05B
081
3DA
008
3B2
3CE
342
3E6
321
3F0
3FF
337
383
01C
00F
049
06F
067
36E
048
004
36D
3E7
395
319
3DA
034
0BE
3C3
070
31B
389
358
3D2
3D0
3C4
3FD
36F
3A6
37D
009
318
3C3
3EC
3E2
06C
076
052
086
3A5
304
03C
355
05A
3A7
3E9
01F
032
3DA
3D0
392
0AB
0C6
03F
32C
0A0
3ED
3B2
03F
386
346
0A8
393
041
3F0
0CF
043
026
002
3DE
06E
067
08B
3F6
378
332
033
36E
397
3B9
091
342
371
3E0
3C6
39E
3B1
0B5
2FA
38F
090
35B
3C9
0EB
056
38C
3CC
05A
3B3
066
0F8
064
3C0
30C
073
3D0
377
048
083
353
3D9
045
357
0FF
392
3DC
039
014
02D
040
3BF
02E
329
3F8
35D
3AE
05F
0C6
361
368
03B
092
3A8
050
3A0
3CA
025
3C7
003
0CB
027
086
394
048
0C0
3CD
3A3
067
3B8
035
0AE
357
027
04E
36F
033
0A0
3D0
07A
377
144
3E7
39E
033
053
0AC
39A
3E1
34B
00D
344
3C2
37C
3F3
07A
08C
075
3D3
3F4
036
39C
3DD
2E4
386
05B
3E8
056
3FD
018
003
3C7
318
081
022
074
397
085
096
399
020
382
0C4
0E6
0B2
06A
038
11F
37F
0F3
042
3F3
03E
102
37D
0AE
04B
068
002
38E
383
360
31A
049
02E
05A
041
389
098
3B9
021
11C
049
3EB
3F5
039
3BA
097
036
0AA
393
0BB
120
014
377
03F
3FE
3FF
079
3EE
3EB
006
38C
3B0
361
051
3B4
06C
067
084
054
0A2
021
032
3D9
381
070
3E5
07D
058
3FD
369
097
069
0B0
023
3B7
371
39A
3F7
3C3
0B3
044
04B
08E
3CD
377
08F
3D8
3DC
3FE
03F
3C4
099
303
0AE
0AB
12A
014
392
3D6
06F
0DB
3E3
36A
3FF
023
390
38F
0C6
03B
3B8
032
36B
3D5
3E7
3F9
008
018
008
3DA
076
364
36F
3D2
09E
00C
3EE
3BE
3FD
018
3FB
305
335
2F2
00D
3B1
0BA
3E2
37C
006
333
053
379
020
36F
33E
3A8
39A
081
06A
3DB
38A
2FC
38C
3C1
073
3A7
34C
042
03F
068
08A
3E3
04A
3D8
0B2
0E7
005
021
04C
0F1
0AE
040
340
111
3F4
3B8
07F
3A9
01F
38C
31B
37E
372
321
086
3E0
3CE
09B
3A9
3F3
077
0BC
364
0A5
3A9
083
3B4
028
04D
099
313
03F
0FB
0F8
3A8
013
3A7
39B
396
06A
3F5
355
03B
095
3E6
021
2D5
3E0
084
395
39E
35F
3EA
0B6
349
380
0C6
067
0A2
0BD
397
3B8
39D
07D
122
03C
3EA
05E
081
044
036
39B
3FD
0D1
3E8
341
3FE
3ED
0EB
069
09D
00C
3CC
3CD
12A
3C5
002
39D
3C7
3D4
021
0F1
37D
05D
373
3B3
011
0E0
07D
38F
3E6
013
36F
36D
00F
37D
019
065
3F6
0EE
0B8
054
3D8
018
02E
3D3
012
041
0A4
000
0FB
36C
002
0A9
0DB
03D
024
0E6
04C
033
2C6
02E
3D4
053
032
0AD
38A
331
3BD
059
3D8
347
33A
00E
056
3BF
046
337
02B
00E
0F1
00E
38F
3DF
365
0F2
374
0F0
023
023
0A9
02A
066
2FA
3E5
337
376
309
089
346
399
3DC
03F
387
3E3
024
3E3
027
0CB
01F
058
38F
10E
0AF
3D2
3F0
0CC
3EF
30C
086
3AD
339
08C
04B
03D
031
37A
08A
07B
0AB
387
3CC
37B
115
02A
38B
38A
312
3CC
0C1
019
3D1
34F
057
3E2
37F
08C
07C
3F7
315
0B9
3EC
02F
091
03F
063
388
3A0
068
0D6
390
035
337
01B
0ED
37F
05F
3E3
3D4
012
3CC
02D
36F
00A
3BB
3EF
399
389
34C
077
3DE
378
09F
00A
0C6
023
02D
07D
0B7
3D2
037
3D1
35C
0AB
37F
04A
076
3B7
0D5
00A
3CF
0C6
3B6
07C
084
02B
0A1
00C
0B6
32F
02B
332
3E3
043
06B
057
396
3CF
042
310
008
35F
084
38B
319
02B
01C
01B
008
00F
30B
019
37D
03C
3B0
0E2
03D
37A
3EC
3CD
088
020
300
032
3E8
3D2
34F
310
022
0D8
078
0C4
378
09B
09B
3B5
074
06C
058
09D
3AC
05B
34D
02B
309
3B6
09A
02C
3D5
092
06E
098
3FD
0DE
3E5
032
396
39C
3DC
08E
041
08A
3C6
31C
064
352
337
008
0A9
024
030
02D
353
3A7
3A1
067
09F
042
3DB
005
01D
3A1
06A
30C
3EC
38F
071
119
373
39B
3CD
026
06F
362
02E
3A9
314
3EA
0F5
0B0
0BF
0B2
01E
006
043
037
3F5
336
0E2
027
094
2F4
041
02F
0AD
3B2
33F
384
014
0A9
020
3DD
0A9
364
397
36D
06A
064
300
3B7
014
33C
3F4
3BB
036
00E
040
3D9
392
397
14B
0AF
3AD
0E8
343
398
363
084
09E
0BC
00A
3A0
3CC
047
3EB
036
050
3D2
3D2
042
3F2
3A9
3C1
3EC
078
3AB
3AB
065
3E6
0BA
015
03E
341
111
0DA
0A0
2F0
0A0
394
3A3
349
060
336
3C9
38C
3E3
3DC
3BB
397
385
3E3
0B5
021
3EE
0A3
3A1
094
3B1
0BD
04A
021
3F2
33C
125
02A
122
062
09D
3F0
0CF
02A
333
305
3B1
3D3
042
070
3F8
3F7
3BD
380
097
077
080
3A1
00C
382
3BE
099
36D
3E8
01D
03C
39E
340
01D
009
365
04D
396
394
377
082
386
392
3A5
07F
3FE
38F
383
0A1
3D7
3D8
3AD
2FD
064
058
3D4
01E
003
3C1
099
398
06C
3A5
020
312
095
3B5
3D4
32E
062
3FF
082
03A
0BA
3E1
3CF
302
3DB
027
3F2
073
3EA
044
0AC
325
378
055
3C3
0FF
37E
06F
352
398
3A8
36C
3AE
0A4
020
07C
06C
388
3C2
3B3
0C0
085
08A
00B
05E
3AE
39D
395
373
004
07E
392
3BB
03F
39A
365
038
00D
02C
051
08F
3ED
072
04D
35E
377
0CF
0C7
3AC
0C9
048
381
386
3B8
008
3A1
3E2
05D
125
08C
3A1
051
2FF
3F4
048
3F2
3FF
385
3A9
0C1
110
009
345
01E
33C
075
3D1
0EB
343
08F
3D9
00C
392
019
0DD
04F
3AF
3E9
09B
031
0A1
3E2
091
0AA
0FC
034
3EE
355
026
001
3A6
3AB
06A
05C
36A
370
3C7
348
371
0AF
071
019
006
3EA
38E
00C
321
3B8
398
3F6
0D4
0BC
3B2
09E
380
019
3EC
34A
062
002
351
0A6
149
369
3DC
3F3
39C
03A
394
05D
064
062
3A3
0BB
375
0D4
08D
084
0F5
36F
08A
3BD
08C
3A7
3F4
089
3CD
0F8
3EE
081
00E
396
05E
361
066
01E
003
3DD
3EA
3E9
04D
3C6
3E3
3A3
3EA
397
3CD
313
01F
39E
0CD
362
3FF
05F
053
38F
3FF
03A
3B4
03C
3B9
32D
371
0DB
38D
031
028
3F1
094
001
041
088
03C
394
3B9
046
096
018
3EB
03B
0A8
3D1
088
3F9
3FB
02D
015
02B
362
368
050
037
3DA
01B
33E
023
01B
3F9
3EE
385
370
06C
02B
054
3D5
06A
36B
37E
066
01B
3CC
397
0A3
011
093
00B
3C0
101
096
3C4
04A
010
0EA
00A
01A
081
00A
34C
024
0A5
3D7
13F
04A
0AE
343
3FF
359
2F5
3EB
33E
07E
355
009
343
031
02F
3EA
011
3D3
025
080
388
105
07B
3F5
303
3D2
37A
3AF
0AF
3ED
37E
08F
3E2
021
319
034
010
04F
10A
3F5
34E
028
018
3B3
04E
383
047
3FA
062
3BD
3EF
035
335
3EF
3D6
31F
053
2D7
317
04A
05A
0C7
088
3B1
311
008
023
02F
3FB
0BC
35A
01A
3D8
34B
015
3BF
35D
3D4
012
3F6
032
3C2
3CA
020
039
35A
3DF
2D4
365
3C3
083
032
057
3CE
3DE
3BC
338
086
0AF
040
3F1
06A
2F0
39A
31E
043
07C
31C
07B
093
3E7
3FB
0EE
365
34A
060
33B
3D3
39A
0C7
3FA
063
010
0A6
31A
088
074
3B7
031
3F7
086
044
006
350
371
018
00C
3CC
35C
06D
0CC
062
390
3F7
37D
3C2
37C
3E2
085
004
389
3D0
017
027
365
304
3B2
018
019
041
3AF
3A7
00C
3BC
0B7
302
0C4
39E
338
027
3FD
3D5
316
026
00D
036
07E
001
0FA
36B
3F9
304
342
02D
3CA
3ED
055
3F5
3F7
03A
016
07F
384
0CF
3A4
38D
044
00D
00D
3EA
3E8
331
068
023
3BF
397
061
3DA
30C
07A
06B
068
049
08B
011
091
3F6
01C
040
336
3A5
035
009
391
33A
046
3C2
3CE
03B
3A9
3AD
0D9
0BB
01F
0C3
003
094
39A
3A2
066
387
0AB
31B
3B8
372
07C
3F0
3DD
011
0C6
399
05F
0C7
10D
0D6
3F2
3D5
38D
3AC
019
359
033
3B2
32C
3DC
3EB
3D0
35F
330
3E1
35A
3B3
083
06A
044
3C2
3DE
3B3
0CB
013
2C7
3F6
358
03E
02C
366
3A4
3DB
0BE
13C
3E5
3E3
089
06A
3B8
35B
020
0F6
011
04F
37F
32F
0B8
069
028
031
0A0
36F
135
323
3DF
106
38D
092
3B5
35A
003
033
3E0
3C8
3E3
3C8
3A5
06B
3D4
0B5
379
09A
0FD
0C0
335
3DE
2E8
3CC
096
385
3EC
057
32F
02A
07C
3CA
3D7
043
03D
35D
04E
3DE
004
3FA
3AF
3E7
315
0DB
0A2
353
388
3B0
38A
050
047
060
0A6
0C1
3BD
336
3E3
06D
0BC
00F
3F4
2E5
3F2
3C4
341
0DD
372
051
368
0A6
397
013
02A
0BA
358
028
074
0E7
330
3FC
054
01E
346
098
0A5
007
3B8
3AE
35F
3B5
049
3CD
3E2
3A9
357
3C1
393
020
333
055
37C
103
02D
007
104
3D8
0BE
3D2
3B5
364
3B0
024
083
07D
057
39E
005
032
3B1
392
08A
02A
026
33C
06A
040
032
03F
383
369
3E8
039
3EB
02B
325
11D
39E
01C
013
313
082
2F6
047
02B
3BB
342
004
082
023
3EC
3B3
3F4
0BE
00C
03F
3BE
3B0
049
3A9
030
049
07B
017
014
0E0
13D
36F
3B7
3FA
3D0
322
3B0
021
043
0A5
3B9
3C4
35C
2BD
07A
3AF
349
011
010
0B9
3AA
063
096
012
036
305
3E8
30C
088
02C
3AF
090
336
3AB
3F1
33C
11A
37C
04B
015
0CD
38A
090
0F4
382
3C6
336
034
04A
3DC
092
0F4
053
08A
2CC
3A4
0C7
3BF
0F1
367
3F0
3E4
383
330
3EE
003
06F
009
3AD
38D
373
0BC
0A6
0DA
01B
01B
05F
378
03C
3C3
3F7
07E
02D
398
3FB
0D8
042
3E9
05D
042
013
05C
39B
05C
0D7
059
0CE
07A
394
0A6
358
027
337
07A
016
379
031
3B6
044
059
00D
07A
391
098
3D5
0C5
3D7
3A1
3B1
3F3
372
050
005
38D
05A
08D
3F9
350
3A4
39C
3BD
028
324
084
024
056
3B5
062
3A4
36A
3ED
347
3CB
3F1
019
060
306
048
075
339
011
024
324
3DF
3F6
04F
057
03F
06F
00A
394
3BB
099
386
00A
344
3EF
0B3
02B
3E4
04D
3C0
3CF
00C
31E
3B1
3F6
377
35B
3D6
381
05E
3FC
08E
35A
35F
351
3A5
398
031
104
348
018
060
079
019
362
036
061
361
3DF
30D
2E6
01E
3B1
392
39D
044
0A8
088
347
3BB
353
077
33C
3E1
0EB
3F8
36D
381
07A
033
385
35A
021
356
3FE
3A3
0C1
3CC
024
326
0EE
2DF
3C4
386
011
040
3F4
078
3B2
06F
00E
081
36B
351
33E
3FD
382
3CB
020
04F
3B4
3AD
3D5
05C
3E3
3CA
06F
399
3AD
2E7
3C2
336
36E
39F
32E
027
3FD
3F4
3FA
01C
06B
03A
3E6
0AB
3C5
3B7
048
030
3CE
3AA
3B0
047
3F9
02E
07F
033
007
079
00C
073
006
007
3BD
3B9
3F1
3ED
073
3A6
3F3
07F
043
054
3B3
03A
3B7
3BE
009
04E
3C9
06C
089
3DD
38A
2EC
33B
06C
33E
37A
3E4
3E7
00F
399
3DB
327
072
01B
357
3D5
032
0C7
012
012
03B
019
0CD
006
068
0BD
3FC
09F
340
3CE
078
3C7
354
0E0
034
3C2
3B3
39D
026
0DC
340
0E5
367
3DB
38C
01C
388
02F
3B1
047
3DE
043
068
106
0D2
004
10E
3F0
3DD
057
3FD
044
006
356
03F
0C2
353
07F
3E1
3FB
39D
01C
3A3
38E
0DE
3AA
3AC
0CA
014
301
047
08A
09A
0E0
02C
3A0
33A
3AA
026
3F0
026
3F1
3A9
05E
01F
36E
39B
3C5
3C2
0AC
356
044
065
3FF
3B5
032
078
038
3EF
3A6
3E0
05D
308
3F3
38B
383
33C
024
38C
0DD
3F0
018
3C2
0F9
101
2E3
059
3F4
3F1
3D9
0D5
3FC
00C
3F5
013
3A1
3E3
0AC
3DF
338
026
079
059
3C9
3FF
3C0
096
3A7
051
060
0C9
063
384
3EA
3EE
0EF
031
3AB
3A6
3F0
075
03B
033
3E6
342
3DC
3F6
0F8
067
3EC
0AA
043
3D1
05E
3E5
3DB
3FE
3E4
3C3
033
3B7
01B
344
013
3C2
03C
010
38D
363
085
346
039
375
3C3
392
0D7
091
0B4
397
355
35F
0CB
31E
065
003
3D5
027
3EE
012
3CE
3B4
3E3
0C0
3C1
314
019
3BD
059
0C8
03F
012
395
016
394
023
096
3E0
065
3DB
0F5
0A8
011
037
0BE
345
3F3
3D4
067
08A
35E
322
005
39C
363
319
0A8
3E8
0C8
006
020
07A
0AA
020
0A0
389
3AB
3CA
06E
034
30F
3E6
3D0
149
02F
029
03E
376
3D3
399
04A
33F
0AF
020
374
3E3
0E6
3E1
083
0AF
3E7
044
381
077
3CC
00D
2FE
372
3A4
086
3BF
3B5
3D1
0CA
086
3AA
3DF
3DE
04E
3F9
0B6
0FC
022
02E
053
07F
02C
386
384
0A5
36D
3EF
37B
3D7
3D1
0A0
073
0F8
021
0B4
012
3A0
378
021
028
390
040
377
39C
00F
00D
334
0F3
3FE
398
369
017
33B
3B8
006
3B0
364
0C6
0EE
36D
053
056
326
058
029
3B8
09C
001
3A5
366
0BE
3D5
040
060
3B6
3C9
101
38A
03C
05E
3F8
3D1
084
3D6
0BF
083
3BA
04C
3D9
04E
04D
09D
3FA
3D4
0B2
3CA
318
081
385
0BE
04F
3C6
3B7
111
31E
3BF
062
05F
030
340
371
330
3CC
050
00E
0D8
069
39B
3DE
06F
2EE
359
090
03E
383
3AD
08D
3C2
3F6
3A0
000
3D6
3EE
0B1
30A
089
02D
0A9
004
34D
2B0
078
3B3
32D
3C1
0E2
39D
01A
37E
3F8
033
38A
3AC
3B0
396
013
08B
00D
327
321
3AD
39B
08B
064
397
304
3BC
3FD
017
0BC
3EF
39F
039
0AC
3DE
119
107
0D3
003
3D3
036
03E
3AB
3D6
023
088
3DF
3CE
363
0C7
088
36F
349
006
043
2D8
0D6
34E
3ED
00E
078
04D
3B7
00F
094
0BB
032
3E9
0C2
3B9
395
00D
327
3D6
052
3E0
041
001
39A
3C0
0A3
3F3
000
09D
301
3D6
008
02F
351
3E2
3D1
000
37A
017
38E
383
033
3B4
3BC
3C6
059
067
372
070
374
0C2
3D1
3B6
34D
002
063
051
398
01C
302
05A
3CC
088
04F
005
00B
033
072
0B5
3DD
336
3CA
385
39B
336
3BC
3F2
08C
086
35B
051
051
398
2FD
3A6
0DA
3DE
050
3DB
3DF
34E
335
026
3F9
02E
310
3F9
0A7
0CD
03B
028
036
0DC
015
323
3ED
011
0B4
33A
344
363
398
011
3D4
3D6
0A6
3BA
30E
00D
033
047
090
030
008
02D
2FA
09C
3EC
037
360
3D5
363
01E
05A
037
0CE
396
36A
3B5
07E
0D6
387
066
146
392
056
039
0E6
00A
381
3FC
019
397
06D
041
3DE
3A6
31D
00B
35B
017
095
3DE
06C
372
3F2
37B
062
026
01E
02A
00D
399
379
39A
02B
3B0
0BC
000
056
398
019
333
3AD
3D8
088
3E1
09F
345
033
073
02E
05C
383
0E3
08E
0A8
085
3D1
05F
3B1
3ED
37F
3D0
384
3A4
3F4
350
04B
089
09C
02A
021
067
3D4
3BB
359
3C1
3F0
03D
39C
31D
018
380
051
3C2
0E6
053
044
0FE
3FF
021
020
04B
0D5
045
091
032
3C1
013
39C
3D7
040
0EE
39C
3A6
3C5
0DE
3B5
3E6
3F0
2FC
031
324
338
3D0
096
090
398
381
09E
072
0FC
33D
0B5
339
36D
09F
0D0
375
07A
114
3C1
3D8
0C6
140
3F5
07E
030
364
3C5
094
075
02A
3DB
022
015
099
32B
391
08A
3C6
32D
0C5
37C
04E
079
0CD
00C
360
057
140
00E
0AD
3A4
3D9
000
05D
023
2F9
3F0
004
3A2
108
052
3B7
036
37B
04B
066
3AF
38B
06D
0D8
02B
328
3D4
3EA
373
3C3
045
378
142
06A
0D9
36E
031
084
012
36B
10A
354
04C
0A1
328
37F
2FD
046
060
38B
3A6
2F2
312
028
344
3E8
2C3
395
06D
06E
3D3
3BA
3F8
07A
006
3AA
00D
0ED
3A7
03F
3B2
02E
0B5
39B
090
02A
373
3E1
3D3
3DA
00C
3E2
36D
385
078
005
3CE
05C
39C
011
05F
042
030
0B9
39D
01F
3C2
3D7
042
03A
0B5
3E2
36D
0AF
3D0
0D2
3C0
05B
04F
3E3
014
085
3DE
05E
0BA
38D
386
33F
047
0F8
090
390
3A7
04E
333
051
005
01C
04E
365
030
3E0
0CB
050
0E1
3E8
0A8
0D0
048
33E
308
3CA
387
056
0B1
330
042
081
3B2
064
3F9
030
0FE
024
041
030
3B9
044
3CA
022
013
3E7
007
0EC
0EC
3F2
37C
026
073
393
3F0
3FA
106
3CF
35B
3AC
08E
002
001
028
065
0D5
049
0E1
3A1
31A
05E
0CA
393
0C3
052
3EF
3C3
089
3B4
365
3EE
01E
007
2EC
093
043
017
3ED
0B4
34D
3FE
399
021
3F6
3C4
3FE
3A2
067
34C
00C
043
394
087
3BA
00A
004
0BC
3E2
319
089
0C0
087
339
39E
034
067
3F6
080
03A
0CA
3BA
05B
3B4
3B0
101
36C
0A4
03B
3B2
074
052
02B
014
03C
3FF
3BC
393
3D5
05F
026
0EE
043
06B
2BF
3BA
047
064
08C
3D8
3F1
065
00A
04B
067
39B
39A
003
363
03F
059
02D
393
028
01A
053
0C6
0DF
004
3D8
0B2
021
064
0E5
0D0
021
021
090
36D
031
024
33F
3F4
118
3BF
3C4
3F1
385
3F4
3E4
3D0
031
3B4
051
0B9
3E7
2F1
33A
091
3CC
3EA
01C
027
004
336
357
014
002
073
39A
00F
085
31C
044
0BA
340
3B0
3F1
37F
0A7
365
092
044
07C
0AD
347
018
327
05D
3D7
004
3CB
074
0B0
3E4
30D
348
3AF
3C7
009
013
3DA
026
0F0
06E
08E
005
3FA
3F6
3F2
00D
3BE
095
3E9
3F7
396
04E
03A
3D2
330
0D7
3B7
3DF
01C
359
087
0CD
3C8
3DB
368
3D8
359
351
3C9
3B1
33F
31D
031
36C
3BA
3F9
022
056
085
3B4
033
075
0E6
3D7
063
01D
0C9
375
07F
00F
06F
07D
02F
0A9
36F
081
021
32F
04B
091
355
07F
07F
08F
002
022
3C3
0E3
3C1
0C0
058
32A
04E
3F5
012
311
015
0BF
0E6
3CF
038
020
03A
0C1
048
01A
34F
05F
0BE
047
3B3
0AA
046
3CB
324
026
000
3EA
350
3FE
386
353
3C6
04E
31E
38A
3EF
04F
00D
022
39A
3E0
3AD
031
3D6
059
077
3FC
0A9
339
004
3BC
081
061
3A8
099
368
027
388
369
349
368
360
372
2F6
3E6
0BF
3CC
08C
315
121
100
357
3BE
3CB
3D8
018
3B5
3C8
04A
028
3F9
08B
3F6
02F
059
37A
0BF
3C7
088
3CF
060
053
03C
37B
033
0AE
380
317
379
030
054
10F
00C
327
317
3D2
07A
342
3A9
00C
0A0
031
020
122
015
36E
3D6
056
3CE
329
2E3
337
390
044
09C
03D
099
004
3F6
075
3D9
3C4
0C5
030
01D
3C3
018
069
3BB
2FB
3FA
062
02F
03B
016
01C
056
387
094
024
07A
319
3CD
0B3
0C5
3FD
02B
011
02D
053
097
3F6
0DB
373
3A3
37B
004
3E9
069
010
090
387
3B1
079
3E4
322
3D7
02B
379
311
333
0CE
30F
373
3FB
04C
096
009
07D
3BF
063
03A
3EA
3DB
03C
09B
3AA
3B4
3A3
0EA
03B
010
0B5
05F
380
3F9
3E5
08F
3AB
3DE
380
085
0DA
393
064
398
337
087
077
3F3
021
38F
092
01C
384
3C1
074
390
355
036
07A
36F
065
004
3F8
0C9
37B
039
381
3F5
030
02D
054
3A1
040
023
016
3A8
04D
361
376
0A5
37A
02B
05E
021
09C
0CF
3CA
3C0
069
2E3
035
371
0B9
0C1
073
3EA
049
3FD
0D3
399
3D1
3A5
391
344
36E
0BB
39D
3DD
3F4
31F
3D5
034
351
003
073
05B
030
3C3
35A
01D
38D
02A
39E
3CD
3FE
300
3D9
30A
30A
32C
06C
369
391
014
395
3FB
0A6
3A3
3DE
06C
39D
062
386
3ED
3F7
066
3CC
030
348
049
0DD
031
050
389
3B3
34B
016
02B
037
3E3
00E
35A
070
042
3DF
303
3A9
35D
2ED
07F
3D5
0C8
005
397
38B
03D
089
3AC
3DC
073
097
09E
3B6
361
014
01D
0DD
362
01C
352
3F4
3AB
076
03C
3FD
38A
351
34B
02A
383
075
03A
398
09A
0D3
37F
324
062
07A
377
01B
357
3C8
037
3C4
06A
36E
044
3BF
34E
0E6
01D
029
34A
0AA
038
33C
3BA
3C5
00A
051
358
3C3
0EC
007
009
355
35E
070
057
3FA
33C
07D
051
3C2
052
03E
2FF
048
086
08A
30D
399
3E6
09A
048
00F
018
0AE
351
08F
3C6
059
3A4
3EA
393
0F9
02E
3BA
00B
03A
038
053
033
084
03B
039
038
004
328
394
0F9
0EB
0B6
06B
078
3E2
117
0A0
086
0AA
0DE
0C4
386
0BF
026
3F5
01D
0A6
3AC
362
335
34C
084
391
392
33E
35F
354
3AC
089
354
0AC
089
0A6
3D4
350
35D
04F
3D6
3F5
0D5
39B
3FB
3F8
304
3D3
3CE
336
386
3F7
3F1
3CE
385
0BE
0D0
322
3A7
011
