EC
EE
18
D0
06
24
00
2E
02
F8
F2
30
0C
EE
FE
06
DC
16
36
00
3A
FA
0E
F0
2E
06
24
1E
00
FC
00
16
24
EE
02
0E
18
2E
0A
26
18
20
FC
FE
1E
2C
14
F6
14
F2
FE
E8
18
04
0E
14
20
04
12
E0
02
F0
14
EE
06
2A
F6
28
46
FC
E6
FE
16
20
F8
06
20
02
1C
24
FE
0C
F0
FC
26
F4
FE
10
04
FE
10
F6
18
F8
FE
04
02
FA
0C
FE
28
16
EE
F0
0E
1C
F6
22
02
FE
12
22
06
24
F6
F4
2A
DA
D8
2A

