11B
0E2
7A8
764
7AF
172
1FB
6A6
7B3
0C2
057
785
17B
02D
78A
7AE
6DA
683
0F7
208
137
7F4
127
7D2
013
7F9
78B
0DF
7FF
737
6DC
084
16F
147
0D4
78F
07C
6D7
0CB
722
793
7F5
7C6
14C
0AA
7D4
09C
763
017
731
71A
0E2
69F
0F4
7E4
088
69E
05F
03E
131
741
0F3
085
7A9
7FC
7CF
626
209
0EF
02A
15B
708
7B5
126
752
7FF
586
002
1E3
121
146
0F7
086
061
76E
1D1
025
285
72D
16F
7C7
155
129
01E
783
71E
6A3
7FA
159
60C
6A7
038
7F9
649
1DC
00E
6D7
67D
172
126
0F0
7B4
1E0
109
7DE
70D
07B
002
7F4
70C
09D
6A7
0BE
675
759
75F
6B9
77C
0F5
79C
78F
67C
726
735
68D
7AD
0C5
7DD
0E6
6FE
07C
114
632
70E
78C
7C4
759
6E3
1D6
5AC
049
710
5C4
1DC
649
692
7F1
703
72A
0C5
020
786
685
7CE
5F9
08B
06C
79E
007
00A
05C
7C2
7B8
747
131
788
040
0FD
6F3
7B8
7AF
7B6
6A7
63D
0D6
077
187
040
782
105
227
039
132
56C
6D0
6AE
7E2
09E
16B
055
770
7FE
08D
070
08C
7B7
5F1
7DF
129
082
5F0
031
640
711
7AD
7CB
0FB
6F6
765
07E
72F
789
79A
755
07E
1EF
7C9
7D6
01B
062
775
644
7A8
6B9
740
725
6EB
671
130
72C
79A
10D
0B4
0BB
285
027
001
082
66A
0EC
71D
04E
7C6
6AB
7AD
025
043
083
0DD
08F
02F
611
099
7F4
039
24D
7C8
05A
7E9
77A
08F
161
6E3
727
7A6
049
72A
6E2
126
06D
05C
0AC
6FD
0E1
7A4
213
086
662
68D
06E
66A
039
773
679
782
779
155
01C
5AE
0A9
02E
0FB
105
08B
076
0E9
049
7E8
5EF
00C
7B2
150
71B
1D8
7A4
102
576
126
186
74D
0FC
1F0
03F
07E
1F8
099
0B2
07A
7A8
005
02A
721
022
14A
7A3
045
26D
770
737
588
1AD
620
178
1AA
7A4
004
7D8
257
052
07E
1F5
5CE
14E
098
020
096
708
015
07D
673
033
09C
067
7C4
6B6
6E4
288
022
10B
6C8
6E1
15B
078
1B5
7C0
0BF
0FE
77D
7DC
794
7EE
77C
0B9
74F
001
0DF
6EC
6E9
7C5
643
778
6E8
038
6CC
0D9
141
09E
71F
7DE
6CE
755
007
059
7B7
091
0AC
71C
062
084
1E0
72B
08B
079
68B
792
137
128
074
02E
71B
0A0
168
63E
06A
045
638
790
7CE
184
114
700
65F
060
763
165
180
6A5
75D
11C
118
6E9
01F
1CF
110
0BC
744
7CA
5A7
59F
693
0FD
78E
7EC
60E
72D
0AD
06B
6DA
6F3
5D5
7BD
0FD
113
097
21D
6EE
10C
060
0CF
1EE
102
089
78B
673
733
763
793
7A4
067
10C
01E
7FB
6F3
6AE
117
0CE
0D3
1A9
64A
716
1C5
08D
761
155
10B
75D
7C5
207
784
0E0
033
717
703
75B
78D
1FB
694
070
0EC
701
0A9
245
060
7F5
0AE
78C
778
04C
686
1AC
033
758
041
76C
6DF
7C5
711
786
005
684
00E
669
08F
047
780
78E
63B
7BB
152
780
001
7E4
7A8
71F
67E
6AB
686
64C
7A7
6D8
7CD
73C
04F
0F4
118
227
00D
787
79C
724
212
05A
67C
700
5A7
726
74D
0D8
00B
057
04E
259
786
179
7AE
7E1
742
1FA
79F
6E6
050
063
1B2
6D2
5F1
759
7EB
6E9
061
793
1A5
0DA
7C6
042
036
6D6
04B
050
68D
0AB
76F
773
1A6
112
1B7
0ED
792
089
72F
64D
626
787
03E
7D4
721
64E
6D0
003
108
0FC
6AC
573
0ED
05C
17B
6C8
1CB
6B8
0E6
0AD
0FD
055
71D
73B
10D
753
1F2
281
062
712
632
7BC
1BD
08E
089
6EC
7A3
7B2
6F8
74D
720
768
1C3
154
7F6
6F9
7D9
129
12E
7E2
7EE
02C
03A
799
256
08E
0FF
0AC
22C
61E
1D0
0A7
1AF
1F2
10F
67E
10D
0EA
03F
095
05B
68D
75E
7C4
027
118
1BA
6BF
5B4
68A
103
661
060
6ED
038
698
6CB
74F
5CC
782
6E6
13A
760
74B
190
08D
79A
60D
192
5F7
64C
7A4
757
64E
7ED
6E8
10E
7BF
065
0CE
0E9
6DC
7BD
68B
075
145
753
07E
2AD
7D1
002
684
696
02E
75C
066
0E7
053
032
011
797
73F
726
1FD
0B0
0F0
64A
09D
776
01E
6DE
1E7
080
173
642
7C2
08E
172
71C
063
092
0AD
63D
76A
672
683
001
5F1
661
723
092
7B7
7E6
00C
7F7
7FD
08A
7FB
6C0
08A
1D6
127
05B
667
6E9
673
7DA
0E2
0AF
145
7BD
0D5
78E
728
7ED
042
1FF
766
6B9
7D7
124
1FB
651
144
12A
168
7B9
11A
02C
1E9
6E2
0DD
0CD
64C
6D3
254
054
0BE
19E
7A4
667
05C
559
180
109
01C
1DE
637
6DD
04D
01E
127
07A
0E6
124
72A
12D
0FB
02A
0F1
71C
040
1B0
049
156
7DC
1A9
7BC
671
03B
775
060
72B
7AF
059
05B
0D7
178
094
0AB
148
043
66C
7F5
030
7C0
663
772
0FA
7E4
782
7AD
054
11E
060
171
722
719
7D3
6E3
7B5
65C
777
1D4
09B
103
7B8
1F5
7A3
113
59F
10A
14A
13C
7B1
705
086
255
075
6F9
741
7A2
089
731
096
1C0
1EF
048
7A9
12A
03D
104
7F0
698
0D4
77F
7A2
793
15A
0B4
69C
0C4
13E
107
01F
795
7C7
742
084
01F
635
79B
658
044
1DA
147
0B2
076
6F6
15F
73F
76C
7CE
0DC
026
0C0
203
76C
093
725
6FD
5C7
695
087
771
0E3
0A6
180
6FF
283
080
124
784
0CB
794
237
0DC
000
0C4
634
0CD
728
7F8
680
78A
653
7E1
0C5
7CC
73F
716
16E
073
069
6D7
225
763
1EA
78D
287
03D
7B1
12B
7F3
6DE
0C1
12A
1D8
6F4
26F
006
198
206
05B
739
033
022
5AB
019
149
7A4
6C6
6FC
71F
13F
1F3
6B9
101
651
000
7F0
795
587
6A8
61D
702
039
702
171
16D
111
092
18C
201
650
08A
011
683
728
727
13D
682
715
192
044
11D
7AD
076
19B
039
093
5E6
078
02D
0C6
081
097
02E
1F0
04C
634
0EF
09A
000
683
1CF
761
7E1
0E2
186
6DA
21E
173
7CF
6B5
774
75C
100
07C
012
5EF
05B
772
7FD
730
000
6C3
6DB
666
162
13B
25E
636
7C0
13B
246
72B
1AA
063
1F5
6D6
18E
192
76A
734
1DA
7BE
131
7F2
116
633
7B7
1F8
718
074
03B
7C7
164
7BD
049
7DB
7A3
770
039
072
762
753
0B0
677
7C9
1BE
1F6
6E1
259
256
09D
7D8
0D1
0A8
169
113
140
113
6A2
6AE
658
019
6B0
7CE
6F7
718
705
758
09E
792
761
006
018
75C
78F
01B
6C1
1B6
6A0
05F
62F
11E
148
64D
062
6C2
036
0B6
727
77A
038
043
205
07D
72D
068
77D
19D
77A
03D
624
0C4
7B2
0DF
75A
098
0F5
16E
57F
0BA
144
71F
6C7
006
75C
6FE
03C
73E
0E1
5EF
6F6
7BA
0BA
7CF
1B8
7D1
785
727
6C6
00C
7C7
709
113
0A7
0AA
0E3
0D5
10E
0C1
706
038
136
7A5
6AC
150
710
185
067
039
777
058
047
06E
03A
24C
092
074
0D8
675
028
0A7
6BB
04D
06E
23B
7F4
650
7A3
6C3
71A
05A
70F
085
274
12E
1C4
63C
7E5
280
088
13D
1AC
08B
04F
087
12B
7E7
712
04D
6BA
7DD
6C9
08E
7AF
12E
186
726
7D7
6A3
1F0
074
058
76F
028
193
082
5C7
094
7A5
046
074
692
7B6
642
685
00B
7DB
0C7
1F0
1EA
2B4
79D
749
6F8
5F7
095
637
660
7F9
685
748
049
020
152
731
671
7D8
6E9
0C8
792
5CD
795
13F
0DC
545
100
723
672
071
0BA
799
697
0DC
7FE
01C
7A0
1D3
768
7FC
0C8
650
77C
7D0
0E6
190
723
220
181
07E
79A
71D
7C3
045
06C
12D
0A0
611
0F6
082
01E
7EA
146
1B4
594
71E
0D6
7B6
75B
02E
786
766
241
6AE
6F4
771
006
690
662
792
6B0
68E
07A
144
036
6BE
04C
094
0C6
60B
772
0A4
750
622
7F3
6D8
0EC
78A
644
66E
0ED
745
6ED
051
77F
08C
673
199
6BB
19E
7D4
0F1
626
655
06D
6B3
79B
181
029
737
045
133
702
03E
69C
6C9
794
167
05F
089
020
140
1BB
12B
76A
7A3
5ED
790
7DF
0B3
12F
0A6
5BA
123
1BF
737
0F2
77B
1E3
7FE
0A4
68F
007
6BF
033
68C
1E0
6E2
1A1
100
7BB
0BF
114
14B
032
6C5
0F3
6C5
0EA
07E
1C6
735
6FA
0B6
207
77A
052
18B
132
129
7A2
5FD
7A3
026
77F
7FC
6D8
763
7F6
052
0B0
106
0FD
76D
158
7DB
12B
677
0B9
0F7
5FB
709
1C1
02D
7B3
053
7DA
0F9
6DC
1CA
6F0
1BB
02C
65C
211
7A7
090
733
751
050
70A
030
09D
0C6
138
7DC
0C5
6F3
207
024
27C
650
624
698
004
0CE
0D0
7B0
09C
7D8
00F
11C
7EA
1DD
13B
79B
036
110
01D
235
2E8
125
6BA
733
278
045
6D7
7FE
0CC
115
152
725
126
1BF
702
790
733
02F
69C
14B
0A3
00C
6B7
24C
7E1
71F
02A
0BB
6DE
7BB
7A8
5D3
1FE
0F8
131
1CC
023
0A4
574
107
7B0
019
0C2
7B3
074
6F6
021
096
7AA
6C5
7BF
000
05C
034
0E6
687
6FB
010
759
098
7B4
05F
6D5
216
6B8
0D6
0F8
7C2
00B
77C
0DC
019
5DD
73C
0D2
01A
0C9
6FA
781
0CE
040
13F
5B9
721
170
7C7
582
7D7
7E2
779
238
7FB
7D3
796
226
048
073
01D
0EE
748
218
7D9
133
7AF
12E
79D
14E
731
63E
179
6E5
20B
6B8
1F5
77F
7C2
0A2
7AF
7FE
7C1
7EC
7BF
0E8
6CF
59C
6BB
054
107
678
7F9
0A5
028
0BB
677
10D
66E
766
243
1A9
007
1D6
598
0AA
1F1
7CF
746
736
084
1DE
73A
205
567
72D
6BD
200
7F9
121
7D0
013
755
031
01C
02C
7E1
6F4
01A
070
194
795
6EA
131
1A9
088
09C
63D
0AD
74B
140
0E9
691
045
1AD
252
79B
16D
5F1
188
763
6FC
75A
071
7B8
0CB
144
717
155
7C8
219
14E
202
033
70E
0E7
03B
5AD
0D7
074
7E4
05B
58F
7D9
112
7C9
7E4
12C
084
1AF
15F
123
022
0E1
100
0D8
6EB
71F
7D8
79F
717
16D
796
70B
0B8
07E
7A2
677
1A6
68D
6D7
159
6CD
059
7CA
62B
1EE
246
5AE
608
5DC
079
65D
0BD
0AC
74E
674
72F
7D7
70D
1A9
73E
7C4
7ED
6DB
01E
7F3
07E
268
021
1A3
711
09D
056
7DE
22A
7E1
0F4
69C
126
64A
791
070
037
7DF
05F
78B
6F7
6AB
0D8
082
78D
6EB
6C6
118
5F0
001
719
7A4
71B
775
06E
5F8
091
787
08C
009
053
15F
732
0BD
271
06A
69B
7E5
7C0
1E1
69C
18E
012
7A6
71C
70C
7C0
776
08E
12B
11A
75F
6AC
079
5FE
19A
6C8
04F
152
74E
055
0ED
002
73D
017
140
7EA
721
7EF
760
7BA
65F
62F
1A2
02A
21A
770
74D
7C7
111
6C0
73D
762
76A
10C
7C5
0DE
758
046
0A1
670
014
641
091
074
0B0
6C2
1B8
00F
746
093
763
115
1FF
7D4
718
68A
7C0
7F9
0AD
750
76F
60F
61A
62F
634
15A
0A5
111
7B1
653
6A0
1BF
034
7EF
76C
19C
7F8
1A7
09F
084
5BB
18F
15B
72F
149
049
7DD
131
1F1
631
083
7F8
6DD
06F
7E5
0B1
0E0
6C9
628
0C0
633
0C1
652
171
195
040
0AF
699
6E3
065
776
6F9
7F1
5E6
12E
6CB
035
64F
06C
0B9
7BF
078
025
7AD
7A4
15C
77A
191
7B2
78C
669
101
7F7
073
70B
0E0
7AE
546
147
032
7CD
7BE
7B0
6D7
1DC
7F9
1F9
03D
140
198
705
0FF
0B1
211
730
1C6
6B1
6C1
11E
7B6
008
0EB
10F
7EA
617
17F
0D5
13A
7CB
5FE
210
042
0B6
00C
056
0F6
74E
0E6
0BA
051
0AC
62F
5B4
125
134
6EC
0D6
74C
79E
0D9
178
20F
13C
747
618
09C
6A6
7D2
0B6
72D
073
732
0A0
1DA
0FC
73C
7F9
74D
1B8
6FB
1D9
19B
02F
0A6
7BD
083
6A8
059
59C
042
11A
650
02C
6DB
0A9
7C3
705
735
658
79D
048
7DC
790
70A
199
147
0B9
122
70C
7FE
021
160
004
1B4
019
59C
096
72C
1F0
03C
038
792
060
04D
081
6C0
7A2
6F3
012
791
7CE
13C
760
039
0F1
024
121
780
170
150
108
098
0C8
7B4
17A
5AE
69D
6F7
6BD
74E
78C
6CA
11D
7CE
04B
18D
7FC
6F9
732
15C
013
0D9
6ED
62B
04C
0A7
018
099
650
07B
752
758
7A4
78D
7C7
7CF
757
141
1BC
78D
713
0F9
016
6E1
784
705
0B2
722
755
5BF
21D
738
042
038
76C
78E
0FB
078
057
772
0BB
0C3
121
6F4
0D4
0C3
700
1D3
73E
1FF
028
7C3
77F
7A3
5CB
0EE
25D
1ED
6B7
246
085
098
070
72F
026
787
7B2
7F2
021
674
022
703
1F3
0E9
062
711
66D
141
67C
0C5
187
0C5
0D6
720
7EC
101
0B7
6CD
196
660
7D6
178
031
7B4
79B
094
144
74A
05F
5AC
7EF
1AF
6E9
62C
7E8
07B
0C2
170
026
094
066
07A
726
74D
765
621
036
72D
051
1A2
74F
0A2
0A5
7FF
205
64C
7D7
07C
15B
0A4
1B1
5E1
21E
080
71B
146
705
172
0D8
7C3
0D6
7C0
04B
774
212
142
0BC
086
09C
089
0D4
76F
03D
01C
06C
13E
095
01A
100
7DC
772
66E
7B4
6FB
7F9
730
0CF
04F
6AE
74C
01E
7B4
0E9
764
000
23F
0EE
1CE
704
709
036
631
020
067
0D6
023
03B
1B5
072
73A
781
64E
144
001
638
74C
18A
0E7
0BF
03C
752
172
025
031
744
7F0
1AE
7DD
60A
6A8
048
110
063
198
1C2
1D9
7AB
7B2
189
710
11D
7E4
080
68F
771
05E
0AE
7A9
6B4
768
06E
05F
1CF
70A
1CE
719
028
772
678
0A7
075
740
0EF
02E
075
75E
039
7D8
000
7F5
767
090
19A
7F3
740
73F
6CA
041
0EC
033
072
6BB
707
0CF
154
050
0FA
069
01D
04F
179
7F2
0EB
7C3
117
1DD
006
134
1AD
68E
031
69B
7F3
766
748
76E
736
78A
0B3
113
7B0
0E0
0CF
032
686
13E
738
5D2
68D
0AE
5D6
775
762
0AC
70A
0CA
7ED
6E8
163
0C5
604
738
703
6C3
69F
75A
02A
78D
0AA
218
7B8
7F0
5F4
124
727
118
755
7DB
04D
0D9
735
114
066
14E
760
665
06E
75E
114
090
77A
6CC
69F
1E7
138
6A5
73F
07E
02D
0E9
78D
78F
090
757
185
0A8
711
6DD
146
7B4
261
022
74E
6F0
0CF
084
214
101
097
096
7CF
08E
605
770
100
79E
6E5
7F0
053
06E
111
024
1BE
0AF
7BD
048
730
09F
091
6B9
5E6
043
77E
6C9
774
6CC
7E0
0AC
0A9
113
69A
0F4
04E
7C1
7FB
227
7E3
67D
03F
175
799
5FF
781
121
18B
06E
749
03B
7A0
090
7DC
078
0FF
6D2
072
01F
158
12A
673
6EA
6EE
035
052
136
6C0
0A9
00B
79B
7F4
094
13B
038
0CE
0E1
11C
0FF
6EE
7DB
74C
149
048
73C
69E
627
7D3
103
1B6
609
7CC
0A7
0AB
6F8
64E
76C
714
067
69D
084
11F
7AF
109
041
6F9
79D
0D0
67C
119
03E
6A9
78A
78B
1CE
152
6BD
0E4
607
667
0E4
056
25F
5FD
0EE
7DA
6DF
7B1
7CB
70D
7B2
734
0E1
5B8
1A5
767
7C8
78E
624
6DF
5A7
711
0D9
73A
1C1
01E
091
180
077
6F2
079
066
739
27E
0F5
762
770
12B
757
116
778
107
736
792
208
67F
191
77E
72E
09F
792
5E6
7F8
747
017
207
760
189
6A0
052
680
002
7A1
75F
01F
014
59F
0BF
057
777
216
0FC
70B
01D
20A
7D9
02A
7E9
0C6
6E6
618
00E
7DD
0D8
216
790
77B
104
772
6A4
22A
116
039
0F5
03B
13F
10D
030
6EC
078
1BE
05D
70D
676
7E8
00C
02C
0F5
6B2
6B7
13A
117
090
0AC
72A
7A5
7A0
120
0E4
264
03F
1E2
76E
0B5
796
7D8
0A3
01E
1DD
077
0B2
060
7FD
0F6
7D8
79B
6E5
013
7C0
793
77C
260
019
0CB
7BD
0BA
115
1AC
0B6
1BA
7D6
5FC
103
008
7A9
6FF
69C
6B2
640
760
240
1BE
054
0E0
6EF
13F
007
6B7
00B
0E8
109
16B
093
1B3
6F7
114
00B
782
107
7F3
7BE
61D
7C6
016
10B
051
106
72C
0FC
1D0
71F
1AA
785
67C
6D0
177
08A
7DE
068
7F8
7DD
134
083
05F
6FD
736
067
7F2
6D3
7E6
7F1
09A
166
0B1
6F1
11A
78B
725
18B
78F
78D
752
6BD
6A9
640
19F
7ED
13C
083
007
695
7EF
648
6D1
035
129
0F9
7BC
6B7
1EE
6A5
0AC
7A7
21E
0F4
6F3
6AC
03B
5CC
07A
06C
7E9
00B
039
112
6A2
70E
09A
202
160
0E9
582
0AF
63D
6D1
164
0BD
698
034
0DD
7AD
7E5
710
045
6E5
0DB
67A
7A8
71D
684
1B4
721
104
02E
7FF
046
01F
7B4
05E
024
026
66F
767
01E
1FA
690
076
003
6C5
010
005
10A
79F
022
60C
1EF
12D
7AF
106
00A
6AA
057
70C
0E5
16E
07B
020
641
1CD
06B
06B
144
02E
792
09E
011
134
033
79C
153
128
7D0
174
113
100
158
7D3
041
09E
062
7A8
192
78E
1C6
0D8
74C
0BC
7F0
5D5
7BA
72F
20A
6AD
6ED
090
011
0C2
007
0F9
0AE
7A4
74F
027
002
7B8
737
747
035
77D
0F5
686
00A
71B
798
75D
002
744
65C
07F
04F
6E7
77A
7BD
0F7
6DE
116
622
052
5AD
761
12F
06F
610
72F
754
151
64D
06A
70C
756
00C
6B5
069
786
039
15A
07C
796
1EA
09F
73B
20A
07F
047
0CC
6FF
0F7
7AE
0E5
7E5
6A6
68C
780
72D
116
08C
000
75C
00F
78A
196
6E5
0FD
771
0FD
127
03E
7F7
70B
127
72E
7AE
0BC
168
164
6E1
01B
647
790
721
088
0F5
251
7BA
7EB
0F6
619
07F
0BF
6F8
57C
759
21E
7B4
76F
6AA
70E
619
76F
1E9
035
11A
00F
0AD
640
03D
747
5E2
1E5
009
036
761
57F
0BB
7B5
6CE
152
159
234
0F5
18C
0E0
09D
789
020
057
7FC
6E5
0F4
090
7C8
7CE
1A0
739
08A
114
11C
799
763
0A9
24B
784
0C5
7EF
7EB
155
73D
004
798
7DA
13F
6AD
6A8
19E
149
7D2
63C
7C2
04E
0B1
234
03F
011
0DE
0ED
6D2
0D5
05D
6B1
015
026
595
7B9
7B3
771
756
6E4
732
7B3
76D
797
0AA
126
100
60E
768
2D3
723
1B4
09E
6AC
6F1
15F
123
7E6
007
7C6
015
6B9
009
010
73F
266
019
0C1
0B5
086
7A4
764
0E9
75C
212
17C
150
7F8
6D5
7D1
7D4
005
00B
772
68C
6C3
731
0DC
777
0F8
02D
5F7
0D9
02C
7D0
208
12E
176
6CE
78A
07A
6E8
771
6C9
052
68E
1F1
2DD
02E
782
167
7C4
6DE
6C8
75A
10D
076
029
77A
06B
744
744
683
70B
7F6
20A
745
006
7A7
165
06A
759
738
720
61E
05C
0A9
7E0
709
01A
718
626
086
002
0A5
7D1
774
663
0B1
108
00C
049
79C
045
059
198
7CE
023
0B3
7EE
20D
054
7DB
7F2
053
7E7
0C5
1CA
09C
7C5
67F
7E1
007
788
11B
750
0C9
7A6
734
200
718
608
6B6
6B7
092
11A
6E4
030
713
217
018
7B7
738
033
263
655
766
0E3
03B
113
0E1
5CD
7D9
22A
6C3
6AE
102
06C
0CA
10F
704
0E0
745
5BF
14D
116
1DD
1F6
63C
6E2
7EF
0D1
7DE
20C
0B3
61A
7A1
047
0BB
0C6
766
194
14C
7F7
72E
7E9
7D8
0F2
6C8
07E
229
056
164
284
746
068
5B9
6BA
5A8
60A
71D
073
1CA
7BE
6A1
7B1
775
730
6FF
119
751
724
179
7BA
6D9
62F
0C8
27A
07F
1BE
739
6A7
0BB
0CE
060
73E
72A
5B4
79D
78B
64D
027
7BF
74A
108
64E
753
0B0
7B0
5AE
10F
06B
0E9
70A
780
788
7B2
1D6
74D
034
27C
1B5
616
743
656
647
148
01F
6A1
0C3
07B
7FA
025
6C0
6E5
0D4
749
724
65A
739
18C
75E
781
247
047
765
587
797
07C
24C
71C
002
063
101
741
10D
6A7
224
660
06F
194
629
07F
7F4
1FF
7CC
0B6
031
6F7
6C0
18B
7E9
786
6FE
7EF
004
078
0F5
017
630
1E4
08D
649
0F9
775
759
7B0
008
5F8
724
022
7E9
755
1B0
794
108
6AA
76E
10B
683
0F5
032
7CF
0D1
7A2
07D
06C
07F
058
016
183
5F3
0C3
29C
6D7
614
001
7FA
7A1
661
7CF
109
7C5
79B
736
75E
0D3
136
679
136
05D
72E
108
78E
5B5
625
01F
6FE
0D3
095
0F0
04D
14F
0B2
237
0CC
78C
756
722
74A
76F
6A3
7AF
01C
195
1A9
55B
6BA
0F3
124
113
76A
095
0C1
21B
64D
1C1
74E
7AD
168
5A6
0A4
710
6B3
7AD
0DB
030
01A
7CC
6EC
7DE
78B
5D4
179
01D
0E1
14F
7F5
11B
6D2
136
114
69B
0F9
0AA
6FB
6F4
18B
7AD
06C
7AD
09F
7B5
03E
02A
73C
010
13D
1A7
09C
678
01E
1F0
687
124
739
1D5
107
0DB
740
646
62C
7A1
0A5
01A
069
157
267
072
03B
07D
0EB
01D
005
130
0CF
79E
0FF
730
249
1CB
1DF
749
7DB
07C
142
076
163
787
087
10C
07A
6DE
131
094
0C0
16A
7C6
042
7F4
74C
0BF
096
0D1
009
03F
609
74D
079
04F
799
033
115
0B9
1E2
1C0
6B9
02C
781
08E
01C
5CD
08D
1DF
21F
67D
01F
6D6
625
032
697
00C
64E
0BF
5B0
110
179
7E8
1FF
156
03E
07A
789
5D9
7B4
18C
113
1EF
0D1
67A
000
708
168
0C5
75E
7D3
666
0D9
020
0CF
043
019
6C0
049
762
0C1
6A1
22A
0BB
216
083
056
741
688
122
143
72C
05C
0D2
670
25D
7EE
635
6C1
740
63E
6F7
297
192
07F
602
6D4
13D
664
0D9
6F4
73F
7B3
20A
185
0FD
7B6
7BA
5CC
057
05D
192
18D
012
7C5
140
7F1
161
140
7E9
637
070
7F3
073
709
108
7E2
051
113
714
023
673
03E
01F
248
7FC
1A6
0AF
6C6
1B0
0EA
72F
03D
06B
135
11B
106
1EA
182
0ED
717
7F2
5E1
0CD
25C
605
0F9
124
657
0F3
7E4
7BE
7A2
78B
674
067
264
009
69F
1B0
701
7B6
272
0C4
684
00C
0E0
008
61E
02A
67A
799
0EF
793
030
075
025
723
080
0FE
6F1
109
0F6
79D
178
0C0
079
674
114
0FF
7C3
125
123
0BA
629
6B7
79E
09D
094
110
688
111
0CD
023
762
0B2
665
789
7E0
7E5
7AD
6E8
0D7
025
0AF
089
647
123
090
741
0DA
057
10C
6CD
6EF
787
231
135
75B
76F
167
5F1
6A7
014
06E
15F
7B3
679
0CE
7ED
06C
081
5B9
24E
685
6CC
7BE
032
7A2
0DE
76C
08D
202
033
07F
7EA
6BE
67A
019
070
15B
790
057
01D
697
00D
107
0A7
7B0
5D9
5DE
752
0B8
195
0AE
662
7C8
6C0
7A5
777
070
165
12B
7DA
752
7D8
644
0BD
6BE
7BB
030
0F5
067
0A8
00D
79F
6E4
7CC
730
7C7
0AE
7E7
79D
70C
1B1
1EF
669
1FF
026
12E
78F
746
14B
7FE
0D5
071
7A1
05F
765
6E0
078
6B5
11A
6EE
0F8
7C2
1AB
047
7BC
774
146
104
115
23D
154
1F8
7DE
7CA
1D8
08E
75E
029
7B5
090
077
13D
7C6
717
010
60B
7CA
162
025
66B
66A
752
5BC
750
7CB
710
1E8
07F
163
7D5
072
7E7
00A
061
1EE
1CA
145
754
0B3
07C
625
11C
032
04D
135
7CC
74B
713
24A
7D1
790
6E0
07B
7BD
6E8
5FC
7E8
01F
764
7E7
759
258
005
0B7
13B
051
6CC
23A
162
7C9
7CA
765
6AE
100
7BC
14D
70C
6FE
1C1
12A
6FA
727
60D
016
7BF
73A
7A8
7EF
778
0B5
066
7A4
010
719
74E
711
10D
013
7A6
758
731
040
7FB
63D
018
19E
66E
675
069
6E4
770
04F
7D3
019
091
681
070
010
0FC
1F9
7D1
739
729
18E
042
078
752
6E7
652
005
0DF
6FE
7EA
06B
0B8
7D9
7D0
7CC
0F4
7D5
192
0FB
04C
724
04B
764
068
7A2
758
6E8
0DF
79A
7DC
0A4
772
0C0
6CC
756
6D7
006
123
7CB
12F
0F8
0D2
29E
014
0DC
088
168
180
6B5
728
7E4
6B1
769
614
726
71C
759
77B
018
7E1
663
6FB
74A
6AC
6CC
7B1
7CC
05D
757
66A
799
630
70E
692
723
098
762
0D7
781
77F
0F3
080
127
0B7
042
78C
7C5
0A5
133
76A
0CA
022
02F
7BF
652
6B1
0DB
785
0E3
6D0
063
0F9
048
6C0
6AB
015
0D9
02D
7BD
6AB
15C
666
05A
05B
02E
5D2
66C
56B
183
18E
790
785
04E
158
732
648
64C
04D
1C5
039
755
753
062
61A
7F3
7E2
71C
75D
25A
04B
0F4
6D5
051
66D
053
170
0C6
7F7
01C
09A
06E
672
09B
728
6B3
67E
095
102
665
584
022
7DB
71B
69A
116
0C2
178
05F
071
061
198
085
705
060
014
004
098
090
06F
146
114
1C5
00C
11C
02E
617
799
76F
08F
0D9
64C
04D
0C6
064
0F5
163
104
737
154
7FF
6E3
6A9
0CF
016
7AC
759
779
63A
7D9
106
000
703
7D3
016
000
0D2
077
0E8
6B3
074
193
00B
09C
152
764
6B0
164
6E9
0D9
051
124
12F
0D8
708
7CA
7DD
75E
668
7F8
602
789
092
694
695
7B8
185
6E4
19A
096
7A4
0D3
06D
7B3
6F1
5FD
6FF
010
027
771
19C
008
7E2
630
698
757
691
72B
055
23D
15D
147
77A
23E
66C
7E4
7E5
08B
6CD
723
0A8
1CA
7BC
770
15B
037
06B
604
021
09C
5F0
049
6B0
0BC
0E4
0D4
785
6DC
7B1
058
763
0C8
052
0C0
156
147
074
630
7CB
1D3
5FB
089
7E0
7E1
6EA
745
737
6EA
7FB
75A
6BA
7E6
186
71B
72E
107
0E1
0E9
7B0
041
08A
70D
7A7
7F2
795
083
7DA
009
79D
028
01B
06C
00F
77D
79C
618
7FD
02A
758
0D6
7A4
04D
762
050
674
1AD
0FC
09E
1A3
79B
002
0D0
1F2
6BA
029
60B
095
239
0DD
74D
788
77B
7F2
0DC
77A
18B
775
1AF
6D1
71B
0D7
7CA
7D2
0DA
13D
6EC
7D8
207
74A
58F
676
624
096
688
5CB
014
64A
798
0C0
5B6
790
0B9
7F5
0DF
729
05A
05A
02F
751
6BE
014
695
011
20E
6CC
17D
04F
688
0B1
1E4
75F
188
120
09A
76D
05F
79B
122
5B2
68F
6B0
021
0D1
1B6
1CF
7CD
7FF
6C4
6D6
720
749
6BD
6F2
7A8
0B6
158
74C
092
7E4
5FE
144
0AD
779
6A8
0B3
0D9
11C
0D7
0D0
6C6
014
591
768
775
5EC
0D5
7A3
6BB
10D
065
6BC
045
188
097
073
6C1
6B3
67B
045
1F7
69D
63D
1AA
7E4
14F
66E
12C
721
7E6
7EB
7B5
046
76C
0B3
036
165
5D0
21C
014
7ED
048
0C8
732
061
784
618
023
156
090
04F
76A
764
724
01A
200
01F
118
641
5F6
791
1EE
007
635
0F9
642
06C
112
772
1FE
00C
79B
6AE
0F1
0C6
0E5
08B
733
124
655
7EA
150
6FB
705
0C8
731
7AD
241
129
130
76E
640
0CA
1DD
7F8
0D7
7FB
090
03F
232
014
72A
7F5
038
754
0D1
0E9
7BC
6E0
763
7A4
116
06D
186
03E
1C0
0B8
105
00B
073
76D
0A9
07D
75D
680
7A4
774
0F1
681
77E
7BD
620
7A6
772
1E5
0AF
066
190
7DD
657
7B5
7F5
14B
657
06B
147
1B3
150
748
7D3
73B
799
7CD
0A1
136
0E7
776
037
796
7A2
020
080
6A2
606
6E7
052
0D1
04E
64C
5E0
7AC
159
002
0E2
644
089
751
6C9
0D2
060
723
094
172
119
024
173
1A5
7C1
66C
014
024
6A8
080
6CB
6B9
7EB
69D
68E
6D5
5E2
0CB
00B
62B
715
022
62A
5CE
100
19F
6B3
7B0
722
6AB
094
607
0E1
028
602
0FD
05A
05B
03F
129
0CA
1D4
7DC
6E2
17D
15E
7AA
7E0
133
0B8
6E8
77D
7A2
716
608
6C1
67A
08C
7DC
6DF
089
783
0E4
79C
009
1A9
12A
6C3
72C
6F9
1DD
0A2
7FD
04D
23A
762
5C0
19C
734
1CB
755
7ED
11F
017
75A
7EE
105
101
7DE
096
03C
0C8
671
68B
767
187
756
0A6
074
0B8
677
217
151
072
76A
0C5
029
12E
695
0B4
202
7B4
7CF
02D
6F5
08F
61C
1C4
19A
08E
02E
087
133
6F9
00F
60C
05C
793
7E0
0D7
245
672
7C5
053
66E
168
735
78F
752
75F
653
730
107
605
722
09E
13D
77B
0F8
7DC
76A
6E8
0C3
083
08F
71A
17F
6B8
7B7
74B
036
120
064
7CA
0B3
76F
0D5
690
7CB
7B8
786
71C
0AD
085
584
110
0D1
194
687
141
04B
744
01D
785
0B5
6A2
786
01C
767
1B5
040
6BB
107
71E
108
06C
74C
09C
7FB
185
086
704
632
147
6C6
0A4
7E2
06C
26D
715
6D0
771
097
061
104
6BD
7BA
166
12E
0ED
784
0E1
74E
641
126
034
675
6A7
7A9
063
01C
670
6A3
1DF
046
59A
1E1
6A8
1B9
13D
022
6BE
13B
132
763
6CC
13D
7F5
7F3
0E3
163
7A8
6AE
6C2
79B
24B
7D2
6D0
0AD
742
067
002
011
75A
7A0
080
023
778
038
61A
771
04E
184
132
639
02D
7A8
08B
7BC
0ED
6A9
7BB
6B5
15E
011
01C
19F
7C3
69F
7A9
049
7C6
679
7CC
6A7
7A5
736
74F
75B
6C0
01C
6F7
114
112
16F
0FB
70E
7DE
658
7D6
68C
065
19D
7CA
01D
0C9
17A
780
01F
06B
70A
720
1FB
752
6DC
0D2
071
682
180
15F
096
0D5
755
5C2
0B0
5C3
0BC
6A9
137
1EA
201
7A7
7A4
079
0C5
5F7
7C9
123
088
6ED
7A0
7DC
057
7C8
056
0BA
78B
7BD
74F
0F7
10C
7B7
656
7AE
766
026
61F
1C6
6C6
1BD
1B2
657
723
701
77C
699
66B
5E3
7CA
76E
165
7ED
1D0
7DD
7D4
097
6FC
094
009
04A
6D7
737
60A
108
691
759
7E0
1E3
71D
04F
07B
7BD
045
7AF
1BB
0E1
649
771
674
5C2
223
756
270
0CA
7BC
02B
74D
70B
796
177
787
6D5
704
011
7B2
7A6
749
6C5
03A
151
05D
1B6
758
075
095
7E7
696
77C
180
7D6
720
181
779
010
7BD
67F
7D8
0E7
0C4
7F0
23B
61F
1DB
11C
78B
193
02B
0EA
765
0DC
1EF
0D8
68C
7FA
0EE
087
0AE
15A
5F1
6FA
6DF
6D7
746
075
078
667
0BB
7D5
7B6
7A4
055
709
6B0
094
7DA
068
003
677
1B1
7E0
7B8
7A7
5EB
025
752
1C6
265
109
790
16E
5D9
099
7F7
799
066
0C0
114
763
7A7
0DB
63B
107
170
0F8
764
651
6B7
7FB
033
013
269
082
1AE
1AB
0FC
74F
79C
6A6
69C
1BD
6F4
78A
7C3
047
20C
772
048
0B0
7C9
109
03F
175
24E
026
273
04F
02A
0C4
020
0D3
5B1
045
5EA
02B
047
6D7
08F
6CA
034
71C
73D
69D
019
06B
722
761
7C3
776
042
180
79B
7CC
00B
154
142
094
7DC
06C
0C7
7AB
7A1
7B6
1D8
0C2
705
0C5
0E9
75D
7EF
6D8
7F5
5B1
684
765
6DC
6EA
192
125
1B0
67D
131
79E
135
73A
0C4
117
0E3
0CB
06E
7C9
066
79A
113
771
0AC
178
176
11D
7A8
13C
1B0
0E4
620
7C0
23B
0F4
02E
178
095
0CE
05B
73B
039
0F5
05D
7AF
0AD
76E
6A2
001
0B5
100
04B
13A
13E
089
00B
7FA
64F
7DC
755
14A
1C5
781
7C8
242
68D
0F9
174
695
653
69D
10B
668
6DC
062
7B7
782
648
797
09F
079
7C3
10F
03D
06F
715
766
009
797
734
01C
622
6B6
135
0F5
6E5
21E
02A
1C7
7DE
0D0
793
68D
004
280
0E0
022
7EA
008
036
5F8
6B2
778
5FE
770
1CE
11D
1BF
1EC
17A
72D
7A8
674
7CB
7D3
036
763
192
6B6
658
5EA
00B
743
034
0B7
039
154
200
13F
717
1BF
72E
713
14C
77A
087
060
658
0D7
5E6
795
03A
0CE
033
003
677
7F2
05E
00B
7AB
755
789
7D0
700
077
791
7B1
785
0DC
5F7
116
74C
5A1
7A1
73D
749
043
0E1
67C
134
0D5
7A6
09A
6E3
058
00F
785
7D4
733
1A5
10F
799
088
070
19F
767
1A2
0C7
10F
650
0F0
064
6DC
056
011
02A
6BB
246
131
15A
104
0A7
19F
5FC
053
0A9
0C7
100
07E
0E9
0A1
125
100
71A
019
04C
71C
7A2
046
09A
0A9
7C6
6AA
03E
70D
253
634
6E4
5F4
694
090
6CB
277
788
1DC
19F
7A4
0D5
703
682
042
7F9
071
759
266
7D0
110
06B
131
703
74B
68C
753
124
076
7D6
0F5
1CF
78B
0A7
6E7
1D1
24C
13A
613
0DB
11E
143
7F0
6C6
78D
215
7F8
0DF
09D
02D
00F
036
0A0
133
76B
1E6
168
725
268
0BC
075
0DA
021
117
783
640
13F
6E7
17F
736
099
0F4
72E
14C
643
77E
104
6F7
754
131
7CA
6C6
0B7
76A
6D5
151
761
00A
7C6
078
6D2
643
190
7B1
7FD
088
037
517
16B
761
70A
093
64E
144
08C
7B2
657
719
7BE
18D
777
706
5FE
1C4
7A7
131
782
0B3
085
27A
079
222
0DA
020
787
79F
6A3
002
192
7E4
76C
132
5D1
7FE
12E
69F
73C
6C9
0AE
792
1A8
179
109
15C
786
796
19F
7AF
075
7B5
13C
023
7C0
61F
7F7
0ED
7EF
18C
0E4
7EC
7FE
059
73C
71B
0B8
0DE
13D
15D
0B9
651
77E
174
79A
0E0
1A2
0C4
129
67D
0C3
053
17C
16A
070
0A7
1DF
08A
742
732
72A
740
71C
6E1
71C
0AD
6E1
01B
6D3
5CC
788
17A
723
6B6
076
1B8
039
665
7FD
04F
06B
19A
10F
7B4
6D3
04B
7BE
0C3
057
76B
784
761
198
01D
21B
677
0D3
733
185
202
765
62C
21B
72A
09F
11D
5CB
010
121
121
116
159
11E
737
034
7C0
152
6B0
078
120
00E
0CA
79C
103
05E
64A
0C1
186
6F2
021
7A5
7D1
13D
640
6B1
6C8
71F
6F3
212
758
0EF
0BB
69A
782
00F
051
1E8
711
7EF
7DF
130
036
68B
718
790
7B2
072
689
7CB
176
0B6
7DB
695
5C6
0F6
7EE
12E
7FE
756
5CF
134
04A
76F
67B
019
7BB
12C
096
133
1D0
0A2
229
787
7F2
786
7C2
730
66D
0F1
7E7
195
6EE
04D
04A
7FC
75C
090
1C8
037
77E
784
211
702
741
7D2
174
189
78E
70B
5BD
7F6
76A
111
683
7C7
7FC
004
070
0F6
00C
74B
0FD
745
685
077
044
05D
686
0B6
6F7
114
093
7FF
789
045
748
774
140
745
05B
6CF
08B
7C9
0DA
73A
634
00A
143
775
06E
11E
097
76A
666
620
739
118
175
134
08B
725
023
227
119
764
0B3
7F2
773
6C2
620
78A
01E
129
7B8
5DB
011
021
133
6F8
70B
1CA
64E
6F1
0EE
126
786
082
731
23A
075
1AD
7FE
78A
702
15C
19A
782
6EB
202
104
0ED
7EF
0F2
156
576
72D
727
133
1CC
001
76D
110
14F
139
051
71B
6E4
096
10B
7A5
085
6C8
76A
1D0
203
771
73A
798
16B
0A6
00D
684
7DD
006
0A0
792
050
68F
02B
754
587
035
0D1
73F
1B9
7B7
639
00E
082
1DA
7E0
635
64B
7E5
7F3
747
077
620
077
155
001
76E
7BD
1EE
13D
096
0D9
03A
005
17B
785
73C
06B
170
0B3
0BD
65F
157
11B
7BE
7BC
6DF
7EC
10A
74A
05E
746
0D8
177
041
75E
743
63E
16E
788
0F8
7AB
04D
1F8
160
6AA
628
67D
5AA
7DD
7E0
67A
0BE
0D6
08C
0BF
727
08D
7B1
1EA
70F
042
7A0
0AF
029
1DA
7B7
67B
66C
711
1EB
0E0
7F9
6F4
1D7
769
7D7
779
0E7
077
7C0
7E1
155
03C
004
7B3
6C3
01C
1D5
626
78A
709
12F
06F
744
0B8
176
03F
10C
02E
0DD
6C3
79A
01A
67D
159
16B
7AC
7FD
7AA
731
0DE
749
0B2
759
7A5
7FD
7CA
0C7
7BC
01A
02B
71E
07B
760
080
764
663
6E1
0B0
040
0E1
0C0
073
778
7A0
78A
7B5
03A
6EE
07D
5D1
6BF
113
74E
728
009
155
0DA
7F0
683
010
177
74D
0EA
76D
111
05F
7F8
0CA
6FE
04E
095
762
02D
1A7
120
191
208
017
788
207
201
009
64C
75A
7DB
7BB
182
023
72C
013
7AD
72D
071
106
734
6B0
037
027
0B9
7F6
01D
064
18D
0F4
050
0C5
755
135
79E
6D4
136
26E
6C7
029
0C6
18A
002
129
776
115
085
005
00D
01D
00C
059
0E9
08E
70C
078
155
137
04F
7FD
77A
1B3
7B0
03A
7D1
1AB
5FF
707
139
015
256
242
6C9
6E6
123
07C
752
799
6BC
0E3
13F
00A
089
137
0DC
0C4
0E4
039
02F
19A
159
771
77B
286
129
000
7C1
781
78C
68A
6D6
7E0
649
7D3
02E
71F
6E8
0A4
5EB
708
778
62F
79E
7EC
059
7BA
759
060
002
082
7F1
2A5
19A
7AD
77A
7EA
0A6
7B6
09D
6B4
7F7
1CD
174
04E
0AC
0FD
1AD
74D
74A
120
205
7A3
1E4
057
745
1F8
6EE
7A7
70B
71D
05A
027
75B
5FE
62D
1F2
6A0
12F
64C
00F
019
0AF
0F0
12B
6BC
662
7E4
745
226
6B8
00D
66E
79D
18A
03B
5C8
0DF
148
09A
05F
2E9
6D7
6C1
687
6B2
05F
0BC
05A
115
64F
6F7
7AE
030
7A7
5F6
7F5
229
621
658
046
749
6DD
01B
036
261
1C9
172
021
6AD
774
163
033
793
7B1
737
75B
776
794
07D
103
783
0C4
6B5
0E9
194
0EC
787
5C8
0E6
5E4
055
74E
225
1D8
12B
1E1
145
7AB
098
75D
19B
045
088
01E
018
07F
03B
72C
7BC
064
707
1B0
027
6D7
08E
09F
119
00E
168
614
1C3
769
10D
19C
076
78A
1B9
6F1
5A8
7A0
7BB
084
695
0C8
67D
1FE
078
6DE
009
068
7B8
7AF
1C5
103
654
754
65F
013
74A
752
7D6
732
15D
5FA
0FE
128
6B1
6D0
1D4
6CC
6B8
6F7
116
7F8
002
77D
0F5
040
05E
7B1
08E
1F5
057
066
000
085
19F
65F
79F
131
794
0A8
22D
08E
07E
0EA
6D9
6E4
7CF
6AB
7D4
72E
0BD
72D
10F
7C7
132
1B5
7D4
711
05F
19F
768
118
6E3
228
219
66D
6E5
046
73E
07E
03A
1F0
0DE
14C
130
049
0E9
06B
5F3
0BE
6CE
00A
687
7EF
20F
068
1DE
6DF
7FA
0CF
7BE
08A
77E
66A
058
7F9
0DA
6FE
7BB
752
108
044
6C1
1D1
72C
758
7FF
1BB
06C
7C3
0C6
015
0C5
7C1
0DD
65D
15F
72E
0C3
5E3
027
191
05D
780
16C
5E4
7CA
179
741
7FE
6EE
0B9
6E4
74C
062
765
083
0CC
7D7
7DE
7A8
6C1
609
7DF
69F
7E5
6DC
238
1F9
213
76E
1D3
1BD
16A
7A4
6B0
02C
75E
1E5
6DB
7AB
77E
0AF
152
09D
73A
013
127
779
12F
712
79A
031
709
17F
608
774
0FE
7CB
26C
773
10D
780
0BC
213
079
020
1B9
0B0
6F1
767
080
045
678
036
66F
12A
111
72B
0C5
181
6D6
0BA
6D2
051
751
0B5
016
674
066
7CB
160
789
7B2
100
061
708
038
7A8
00D
12B
671
139
779
136
10E
68F
76B
752
145
6F5
6DA
61B
74D
6BC
0D7
10B
692
0CF
0CA
007
002
060
6FE
7C4
166
7C7
1F2
09F
064
7B9
79E
787
6EE
0DB
6C8
715
0A5
50E
7E7
677
621
7FA
78C
189
6AE
146
1DD
185
0D9
7F2
66C
640
6E7
081
7B7
044
022
164
155
056
6D4
1C6
7C6
026
006
0E8
051
72E
214
7E7
5C9
7D4
0AD
22D
7E8
7FD
0D1
7C3
7D9
084
09C
23F
0B0
04C
569
0D3
750
645
08A
78D
110
034
0B4
036
711
57C
6E4
080
0CE
0ED
0B4
7E3
5D3
015
63A
6E3
6FF
120
195
052
0DC
7B3
03A
0D6
64B
09D
072
079
052
11D
7AF
216
17A
772
0BA
773
0A0
797
0BA
022
5F4
0BC
199
005
0FC
72E
01C
189
7F5
016
5CF
0E8
0EB
76F
730
092
091
152
733
754
76F
1A3
6E0
6AA
109
09E
764
099
168
0C0
041
010
6D0
6C7
08F
10F
7F8
69F
02D
7E6
05F
15A
74A
72D
645
07B
744
13C
0A9
68B
0D3
149
791
747
030
693
15C
6DA
0E7
201
5A8
67C
146
74D
18A
771
183
788
126
763
005
0F2
72B
041
7C5
151
6CD
024
073
674
67C
7FE
6D4
72F
7FA
203
6E8
14A
0F9
121
084
0C8
6EE
720
7F8
0B2
108
1C8
18E
7BA
6A5
729
718
064
638
156
757
786
055
026
5EE
01E
097
1E5
1B4
783
195
726
7B8
5D7
66C
724
6B7
721
0DE
7CF
0B8
7BD
738
04E
791
784
6AB
6AA
01E
0EB
695
08E
68F
1BD
68B
0B9
09E
670
073
74F
7DE
05B
703
7F3
1B8
195
74F
64E
785
71C
092
038
123
786
028
078
0F0
114
19B
039
7A3
6D5
7D0
133
7F5
79C
241
657
12A
7BD
050
62F
5C1
7B7
715
79F
1CC
11E
04D
0ED
7C1
676
084
641
5A8
025
022
793
6E6
13A
211
620
0AA
664
0BF
7C3
6E7
771
0D5
7F9
14A
7E8
043
1E6
7A7
22B
701
687
1CC
7FB
0FB
063
683
0CD
693
73C
5E9
145
760
5E0
64C
7DE
635
11C
0EB
0E9
5CA
6A2
1CF
181
097
724
64E
7C6
0C0
129
041
5C3
166
661
060
0C5
039
015
017
163
781
7AB
7EE
0F4
108
650
766
177
7AB
07B
17C
779
194
053
79C
08B
218
00F
18D
07D
690
077
72A
228
020
1EA
0E8
5D3
6CF
0A6
711
7DE
7B5
758
765
737
75E
055
0B6
712
186
18F
01E
659
6FD
781
00C
76A
0A6
7FD
054
137
06E
66B
5EC
7D3
0E8
0D4
0FC
1C7
73D
6E9
072
7FF
6A1
0F6
7C5
7D1
12D
0C1
776
703
79B
747
04C
760
078
201
098
0A2
7D8
713
141
71F
7CD
09C
061
090
058
079
008
623
694
155
12B
786
1A3
7FC
073
133
611
70D
159
063
770
6DC
727
087
5CA
043
66B
047
7B6
721
728
5E3
198
0D9
016
744
5D1
046
1CF
77E
183
138
7D9
0DF
764
70A
64F
0A2
18E
7FD
183
038
676
0A7
7B8
119
67A
074
1C2
104
76D
79B
76D
7AF
77F
06E
6A7
0C8
6D2
067
1CF
0D7
790
69A
011
7D2
7F8
70B
064
697
0B1
0E3
706
1B1
5E6
186
680
0FF
0A5
6D1
728
782
1AF
5CF
193
0FD
185
78D
060
03B
005
6B3
169
621
679
08D
0D5
102
08E
6A5
020
560
113
109
6E4
72E
001
0A1
6FB
0D0
59A
78B
73E
1E0
005
115
732
6EE
0F5
6EA
144
035
08D
224
67B
6C6
103
68D
7B1
25E
093
201
705
1B5
053
094
0D7
726
21C
022
084
164
0C7
0D2
69A
01F
7BA
790
15A
791
1E5
0FA
0AE
1C9
7AA
7BF
700
1F6
1F7
1EF
0F1
6D8
61B
104
0F9
75E
073
119
086
6C1
780
718
7C8
0B8
676
0D8
741
6E8
79A
03B
799
6DF
12E
746
743
79B
555
771
785
147
07E
7D3
5C8
0E4
5A3
0A7
0AF
725
77E
249
10C
24B
005
7EC
659
1C3
697
07D
14E
61F
116
02D
78E
20E
051
084
6FF
0B0
7CE
037
793
147
17B
03B
761
750
6FB
65E
085
121
14B
06E
17C
0CA
7F8
15E
7BE
6CD
078
0CC
196
7DC
092
7FB
669
000
733
7C0
1A9
046
205
06B
7AF
777
7BC
057
716
664
02F
1DB
12C
64A
064
620
7DE
0F3
789
0B9
150
789
15E
701
780
0CB
19B
0EE
277
64F
786
136
0C0
12C
6C1
05C
770
795
64E
07A
050
53C
0A2
69F
042
6A8
087
135
6FD
192
7C8
0A0
043
7D7
1D9
639
059
115
67A
7CE
711
7B2
79C
1BC
072
09E
7A3
0C2
71E
76B
7E1
705
0B8
138
0EE
793
1C4
78A
082
0B5
717
7C0
017
12A
0C9
6EC
694
7FF
781
1E4
19D
12F
78B
744
727
03D
007
71E
5AB
6F8
04E
7DF
726
107
79B
051
0D3
6D7
5EC
6E4
025
700
162
771
082
087
143
06D
6D3
074
0D4
7FB
038
637
6FF
6FD
689
026
6C5
79E
5BA
7AD
65C
0B1
101
75C
22C
7AF
7F0
159
7DA
657
099
0A2
01C
12B
7C0
6F9
014
763
0E9
7FB
064
046
102
7A3
098
790
6E9
719
797
76A
04B
129
7C2
0A2
200
67B
674
6C8
7FD
046
081
5F3
736
129
76C
5D7
1D5
6EF
129
7D0
13B
01C
5C0
7CF
0AE
0DB
085
19E
026
7E2
193
655
7E5
7D4
033
7FB
696
79D
61D
0B6
10E
0B9
6B4
11C
09D
004
6B2
7F8
7BC
68D
7A8
785
038
05F
71F
05C
7BC
0A5
18C
737
612
753
0B6
0DA
7C5
7CD
04E
0B0
74F
145
769
1A3
050
008
144
619
05B
6CD
1F0
63D
5B9
03B
100
224
249
059
7BB
03C
0C1
143
6B2
003
21B
19B
00C
103
1FC
71C
0B4
061
00F
15D
7B0
6D7
077
04F
015
746
624
64F
7CA
739
678
022
160
000
740
05C
008
0EF
77E
018
084
144
017
6F6
163
7FD
7A9
05E
0E9
20E
060
18E
136
07C
0F6
210
1A0
149
0C7
03A
5FA
746
7D6
792
652
041
100
031
71F
6FE
00A
7F3
1A9
7D0
7E7
043
0A2
194
799
1DC
024
1BC
16F
77B
047
0F2
0A6
687
0AC
7C0
7B6
11E
77A
7D5
75C
6A7
60A
110
1F0
033
04A
789
0A9
750
07C
7E7
0E3
075
11D
0E0
617
05D
786
610
660
6E8
6CB
082
143
19A
7D9
011
1AD
7FF
1A3
1D9
104
02C
077
223
6F8
051
662
66C
73C
62D
790
169
154
056
0C6
056
092
051
7F5
17C
071
13A
7E3
7BB
1DF
61C
7E1
15D
741
7BB
783
088
7C4
74A
6C5
1FA
769
75A
794
6AF
0AA
076
6F9
0E3
667
004
5C9
0E1
137
03E
060
0AD
066
0A7
711
6BE
78D
6B2
6BE
7C4
6BA
781
17A
0CC
763
79A
0D0
7EB
778
19C
7DB
7CC
0A0
7AB
7F2
0FF
097
6A8
1CC
0AB
7FD
1D7
027
745
098
19D
176
019
738
5C3
6F6
017
044
645
176
03F
167
030
773
021
778
098
164
06F
721
097
1E0
1A8
7B5
002
7DD
7BC
777
7C1
152
6A2
6F4
7B2
02B
7FC
0FD
798
5A7
6AC
692
1D5
7C7
7AD
7A3
062
124
0F7
741
218
163
785
0DD
75C
032
09A
655
739
0F6
6C7
7E5
069
63D
0D8
5F6
64C
6F7
74C
5D2
65D
765
1E2
7B9
002
08F
7C2
70D
050
15A
163
77E
74F
7D9
746
160
078
673
091
7CC
780
0A8
736
5F5
055
7D7
74E
13B
047
299
01B
001
0AB
6D0
06B
7C8
72A
176
103
6A5
1B8
7B3
7A2
62D
1EE
7F8
283
7BE
0DE
685
112
194
1D3
194
162
0E5
75C
1B1
125
044
0D7
0A5
1E5
017
62D
1B9
05E
6AE
754
742
7A3
1FD
0DE
1F2
7CC
1DB
016
616
5E9
6DB
77D
09C
131
7B2
783
76C
008
64E
7C9
7CA
6C0
721
12C
104
5DA
180
770
008
016
0CC
24B
7BD
07A
7CD
07A
069
5B5
06B
764
10D
782
049
173
039
238
098
06B
0EC
054
014
032
1B0
736
767
040
7E5
297
042
181
085
09D
140
025
0E9
6C1
14C
5EF
705
0D8
074
0A7
056
5BF
732
64F
7D6
7A0
0C9
704
101
0EA
022
170
685
675
069
7CE
1C9
69A
229
5A3
6E2
752
121
7FE
7BA
106
064
748
5E8
725
1E1
0FB
03F
127
6A6
7E4
019
152
159
695
7B0
089
126
699
71D
0E2
7C9
757
15D
074
0DB
6DB
044
685
660
071
0E0
06E
750
7AB
0A2
0F9
019
266
7FA
0CF
0A4
16E
103
702
1EC
7FD
196
7A5
129
737
1DC
00F
683
1F5
7A8
0A2
7F4
74C
781
756
79F
77A
09C
143
186
0BA
217
07C
1A3
75E
7B0
6DD
6F5
03D
062
7DB
027
071
229
7A5
66C
08A
76C
0C2
789
68D
046
032
732
04A
7F4
02F
66F
067
0B7
1AE
750
7C7
69D
11D
04B
060
076
645
0E3
773
79D
1EA
1F0
020
0A7
0AB
74E
131
0D5
0A8
6C5
26F
66D
7EE
781
192
0CE
0D6
1B9
7E4
6A9
096
018
179
70C
712
6ED
106
7C4
5F6
575
701
054
6E3
5C2
02D
014
1EF
705
03A
08B
20A
29A
745
723
008
5EB
779
0B5
642
6DC
717
052
1A0
5C9
7F5
11A
0A0
086
100
15A
15F
0EC
5D3
7CF
716
0D1
05E
0B1
6C5
6B8
7D1
72A
02F
7F9
0A9
256
270
192
01E
051
6EF
127
0A7
1C6
1AE
7F1
0FA
7A5
0E7
64F
1AD
23D
0A0
79E
705
744
100
7EC
1F3
19E
028
5E3
75A
6EA
0F6
22D
7E3
7BA
143
10D
75C
0A4
121
177
5F2
0F8
123
7D1
7A6
7A3
0CB
677
164
019
76F
0EE
740
0BC
01B
19D
665
0CA
7AA
0C5
00B
0EB
164
7DD
774
052
10E
5CB
703
015
0A8
201
040
0A3
105
741
138
14C
040
7A4
690
02E
7A1
048
1F3
222
135
791
6BB
67A
0AC
14D
18B
024
050
5EE
233
07C
7F6
0EB
6B7
0A6
73C
119
0A4
734
620
173
118
09E
7C5
11D
0CE
061
006
0C4
688
6AF
75F
194
7C4
7D3
702
6DA
766
7D0
09C
6B0
154
1D6
29E
7BC
701
695
6DE
1C9
629
113
1E6
033
08A
6A4
5F9
07B
05C
106
031
0BE
0B1
706
0EC
7A0
571
7CB
6C2
038
643
783
6F1
6BA
710
6E0
69A
613
245
660
032
686
14C
196
726
5B0
5DA
7DD
76F
7D0
18A
206
101
5E1
6CD
7C3
0FE
7D2
731
00B
0A6
01C
732
5D6
6D2
763
15B
0F8
655
0F0
22E
030
794
1AF
01F
04F
1AE
044
03C
00D
623
025
161
71F
62A
004
60F
0A3
5F9
101
229
7F4
6D0
001
7CF
0E3
0CC
728
068
7D6
0A8
64D
6DF
6DA
63E
730
14E
7B0
673
0EA
138
03D
111
78E
0EC
02D
142
1E4
66D
62C
7F4
02C
641
7C3
60E
6B1
664
0F7
73C
01A
0E7
687
074
7E0
77E
723
720
0A6
788
642
051
208
099
056
755
023
078
094
246
049
729
19F
1D8
75E
6D9
6BE
7C6
728
174
7DF
79E
5AA
211
710
669
1BB
1AB
11C
69A
737
78D
7DA
5BA
147
6AA
7C4
653
0C9
77E
7A1
75D
25F
03C
605
77E
14E
0FD
149
05D
6FB
218
1C3
19C
6FA
1B2
6B4
0AD
64F
07B
141
093
0D8
0BC
169
220
691
139
114
111
72C
7BC
7A2
768
5BF
656
6E3
0B2
743
62E
1CE
6C0
053
6D9
7EA
6DD
00A
717
70D
606
6F2
7A0
7C5
793
0C2
6EE
019
6EC
785
7F6
766
761
026
070
1F8
0BF
734
0AB
11C
0C9
6BA
68C
19E
682
7FB
781
0BC
075
06E
696
778
76F
7E6
182
6B2
076
787
1AE
120
567
6D0
6E2
268
280
6CF
667
73E
06D
02A
71A
715
00E
17B
052
747
063
7D0
68A
081
045
78D
07A
058
7DF
75A
7A8
1A6
067
0F2
06C
735
731
071
7DD
03C
0CF
716
73E
049
0E3
0FC
121
736
6F3
658
13F
1DF
7C6
027
7EC
749
0F3
000
793
72F
0FA
705
5F5
086
6E5
7D8
0C5
1A9
02A
038
1D8
02C
6AD
1C1
01F
080
7C6
7D0
61E
1B5
190
5BF
6B5
6AA
0D9
6D5
117
6B5
6EA
05A
171
04D
168
72C
009
737
75A
776
7C9
60E
131
7EB
09A
743
154
079
7F7
7F8
71D
031
17F
132
675
73A
7C6
714
79C
6F4
742
09F
08D
7CA
08F
1F8
081
01C
0F6
069
140
0D7
592
184
681
5B7
6D1
064
081
0E8
6C3
15A
76D
717
1A0
125
104
174
023
7DF
106
7E1
637
15A
6C5
004
15A
0FB
036
7E4
0A5
5DB
0C1
0F7
041
788
73B
1FF
6C8
062
11A
082
1F8
6DF
699
79B
1C2
7E3
667
145
082
793
179
68F
17E
744
1BC
7DC
0CF
60E
731
6ED
7D9
037
132
7B8
799
027
788
049
736
66E
007
7EB
781
67C
7CE
77B
11D
1CF
78B
660
7E2
65B
71C
147
729
078
0AC
153
75A
71D
1E8
05A
09C
756
75D
050
710
138
669
0D8
56C
001
75E
7AA
0FE
658
690
7FF
6E3
15F
634
1FE
0CA
7D6
7F0
655
6B9
695
0ED
57D
09D
775
153
7A1
15B
226
76C
004
76C
1B7
012
6D8
025
03E
74F
024
6D1
0E4
1AF
74D
7F7
7AE
7BC
15F
00E
072
03B
120
1A1
6EC
640
792
627
05E
65A
016
714
205
73F
0AD
6A5
0A1
6B7
043
0BA
065
1DE
043
0DD
7F3
1C7
0FB
766
0B0
0C4
7C9
0DD
6BF
5C3
7AF
747
102
705
0DD
799
012
058
098
5D3
72B
0A2
69C
0DC
057
013
274
09C
6D7
750
6CD
0F6
69E
05F
17E
081
14B
7A6
6F5
747
6B9
086
7EB
0F4
7A3
07B
708
649
763
67D
6E0
701
7EB
00F
053
0F4
20F
75B
0FF
1DF
24C
742
73A
0C5
6F3
03C
001
23D
0D7
149
751
790
6EF
163
5CC
013
7F0
725
071
7A3
77A
717
15B
70B
09D
686
1A4
040
778
09E
035
0FB
6FC
63D
679
0F5
75F
7F2
065
056
242
14A
07A
5EA
7C5
0DA
69B
7D9
118
77D
79D
030
082
068
108
060
00F
6F0
02F
050
15B
1B7
71A
0C9
186
7B7
192
121
030
715
050
70F
64D
69F
13F
00F
1C2
685
782
15E
14D
76E
6EB
6DF
6DE
173
79A
1E8
20D
633
04E
6DC
179
738
0E0
736
068
251
01F
186
7A7
062
7C9
653
045
625
56F
112
78A
01C
062
771
766
6F4
1B6
759
0F8
78F
09E
6F5
1ED
6A7
621
08A
754
0F6
0FE
0F1
119
1D5
6D8
6DE
037
6A9
0D7
7F6
10C
187
089
77A
781
72C
019
039
77E
1C5
234
00F
0DD
0E5
00D
5ED
680
09A
123
7E0
738
77D
109
0A1
035
05F
035
79A
7C7
71A
07D
043
740
79B
0CD
716
7C5
6AD
0EE
6F9
03C
6F5
58D
1E1
7A2
79F
11E
010
714
7BD
7B0
03B
71D
6A9
5F3
7A4
7A4
7AF
6DC
6C3
67F
6E0
16E
12D
0EC
792
004
0C5
0D4
7F7
06B
7F0
765
7C5
671
169
254
004
16C
13E
6EE
100
008
762
7FC
7E7
740
1AE
022
136
0CC
179
212
0A7
1D0
72D
116
7CD
15E
747
100
7C0
7D8
787
6C5
76C
776
096
783
78B
7CB
0F5
6E2
0B8
1C4
736
0FF
01B
794
1B1
6E4
036
71E
6E2
1A4
01C
6F1
5E3
7C0
02D
028
716
7FF
16B
0E8
63E
0E2
18C
0B9
7F6
7FC
68E
794
024
6B7
0E9
24C
7B0
0C1
0EB
7A0
7F0
1F9
700
0CA
705
739
7F6
7BD
012
673
6BD
0A9
6DC
6FA
055
7A4
13F
08A
796
11D
0E2
70D
07E
57E
15E
17C
6F9
794
28B
764
041
6B3
1AA
135
6E7
0A4
7AC
7F5
1A2
131
00F
630
026
0F1
7BD
09F
167
7F1
6F2
05A
02E
7DD
724
76F
20E
6ED
71D
769
7F3
279
75A
005
687
7DC
67B
11D
277
6D5
0C8
1AB
036
705
130
158
00F
76C
12D
07F
7B7
5AE
0C1
6BF
7EA
7CB
02D
7B2
1AA
082
072
086
0C5
02A
683
0AD
023
0B0
121
00B
13D
6A6
03B
0EE
099
66B
7AB
725
0F0
0F1
212
5DC
02C
77F
7DB
76B
6FC
063
7EB
198
0D9
253
061
794
60A
6B0
06D
117
0EF
168
1D1
0E4
123
0BB
069
018
0CD
144
0EE
6E6
12B
057
1C2
096
02F
05F
095
7B3
1B5
157
63D
6AA
7FB
7D0
6EC
79D
048
111
049
1A8
76A
10D
719
718
09C
712
14D
09E
1BF
006
19E
027
0C1
7FF
16E
0FC
101
6F2
75F
03D
673
7FA
7B7
1CA
77B
001
6C2
69D
68B
023
0DE
769
7C1
641
002
158
0F8
77C
150
6B2
643
67A
1D6
7A0
114
0E4
7B4
7F1
07F
7E6
03E
620
074
234
1A6
073
7FC
68F
0A8
0EA
08B
0D5
72E
78E
694
765
035
7ED
773
751
7D6
032
146
7B2
043
051
030
08B
1CB
7C4
7A7
0F9
155
073
7C6
045
132
7F4
12E
79C
076
0DB
01C
0B3
23A
7CD
08B
7E4
644
0D7
6AD
0DB
12C
0D4
0FC
793
7D6
161
720
06A
71E
711
18E
7DE
05B
61B
7E2
697
6BF
774
644
7CF
70F
6EB
740
7F8
000
7B2
6D8
6F7
1A8
6B6
097
741
0F4
7E0
189
076
076
7DB
151
7AD
702
17A
74D
703
0F3
6C1
7A6
723
7BE
103
660
778
6D2
6B5
0E8
1F1
7C8
1DF
720
65E
7FC
6C0
746
0FE
5C7
755
791
7A6
634
769
073
170
64E
766
0DB
285
6F9
191
04E
1A2
798
735
089
77C
117
6FA
0C4
724
032
795
08F
120
0EC
7CE
1C6
05E
6E5
1A5
1CF
6E8
060
06B
133
237
1DE
7DB
6A3
6EC
792
73B
045
6CD
049
191
181
723
71C
024
160
78F
770
7E3
7EB
182
0AE
663
0EC
758
676
0F1
080
021
6F5
063
7F1
741
714
00A
72B
082
793
7B5
74A
6C4
79E
199
112
707
710
070
597
7E6
032
6C2
11E
03E
04E
7F7
69E
0BA
050
76C
036
06A
1FF
219
09D
5DB
7DD
0ED
7D4
799
791
7A6
022
07E
697
6DB
00A
78B
066
026
6FD
0E3
06C
7B3
1EB
6AC
05E
731
0DA
09F
75A
7CD
733
1B4
12E
67E
7DA
038
793
7C8
211
6BD
672
6A5
682
6F7
7F6
146
611
157
680
6A1
10E
05D
6A5
6E3
087
7A6
7DB
0AD
0B2
73E
008
12B
7FB
00D
0AC
041
65D
105
632
124
05E
197
0E1
5A2
02D
640
074
791
127
0D0
6FD
00B
6CC
6E9
6F2
00D
5FE
76A
073
008
087
732
721
6B6
088
19B
17F
76D
6A1
0EA
7F2
08B
611
018
7BD
009
61E
7D9
074
004
22E
02F
61C
697
069
12D
038
67C
6C4
1BB
15D
76C
0F6
10A
674
19A
09B
662
7F7
78D
6A8
6AB
68B
70D
079
214
648
08E
050
7CE
101
789
013
799
7B5
6F9
763
140
0A2
10F
798
66F
1B6
61E
0FE
21E
695
1FF
049
184
07A
573
078
057
0CA
79E
7D7
16C
781
078
077
2A0
170
0AB
715
6F6
12F
77E
700
006
1AA
047
1E1
002
09C
737
75B
6A3
6E0
215
136
7C4
085
172
15B
087
78F
792
10E
07E
153
045
1F3
7ED
127
013
7DB
004
16A
71C
7ED
025
7C3
0BD
6E4
060
6B4
782
0E6
080
79B
028
722
744
003
7E9
070
100
173
7D6
781
114
753
0CE
099
68B
04C
66E
69D
128

