FE
20
06
32
14
F4
0A
FA
20
F8
42
44
08
F0
04
26
10
0A
22
0A
10
06
06
34
D8
D8
06
F6
D6
F8
FA
12
22
28
22
22
10
F0
14
38
4A
36
2C
F4
EE
F2
1C
E8
00
18
EC
EE
16
FA
1C
3E
1E
0C
26
FC
FA
12
EA
46
12
2A
06
EE
F0
E0
04
08
F6
18
FA
F2
2C
18
4C
F2
0C
4C
14
08

