3BA0280E
B58BABDD
3C7C13E2
3C080913
3BE9E974
BC9B9B18
BA49FC1F
3C6B56B1
BB9C8D1A
BB7951B3
BC16C938
3A5B2B99
BC608897
3C94584A
3A01E9DE
3AA96B39
3CC2942A
3761F5D4
BA43CC2B
BC67BCDF
BA14471E
BA805530
3C136114
BC1E8A03
B9EEC145
BB77C3E7
BABC84DD
BB0851C4
BA40CA23
3ADD0F46
3C482AB4
BBE9EA67
BD00679F
3CE950B6
BA9D0F19
3C8AA56D
3B4C2025
3BB31F80
BCA259C1
BAC671E6
3C1A7069
BC60CA7C
B89131F0
3C4DED0E
BBA13652
BB25A88D
BBBE4A04
BB933927
BA908818
00000000
BC77B26F
B8DA1D5E
39943DBF
38FBCC91
3A87E592
BBA340FD
BA867C73
3BCE05A3
BC413CC8
BC777B25
3BAAB23F
BAAFD0C8
B863A049
3B9CDCFF
B99857ED
BC3584B9
BAD248A9
3BECD127
BCC27816
BA968744
BAE6487A
3B3C4052
BC7EF447
3C30EC36
3CB1D881
BB4ED996
BAFAEDB5
37C7D6BF
3ACC62B4
3AB58CEF
BC118E99
B90BA0DF
BAB7B89D
3C40C15C

