3E0A3CBE
BCB22FBC
BE3FB4AF
BDF0A8A3
BE628CBE
BD3B8467
BE990F92
3D6A0210
BE9D73B5
3E44017A
3E3AA10C
3E0D6F3F
3D8C967D
BA28BC32
3E663D09
3E1F9AF7
BDDC469A
3E2D8060
3E7523EA
BDC3C9DE
BE8E8C5E
3E3E868E
BE822F94
BE1D6A65
BE63C044
3E9560D5
3E378EB8
3E00CFC4
3CA2F6B8
BE090F4E
BE298653
3E644791
BDE6C04C
3DCCFF78
BE0A7219
3D8E1007
3C212554
3E6D8B64
3E2F8C17
3E503F6E
BE91EF85
BD8F0DF3
3E1B2702
BE3DA290
3E4061A6
3E6F191F
BE32DEFB
BE7A0796
3D8D136E
BE2D8166
3E27ADC9
BDA9F1E1
3CD05E5C
3E16F04D
3DBAB7EB
BDA92BE1
3DB3968A
BE8A9B9E
3E25D06B
BCE3D9DD
BD95A43D
BE6CF763
BDB45DF3
BDE3498D
BE449461
3DF9E579
3CE3317D
3D0C5341
3E16F739
3E5B2D67
BD9BE188
3E1DA094
3E28D538
BDFE8FBE
BC95BA08
3DDD80A1
3E8120A6
3E0F95FF
BE9D7E33
3D5FEF7F
3E7EDB43
3D12A751
BE6DA2AD
B97C6541
3CFFA7BD
BD7AC930
3E774E88
BE34B6CF
BE4E95E7
BE2CF2BE
BE1BBFB9
BCBA8B5C
BC05E3E3
3E055BFB
BE74961B
3DB62950
BD9DF0A5
BD949FC6
3E06B2F6
3DBBB95E
3DF7399A
3E22DFD0
3E375B63
BDC2159B
3E26BBCF
BD757810
3C011425
BE59A73A
3E49D166
3E00D0E8
BE6B3FF8
BE0046D8
3D5F649D
3E459981
BCFF2B69
BDFE2D5C
BE3322E3
3E879675
3D7A40B2
3E81EFBB
BDC49FD4
BE8FAD94
3E9005B7
3E968A68
BD62D0CE
3E6DE248
BDB1DCCD
BE5775D2
3D474E6D
BD849C38
3E9134FD
BCFA20B2
3DBA9469
3EB0BF65
3E76171F
3E6972B2
BBCAC193
3CE29726
BE8F95DF
3DF88C47
BC01F2DF
BD24FC12
3E38FF20
3E17202D
BE45F146
3DC3D9AF
BD452C54
BE169792
BE6C1411
3DB001BA
BE09086E
BD1794AD
BBA95269
3E0E11BF
3DD181AC
3DAB93AE
BE8BA28D
3D5CF2A2
3E0B7C18
3DC517F8
3D9E734E
3EAC1CD2
3EA4C87C
BCBE4F5F
BDC5C7A9
BE805DEC
3E7C4AA4
3E25EE27
BE3716A2
BEA1A29B
3E15D7E7
3E0251EE
3D0BF422
3E5FAD47
BE6CC9E3
BE7C9C10
BE766538
3E0DF55E
BE39F687
BCE00BA0
3E312A7E
BE1140FA
BD5B7CC7
BE670F57
BD47943A
3DBBD810
3DBC9ED4
BE1EC673
BDFABD09
BE80FDBD
3D87FC02
BE543CC7
BE012316
3CED18C5
3E77BC92
BE0E5A66
3EA32648
BD8C26B2
3E37E499
BE1EE85D
BE69D029
3E7ED3EF
BE7DD36E
3E289474
BA953D79
3E5F9708
BCEBA35C
3BADFBB7
3C06F816
3E31F967
BE1CCB34
BE15BBB9
3E71730C
BDEEDE36
3E24482A
3CF60832
BE185478
3DCEC9EF
3E5A0C13
BE2AFBCC
BE4E6B45
3E2479C7
BE6DE5C1
3DEE2EF5
3D873878
3D42F9C6
3E6A1AE7
BD63F8CF
BD551AF0
3DDE4A56
3E1CF5BF
BE337D9E
3E85B270
BE839977
BDC84734
BE70A0AD
BDBC0CE2
BE16A579
3D5BB0BA
BE5A98B6
BDB62D06
BE06565D
BE1E37F2
BE1E0228
3E337FEB
3E4832DF
BDD875C9
BE1695F0
3D4CEB20
BD485766
3E2C9886
BD9B3C8A
3E2EC50C
3E128E11
3E35D04E
3E233B96
BDE5165C
3D27CA89
3D9B87F1
3E83903D
3D8C240A
BDF79E61
3E319B83
3E170354
BE230E52
3DA5B526
BE86811E
3E4C4B01
3D35B1C2
3E800894
BE17FBEB
BE3A92D2
3D41CFC1
BE72C5F4
BDE5E4D8
BD69D36F
BE21136B
BE1BE56B
3D51649A
BE5C18F6
3E394BA9
3CBBB1D4
BE863E59
3E1947ED
BE4B60FF
BACC6B80
3C7715A6
3E53C7B6
3E355A51
BC693F59
BDA54BB3
BD2BDD9F
3E696766
3DB0A975
BA65AA17
BE6C41A4
3E2D815C
3E7300F7
BDB60F5F
3E0EB5AD
BDA8AC0D
3CA63BEE
BE34CBD9
BE2C573D
3E72F2F1
BDEE9269
3D4F44C0
3EABA021
BCE65219
BE7D013F
3E994BAE
BDF33F8B
3DB73A71
3DB1294B
3B28A7F8
3D85A354
3E8D4F6F
BCD90F14
3D916B4E
3DEF67F6
BD91DE4C
BE87717B
BEADF99E
3D9FEF6C
BD5239E1
BD89206B
3E5B25BA
BE1BEAB7
3E20F542
3DFEAAF0
BD3C149B
3E93C28A
3B44D65A
BEAC6345
3EAC0531
3E1571A5
3D8B4D87
3DD1431F
BD7687A8
BD21742D
3E586E45
BE30343C
BE300B49
3CB86E6E
3DD7035E
3D5151FC
BE6F110D
BD11359E
3E433E3C
BE602FE8
3E9884C8
3CD8FDD0
3E0D1D4D
BE8092AC
BDF3EAF0
BE647963
BE44D6FE
3E70990B
BE623F05
3E735E2C
BC82CF4E
BE33D31F
BA889FEF
3D6B6D20
BE895B8A
BD95155D
BE82D219
3DA7AB01
BE0B6B57
3CC57960
BD00379B
3E6F76B6
3E528B95
BD61D4C1
BE07E0FB
BD86E0C1
3D7D04FE
BE1F161E
3E3311BD
BE03199B
BE468524
BE9F3DA9
3D97924C
BDC247AF
BE531F35
BE9530E6
BD2BB16D
3D8AF962
3E4B50B9
3E8F8740
3DEA5537
3E51B684
3E7BCEF3
3E6ACE7C
3A4BB954
BE922B5D
BD5E9439
3CB40131
3D6BEAD9
BEAB708F
3E59EB70
3E2C9335
BCB96477
3D96DB95
BB576350
BE0194EC
BE37302C
3B473403
BE1811B1
BD814685
3DDCA31E
BDC280C1
BD06FC44
3E98410C
3E1D683C
3E80F58C
3E404855
BE70E3FE
3E5974EC
3DF996FF
3E4CC9C5
3E4486A0
BD47FBCA
BDB1C165
3E718185
BE01A92C
BD1B2EBA
3DEF88C8
3D9C6D56
3C9086E5
BD3DD384
3E942AAF
3DB1FA54
BE3C5A95
3E66E0CB
3D642092
BE4BD384
BDFA456B
BE9630A9
3E963327
3E098B9E
3E6CD2E0
3E79D14A
BDC04E11
3DD961D0
BE99F428
3DD7F402
3CC2ED9D
3D9FE42B
3E29CA83
BE1C24E7
3DF88790
3DBC88CE
BDD29E7A
3DD2A34E
BDD7179C
BE220DEB
BE00C2FD
3E75E397
3E80DB90
BD1D1AA5
BE3B97B6
BD158D15
3E204D82
3E6F8A1E
3EA03B46
3E8ED5DD
BE8F2326
BE909CD2
3E1AA6E8
BE60E084
3D4CF951
BE7D5B3B
3D194384
BD9D9E99
BE5084C8
BE663160
BE31DFD6
3E03D642
3E55CF21
BD79A7AF
3CB9805A
BD1FFAF1
BE47BDF0
3DDDB4B8
3D83C079
3E2E4316
BE25B612
3EA6AD3C
BD97081B
3E58ACF4
BE01A485
3E34722A
3DD39788
3D5E57D8
3DA4FABC
BE667021
3E6D276E
3D5BC798
BDA12118
3E34AD39
BE633B0B
BD11930A
3DB14BE8
BDED9BD7
BDD14DDB
BE013FEB
BE35C0F3
3E483688
3E1B8B86
BD35B995
3E5C19E2
3DA5FDA1
3E7E6B65
BB6439F3
3DC20F43
BBE61100
BE3922CF
3D5C3065
3DDDD04C
3E67D1A9
3E06ACE2
3E86F9F3
3DBD544D
BCC3DE65
3D2F6C13
BCE37144
BD01DB18
3E3DDEA6
BE79EA12
BE002F88
3D54C755
3D66250A
3DCE0750
BE4A95C0
3E2DD18E
3E55C232
BE461BCD
BDD0075D
3DDE5EA9
3B1668C4
3D927E61
3DCDA7C5
BD9EE2F2
BE475A8D
BE2109C1
BDCF02A2
BE2FBE55
3D7B739D
3D83928A
3E06B2DE
BC71957E
3E0219C3
BE4D11D1
3E5DF58A
BE32564C
3E17A8D2
BDD006F7
BCEE4759
BE747BE1
3D8E9112
3DE9D33E
BE1C5A8A
3E48BDE3
BDA85689
BE355D5C
3E9BDC96
3E038994
3D0BF649
3C959630
BDC8A2FB
3E390339
3E4665C2
BD7F9EA7
3E86EDF4
BE9B3411
3E109B5B
3EA6EBA1
BCD00D3B
BE09F285
BE6FBAC2
3DD947B7
BCCFC000
BDE59370
BDA5246B
3E0CC0DB
BE0F0DC1
BE92071B
3E4B8182
3D9E7014
3DFF29CD
3C9EBE90
BBFAC94E
BE58AFFD
3D9D11AB
3E10ED7A
BDD4C096
BE02D1A4
3E4ED5C2
BE759383
3E89AAFC
BD8EA90A
BD5EDEB8
3D37B525
BE150317
3D563B24
BE90AC6B
3E42306D
3C8BC4E9
3D55DDB8
3DD3B671
BD9F09C8
BE04859A
BDF3D4B9
BE063BA4
BE5FE183
3E771E63
3DD780FA
BE77F4A2
3E02CD04
BE3F4A0B
BE02ECD5
BB64131D
BE536A9D
3E3BBD97
BD1A9772
3DBB63BF
BE41D321
3E4D05B0
3DC47936
BE17A7C9
3E82298F
3D4465D4
BDE1BE76
3B345A84
BDB61C33
3CF8BCA1
BE98704E
3C137593
3E881C3A
BE4F931A
BE811D51
3CDA743D
BE0127FE
BD86D44F
BD757BC9
BDDAF846
3E7DFDE5
BE219913
3E102778
3E141EAC
BDB78509
BE9A8EF4
BE6E6376
BDAD9AA3
3E929ACB
3E557337
3C2B9040
3E2768A1
3DC3F4AC
BB0EAF97
BE492E8B
3E4F2E37
3E0837A5
3DFA7A79
3DFD474C
3DBC05C6
BC70E9C3
3E14CAE8
BCC19D93
BDAEE051
3E17F91F
BD9CC4F2
BDDCF19A
3DDE1FCC
BE14BC5B
BE8F6CB5
BE37D46E
3DE7EFB6
BD689EB8
BE26C2D0
BE979007
3E456EEA
BDB585B4
BDE4ED37
BE2EC920
3DB64405
3D089AA2
3CEB0DD9
BDEAC029
3E3B4F17
3DC679D0
3DC4EBD5
BE4A84AA
3E41257D
3E63CF6D
3DBBBCB6
BE898589
BDA7B0AC
BE565864
BE6E4FA8
BE7DC590
BE28D90D
BD2A666C
3E2857EB
BE74C189
BD62C6E8
3E38A854
BE4F2600
3E8047D4
3E3A9152
3DEBD19D
BCE1774A
BE259D05
BC1B19FF
BE66366E
BD8C701B
BE21E367
3E3C7C67
BD47CC8F
3E586C75
BE83FB46
3E124B54
BE7DDCC3
3E8A2FE8
BE898AB7
3DCF7933
3E61B4C3
BC150D3B
3E0FD2A7
BBB698A5
BD04EC10
BD84CA3E
3CE8DC18
BE0B1913
3E606034
BDDD48AC
3E4EB0D2
3DF7BDAB
BE8EF3F0
BA694E22
3E3DE24E
BE8975EC
3C64B23A
3EAC11DB
BDE61F53
3D2DD474
3E0AFD89
BE69D562
BD96805D
3D38F0BD
3E620D0E
3E2B298A
3E7ACB54
BDB2A01F
BE6E8F55
BDC27501
BCB35665
3E7E1309
BDB1A1C9
3E033140
BC978C6C
BE7B0E4D
3E3998BD
BE0C7CDA
BE8027BD
BE8E9FFD
3CB86C8B
3CA25549
3E321735
BDB9216E
BD8504C8
BE67F7AB
3D37D0AC
3E468805
BE6482E3
BE0C5647
BDA2A4F3
3C103E3D
3B31A94F
3DC0F9AF
3E2A12FC
BE524127
3C331E1B
BE4ECA53
3E91720D
3E4F3578
BD878D7A
3DC8B55A
3CF6612C
3E50A5F6
BC2CD076
3D0B3362
BE79FB6E
3E1E9847
3D841923
BC91F8D3
BDC7C97E
3DFE17C3
3DAF2AC7
BD5F0C28
BE83B165
BE920E74
3D950F7B
3CB34FBC
3DA1FBD3
BCD09AF5
3EB05F32
BE3C971C
BE970605
BE7E217C
3D03C63D
3CE8763E
3E685AD6
BE7EC0BE
3E37949E
3E293D15
BE5DBDCF
3E0087C3
BE72EE1E
3DD3F502
BE88FDDF
BC9BAB0C
BC810325
BE9FD935
3EA02AC3
BDB8CC2F
BD9A783F
3E5157DC
BE94BF10
BE5D2611
3E957DD9
BDBC6BD6
3E889B37
3DD1875C
3E812C19
BD9B7193
3DF27FF2
3E24CD4F
3E35E057

