5AA
4ED
1F0
1CA
279
00F
6B7
0A6
754
214
67C
266
051
5E3
5E0
790
6A3
0C8
5F0
650
7E3
681
7BD
5DB
13F
05B
082
0EE
19A
0B9
08A
0A1
500
15C
17E
5A1
1A2
0FC
0D1
567
0BB
6BF
13C
0C2
679
6C3
062
786
1D4
04D
106
4C6
13B
097
1A5
03C
63C
63C
731
6DF
4FC
7CE
054
1A8
7D2
5C8
1B1
0DF
6DB
751
03C
5B6
0C1
65A
16E
4F1
159
106
0AC
722
49F
7C7
2C8
7CD
608
728
799
732
18A
681
150
043
782
6F2
16F
0DB
0CB
132
1E1
74C
4EE
0AA
704
761
076
6D1
5AD
5CE
117
719
66D
174
12E
624
5C0
5AB
0E6
204
0F4
7A6
129
082
209
12D
752
674
768
1A1
194
5AF
1C9
678
083
11C
4CE
235
236
754
146
078
62D
6B5
080
00A
53F
115
590
076
78C
587
25B
149
004
21B
5DA
1A3
7A9
64E
7F7
65B
2C0
726
71B
55E
684
020
0FA
06B
6B7
121
5DC
077
6D4
624
18A
045
79C
18C
602
0B9
104
655
767
27B
6BC
6BF
1FB
7D9
142
1EE
50D
7AF
635
7C0
771
113
618
5DE
743
081
695
216
056
60B
249
195
15D
7CA
74E
0E3
5F9
1AE
0EB
6E3
4FF
649
5CC
65E
1AA
33C
71D
204
008
5DB
6F6
076
5D9
7E3
54E
1FD
177
579
4DA
5B1
552
6C1
7E4
6C7
681
110
7E7
6E0
764
0DA
7D8
006
655
009
0C4
7C0
722
024
034
22C
677
232
0BB
717
733
044
2AB
759
6F9
22F
1AC
001
739
158
73E
74F
0C9
59B
25E
1BB
0C5
0B6
7E7
794
740
14C
7C0
790
71B
00B
7AF
149
78D
275
1D5
176
7EF
774
6EB
5E9
7D7
64A
607
5A8
7C2
1ED
649
1F7
140
6EF
771
724
7A0
6EB
67F
6B2
0E6
06B
07B
0A6
661
0C1
5A3
680
0C5
6DD
742
60C
0D3
2B5
12E
7CC
0E4
555
6C4
0FB
0A5
15E
73C
1C3
6B4
00C
158
74C
29D
765
278
25B
5C7
0B0
7BF
7E6
6BA
0CA
154
7A2
6BA
106
7FC
0E0
20A
0B0
261
2A0
795
16E
6C9
102
61C
5AC
1E1
66F
1FE
09F
701
172
76B
115
100
651
67D
025
708
689
00D
627
6D6
1B8
12F
719
0DD
2FD
0C7
27D
686
07F
4E7
050
6CA
6C0
79A
1C5
707
27B
46F
0CB
02A
1F0
6F3
5C3
638
74C
032
6ED
5D4
117
177
2BC
759
1B5
4F3
639
702
112
602
0DB
153
261
78C
793
17A
095
5CE
1D9
5B2
05E
58A
041
642
156
0A1
1E8
4C5
0D5
1EA
500
551
7DB
128
28A
253
052
2BB
104
6E8
618
13C
6AD
0FF
6BA
0AC
7C7
1E1
6C3
6CC
097
711
224
0D6
72C
21D
538
264
7A3
6FE
79F
2F5
4E9
74C
753
0D3
153
0F1
72E
264
124
27E
0C4
096
595
0EE
17A
042
66D
2B7
282
097
5FC
134
102
63D
1AB
641
147
6B9
6E6
032
5EE
7DE
759
777
1AF
171
657
7DB
691
241
689
78D
69F
663
6CA
774
713
0EA
212
768
075
7C0
5CB
5DF
06B
158
02C
784
1A8
648
7C2
000
185
77E
120
2C6
62E
092
7F7
761
0CB
5DD
5C4
22A
631
138
0E9
77B
068
085
1F4
31C
752
709
23F
0F6
62A
053
59B
638
6DE
0A9
7F6
693
517
038
180
115
1A4
533
152
27F
7DB
79A
5BB
078
77F
1C3
1B9
6F7
626
7CB
536
192
0E5
114
259
05B
0D4
617
6B8
567
5AC
094
19A
12B
637
75C
0DD
0F5
020
6D9
6C7
08F
0B2
097
047
708
078
209
71B
514
6EF
6ED
018
11C
71A
645
5FE
613
7B4
15A
295
106
6EB
7A0
6AB
208
014
0D0
6D8
072
7D3
792
066
2E8
767
6A8
6D5
722
0EC
1D3
1BA
7BC
768
723
10D
71C
10E
326
21C
5A6
1E4
5E5
20F
56E
668
593
0D4
615
0AE
0EB
10E
783
60D
695
18B
773
6C3
1B1
7D0
146
719
031
745
7FE
532
7E1
6E8
06F
6C1
7BB
68C
721
074
656
7A6
6D1
7D9
7DD
576
065
6B7
70D
087
700
034
10A
146
183
6E6
5D8
0C5
18F
793
62C
5B0
0E4
0FA
546
105
29A
114
742
6F3
6B0
1B1
680
721
72A
046
15F
734
7C5
1A8
57A
74A
0BE
6B3
7EE
70B
2D0
078
659
58B
108
762
6FF
60A
719
247
552
5D0
057
64C
4FD
539
1C6
6D4
6B3
28E
7E2
7F4
05F
2F5
68D
787
0CC
6F5
70E
26F
7DA
5A3
6CF
633
711
040
748
224
000
0F9
6B2
5AB
203
683
6B6
192
068
183
005
7DE
722
56D
0E5
111
79D
6F7
4E5
797
6AD
65F
2A5
723
001
00F
4CC
735
63D
0FE
0D2
5A3
696
115
793
2DC
7F4
30F
7BE
033
5B0
4A3
0DB
635
1F9
008
0CE
70C
5E4
0CA
5FF
78E
09F
2C8
772
320
718
1C2
124
70C
506
6BE
7F1
2B6
70B
070
233
6A6
171
66D

